/* Copyright 2019 The TensorFlow Authors. All Rights Reserved.

Licensed under the Apache License, Version 2.0 (the "License");
you may not use this file except in compliance with the License.
You may obtain a copy of the License at

    http://www.apache.org/licenses/LICENSE-2.0

Unless required by applicable law or agreed to in writing, software
distributed under the License is distributed on an "AS IS" BASIS,
WITHOUT WARRANTIES OR CONDITIONS OF ANY KIND, either express or implied.
See the License for the specific language governing permissions and
limitations under the License.
==============================================================================*/

// Automatically created from a TensorFlow Lite flatbuffer using the command:
// xxd -i motion_detector_model.tflite > motion_detector_model_data.cc
// See the README for a full description of the creation process.

#include "tensorflow/lite/micro/examples/motion_detector/motion_detector_model_data.h"

// Keep model aligned to 8 bytes to guarantee aligned 64-bit accesses.
alignas(8) const unsigned char g_motion_detector_model_data[] = {
  0x18, 0x00, 0x00, 0x00, 0x54, 0x46, 0x4c, 0x33, 0x00, 0x00, 0x0e, 0x00,
  0x18, 0x00, 0x04, 0x00, 0x08, 0x00, 0x0c, 0x00, 0x10, 0x00, 0x14, 0x00,
  0x0e, 0x00, 0x00, 0x00, 0x03, 0x00, 0x00, 0x00, 0xe0, 0x4b, 0x00, 0x00,
  0x0c, 0x00, 0x00, 0x00, 0x10, 0x00, 0x00, 0x00, 0x20, 0x00, 0x00, 0x00,
  0x01, 0x00, 0x00, 0x00, 0x20, 0x44, 0x00, 0x00, 0x0f, 0x00, 0x00, 0x00,
  0x54, 0x4f, 0x43, 0x4f, 0x20, 0x43, 0x6f, 0x6e, 0x76, 0x65, 0x72, 0x74,
  0x65, 0x64, 0x2e, 0x00, 0x11, 0x00, 0x00, 0x00, 0xf4, 0x43, 0x00, 0x00,
  0xa4, 0x43, 0x00, 0x00, 0x84, 0x43, 0x00, 0x00, 0x74, 0x42, 0x00, 0x00,
  0x64, 0x0a, 0x00, 0x00, 0x5c, 0x0a, 0x00, 0x00, 0x54, 0x0a, 0x00, 0x00,
  0x04, 0x0a, 0x00, 0x00, 0xfc, 0x09, 0x00, 0x00, 0xcc, 0x09, 0x00, 0x00,
  0xc4, 0x09, 0x00, 0x00, 0xbc, 0x09, 0x00, 0x00, 0xac, 0x01, 0x00, 0x00,
  0xa4, 0x01, 0x00, 0x00, 0x14, 0x00, 0x00, 0x00, 0x0c, 0x00, 0x00, 0x00,
  0x04, 0x00, 0x00, 0x00, 0x5c, 0xb6, 0xff, 0xff, 0x60, 0xb6, 0xff, 0xff,
  0xaa, 0xb6, 0xff, 0xff, 0x04, 0x00, 0x00, 0x00, 0x80, 0x01, 0x00, 0x00,
  0xab, 0x99, 0x6c, 0xbd, 0xe0, 0xdf, 0xc3, 0x3e, 0x7f, 0x1f, 0x21, 0xbd,
  0xba, 0x34, 0xd3, 0xbc, 0x92, 0x5f, 0xc9, 0x3e, 0x6f, 0x3d, 0x62, 0x3e,
  0x69, 0xf6, 0xfe, 0x3d, 0x0c, 0x9f, 0xe4, 0x3c, 0xe8, 0xf4, 0xae, 0xbe,
  0x3f, 0xe7, 0xab, 0xbc, 0xae, 0x7d, 0xd6, 0xbd, 0x96, 0xf2, 0x82, 0x3d,
  0x22, 0xbf, 0xf5, 0xbd, 0x57, 0x8e, 0x7e, 0xbe, 0xb6, 0x55, 0xd4, 0x3c,
  0x65, 0x51, 0x81, 0x3d, 0xe6, 0xea, 0xb7, 0x3e, 0x88, 0xb8, 0xd5, 0xbe,
  0xa7, 0x80, 0x62, 0x3e, 0x7a, 0x8b, 0x67, 0x3d, 0xbe, 0x75, 0x0e, 0xbc,
  0x2d, 0xbb, 0x9a, 0xbd, 0xa6, 0x38, 0x9e, 0xbd, 0x87, 0xfe, 0xa2, 0xbe,
  0xf6, 0x58, 0x2e, 0x3d, 0xde, 0x29, 0xf2, 0x3d, 0xa6, 0xd4, 0x11, 0x3d,
  0xe0, 0xd1, 0xac, 0x3e, 0x9e, 0x79, 0x8d, 0x3e, 0x3d, 0x3f, 0xe0, 0xbb,
  0xa0, 0x9e, 0x08, 0x3e, 0x37, 0xcf, 0x52, 0xbd, 0xa9, 0x8f, 0xa0, 0xbe,
  0xef, 0x63, 0x7f, 0xbd, 0xe0, 0xc2, 0xa8, 0x3d, 0x2c, 0x75, 0x27, 0xbe,
  0xaf, 0xe8, 0xd8, 0x3c, 0x76, 0x34, 0xe9, 0xbd, 0x0b, 0xb1, 0x8b, 0x3c,
  0xf8, 0x40, 0x3d, 0xbd, 0x64, 0x9c, 0x1a, 0x3e, 0xc7, 0x47, 0xef, 0xbd,
  0x9e, 0x58, 0x33, 0x3e, 0x50, 0xdd, 0xa5, 0xbe, 0x08, 0x98, 0x78, 0x3d,
  0x39, 0xc1, 0xa4, 0x3d, 0xcb, 0x38, 0x9f, 0xba, 0xf7, 0x54, 0x55, 0x3e,
  0xa6, 0x0c, 0x07, 0xbe, 0x55, 0xe8, 0x4a, 0xbe, 0x46, 0x13, 0x66, 0xbb,
  0xc9, 0xd5, 0xc3, 0x3d, 0x77, 0xc1, 0xc5, 0x3e, 0xba, 0x33, 0x5c, 0x3d,
  0x81, 0x9b, 0x19, 0x3e, 0x0d, 0xc4, 0xc4, 0xb9, 0xaa, 0x1c, 0x16, 0x3e,
  0x1b, 0x45, 0x27, 0x3e, 0x88, 0x71, 0x57, 0xbe, 0x9f, 0xe2, 0x18, 0xbe,
  0xcc, 0x51, 0x91, 0xbd, 0x50, 0xe1, 0x81, 0xbe, 0xb3, 0x82, 0x0a, 0x3d,
  0x59, 0x6e, 0xb0, 0x3b, 0xf0, 0x9b, 0xaa, 0xbe, 0x1e, 0xdc, 0x1d, 0xbd,
  0x1e, 0x14, 0x21, 0x3e, 0x0e, 0x2a, 0x6f, 0xbe, 0xed, 0xed, 0xe7, 0xbb,
  0xff, 0x82, 0x4c, 0xbe, 0x56, 0xdf, 0x82, 0xbe, 0x9c, 0x86, 0x34, 0x3e,
  0x8f, 0x2a, 0x31, 0xbd, 0x44, 0x96, 0xdf, 0xbe, 0x0c, 0x5b, 0x15, 0x3b,
  0x1b, 0x16, 0x25, 0xbd, 0x1d, 0x30, 0x78, 0x3e, 0x10, 0x2f, 0xa9, 0x3d,
  0x83, 0x51, 0xbf, 0x3d, 0x5e, 0xf8, 0x9a, 0xbd, 0x35, 0x4c, 0xe1, 0x3e,
  0x39, 0x31, 0x86, 0xbd, 0x08, 0xda, 0xd5, 0xbd, 0x3d, 0x1a, 0x45, 0x3c,
  0xb7, 0xa1, 0xf1, 0x3b, 0x31, 0xae, 0xa2, 0xbe, 0xfb, 0x6e, 0xdf, 0x3d,
  0x6d, 0x49, 0x0d, 0xbd, 0xd6, 0x7e, 0xc8, 0xbe, 0x84, 0xbc, 0xb6, 0xbe,
  0x3e, 0xae, 0x9b, 0x3c, 0x5e, 0xa3, 0x50, 0xbe, 0xa3, 0x91, 0xca, 0xbc,
  0x0a, 0x25, 0x1a, 0x3c, 0x3f, 0x32, 0x41, 0xbe, 0x0d, 0x10, 0x8d, 0x3e,
  0xf0, 0xb7, 0xff, 0xff, 0x3a, 0xb8, 0xff, 0xff, 0x04, 0x00, 0x00, 0x00,
  0x00, 0x08, 0x00, 0x00, 0x2e, 0x97, 0x16, 0xbe, 0xa5, 0xb1, 0x09, 0xbe,
  0x21, 0xf2, 0xdc, 0xbd, 0x0d, 0xf8, 0x85, 0xbe, 0x01, 0xe0, 0x3e, 0xbe,
  0x05, 0x51, 0xac, 0x3d, 0xa0, 0x84, 0x55, 0x3e, 0xb1, 0x32, 0xa5, 0xbc,
  0x39, 0x05, 0xad, 0x3d, 0x5f, 0x39, 0x98, 0x3e, 0xe0, 0xac, 0x88, 0xbd,
  0xec, 0x2a, 0x86, 0x3e, 0xc4, 0x4c, 0x9b, 0xbe, 0x34, 0x94, 0x3d, 0x3d,
  0xaf, 0x57, 0xdc, 0xbd, 0xbf, 0x26, 0xf8, 0x3e, 0x9a, 0x43, 0x90, 0xbd,
  0x99, 0x7b, 0xb8, 0x3d, 0x2b, 0x1a, 0x41, 0xbd, 0xe5, 0x67, 0x92, 0x3e,
  0x90, 0xb5, 0x9b, 0xbe, 0xbd, 0xb8, 0x31, 0xbd, 0xda, 0x54, 0x33, 0xbd,
  0x59, 0x0d, 0xdf, 0xbd, 0x91, 0x61, 0x34, 0x3d, 0xd2, 0x62, 0xc4, 0xbd,
  0x09, 0x49, 0x05, 0xbe, 0x59, 0xcb, 0xa0, 0xbd, 0xa0, 0x57, 0x90, 0xbe,
  0xf5, 0x72, 0xbe, 0x3e, 0xef, 0x28, 0x40, 0xbe, 0xf9, 0x80, 0x8e, 0xbc,
  0xae, 0x45, 0x29, 0x3f, 0x78, 0x1a, 0x52, 0xbd, 0x5d, 0x90, 0x73, 0xbe,
  0x63, 0xf0, 0x1a, 0xbc, 0xca, 0x80, 0x9c, 0xbe, 0x5c, 0x58, 0x88, 0xbd,
  0xfa, 0x94, 0xb2, 0xbe, 0x00, 0xc7, 0xf8, 0xbd, 0x2a, 0xb8, 0x9e, 0x3e,
  0x14, 0x11, 0x28, 0x3d, 0xab, 0x2c, 0xf5, 0xbc, 0xd0, 0xcf, 0x53, 0x3e,
  0x10, 0xed, 0xdf, 0xbd, 0x4f, 0xb4, 0x97, 0xbd, 0xee, 0xfb, 0x48, 0xbe,
  0xc0, 0x17, 0xfb, 0x3d, 0x42, 0xf1, 0xf9, 0x3c, 0xe7, 0x14, 0x45, 0x3d,
  0xed, 0x93, 0x71, 0x3d, 0x70, 0x3b, 0x6d, 0xbc, 0x97, 0xf6, 0x45, 0x3d,
  0x77, 0x8e, 0xd2, 0xbd, 0xfb, 0xd1, 0xa5, 0xbc, 0x34, 0x13, 0x11, 0x3e,
  0xf5, 0xb0, 0xbb, 0x3d, 0x1c, 0x5e, 0x5d, 0xbd, 0x62, 0xa7, 0x9d, 0x3e,
  0x73, 0x7d, 0xd2, 0x3c, 0xcc, 0x0a, 0x2d, 0x3e, 0xcb, 0x63, 0xbd, 0xbd,
  0xb4, 0x7c, 0x8a, 0xbd, 0xe8, 0x9b, 0xca, 0xbd, 0xd5, 0x7f, 0x04, 0x3e,
  0x6d, 0x3b, 0xb7, 0xbd, 0xb2, 0x78, 0x5f, 0xbe, 0x8d, 0x6c, 0x65, 0x3e,
  0xef, 0x80, 0xbf, 0xbd, 0x6b, 0xbf, 0x46, 0x3e, 0x08, 0xa5, 0x9d, 0xbe,
  0xd5, 0x57, 0x28, 0xbf, 0xde, 0x54, 0x91, 0x3e, 0xbe, 0x17, 0x86, 0xbe,
  0x35, 0x16, 0xbd, 0xbe, 0xfe, 0x1f, 0xb9, 0x3d, 0x56, 0xd8, 0x3e, 0x3d,
  0xb9, 0xb6, 0xfa, 0xbc, 0xfb, 0x5d, 0xc5, 0xbc, 0xb0, 0xba, 0x42, 0xbe,
  0x3f, 0xd9, 0xc1, 0x3e, 0x64, 0x0c, 0x20, 0xbf, 0xae, 0x47, 0x76, 0xbe,
  0x1c, 0xcb, 0x0c, 0xbf, 0x9e, 0x4a, 0x43, 0x3e, 0x96, 0x0e, 0xc6, 0xbe,
  0x69, 0x62, 0xc7, 0xbc, 0x8a, 0xd1, 0x4b, 0x3e, 0x32, 0x79, 0x91, 0x3e,
  0x69, 0x69, 0x40, 0xbe, 0x4c, 0xa5, 0x45, 0x3e, 0xe5, 0xc4, 0x0c, 0xbf,
  0x10, 0xd7, 0x67, 0xbd, 0xe8, 0xb2, 0x9a, 0xbe, 0x6a, 0x34, 0xa9, 0x3e,
  0xfd, 0xeb, 0x85, 0x3e, 0x9a, 0x2e, 0x05, 0xbf, 0x6a, 0x8e, 0x1c, 0xbf,
  0x02, 0x0e, 0x92, 0x3e, 0xab, 0xdd, 0xac, 0xbe, 0x1d, 0x16, 0x2b, 0xbe,
  0x79, 0x77, 0x09, 0xbe, 0xed, 0xab, 0x59, 0xbe, 0x3f, 0xe2, 0xeb, 0xbd,
  0xd3, 0x9b, 0x96, 0xbb, 0x63, 0x57, 0x4a, 0xbe, 0x09, 0x9f, 0xdf, 0x3d,
  0x68, 0x8f, 0xe6, 0xbe, 0xb9, 0xdd, 0x59, 0xbe, 0x17, 0x3d, 0x0a, 0xbd,
  0xba, 0xaa, 0x52, 0xbe, 0x25, 0xa8, 0x44, 0x3e, 0x01, 0x62, 0x71, 0xbe,
  0xa0, 0x4b, 0x97, 0xbe, 0x28, 0x8d, 0x3a, 0xbd, 0xbc, 0x33, 0xee, 0xbe,
  0x73, 0x40, 0x84, 0xbe, 0x31, 0xf6, 0xca, 0xbe, 0x80, 0xe5, 0x29, 0xbe,
  0xe5, 0xf9, 0xcc, 0x3b, 0xb5, 0x7b, 0xeb, 0xbe, 0x6b, 0x8b, 0x42, 0xbf,
  0x36, 0x3f, 0xd3, 0x3d, 0xd6, 0x39, 0xb4, 0xbe, 0xa5, 0x0e, 0xe3, 0xbd,
  0xce, 0x8d, 0x9d, 0xbe, 0x79, 0x27, 0x2b, 0x3e, 0x33, 0x96, 0x04, 0x3e,
  0x17, 0x79, 0xf6, 0xbb, 0x04, 0xcd, 0x09, 0x3f, 0x7f, 0x42, 0xe5, 0x3d,
  0x5f, 0xb1, 0x68, 0x3d, 0x57, 0xdf, 0x22, 0x3e, 0xa5, 0x95, 0x09, 0xbc,
  0x8c, 0x9f, 0xd3, 0xbd, 0xfa, 0x8d, 0x82, 0xbe, 0x9d, 0x8b, 0xac, 0xbd,
  0x50, 0x52, 0x0d, 0xbf, 0x95, 0x72, 0x18, 0xbe, 0xb5, 0x5c, 0xab, 0x3b,
  0x4a, 0xc8, 0xf2, 0x3d, 0x21, 0xe9, 0x2e, 0xbd, 0xd8, 0x83, 0x9c, 0x3e,
  0x65, 0x70, 0xa6, 0xbe, 0xc6, 0x11, 0x20, 0xbe, 0x8f, 0x4c, 0xe6, 0xbe,
  0x4a, 0x0e, 0x52, 0xbc, 0xa0, 0x0e, 0xcc, 0xbe, 0xdd, 0x92, 0x28, 0xbe,
  0xad, 0xc1, 0x70, 0xbe, 0xda, 0xdf, 0xa5, 0xbe, 0xf8, 0x6c, 0x12, 0x3d,
  0x43, 0xe2, 0x0d, 0x3e, 0x79, 0x76, 0x90, 0xbe, 0xa3, 0xee, 0xb2, 0x3d,
  0x68, 0x68, 0x68, 0x3e, 0xea, 0x30, 0xa6, 0xbe, 0xf6, 0x96, 0xdb, 0xbd,
  0xcd, 0x57, 0x7a, 0xbd, 0xbc, 0xba, 0xc8, 0xbd, 0xdc, 0xd6, 0x57, 0xbe,
  0xfd, 0x94, 0x8f, 0xbe, 0xd8, 0x18, 0x05, 0xbd, 0xb7, 0x6e, 0x07, 0xbf,
  0x47, 0xc0, 0x45, 0xbd, 0x24, 0x89, 0x3b, 0xbf, 0xb6, 0x62, 0x1e, 0x3c,
  0x94, 0xe9, 0x25, 0x3e, 0xd0, 0x06, 0xc9, 0x3d, 0x12, 0xc8, 0x9a, 0x3d,
  0x31, 0x18, 0x24, 0x3f, 0xff, 0x16, 0x5b, 0x3d, 0xea, 0xeb, 0x0d, 0xbe,
  0xb2, 0x5f, 0x7c, 0xbd, 0x69, 0x5d, 0x83, 0xbe, 0xb1, 0xda, 0x3f, 0x3e,
  0x21, 0x7d, 0xc7, 0x3e, 0x72, 0x89, 0x5f, 0xbd, 0x2a, 0x24, 0xdb, 0x3d,
  0xef, 0xb5, 0x20, 0x3e, 0xa5, 0x01, 0x7d, 0xbe, 0x15, 0x05, 0x36, 0xbc,
  0x9a, 0x2c, 0xb4, 0xbe, 0xcf, 0x43, 0x8c, 0xbe, 0x47, 0x0c, 0x09, 0x3f,
  0x33, 0xdf, 0x12, 0xbe, 0x26, 0x57, 0x48, 0xbe, 0x19, 0xfa, 0x9a, 0x3d,
  0x3e, 0xdf, 0x0f, 0xbe, 0x53, 0xf5, 0xa3, 0x3d, 0x6d, 0x92, 0x9f, 0xbe,
  0x90, 0x84, 0x82, 0xbe, 0x82, 0xc7, 0x0e, 0xbd, 0x21, 0x29, 0x7a, 0xbd,
  0x41, 0x0c, 0xfc, 0x3e, 0xee, 0x31, 0x74, 0x3d, 0xb5, 0x71, 0xe8, 0x3b,
  0x2f, 0x08, 0x82, 0xbd, 0x29, 0xdf, 0x7a, 0x3e, 0xac, 0x6d, 0x00, 0x3e,
  0xd4, 0x3c, 0xa4, 0x3e, 0xe3, 0x4e, 0x73, 0x3e, 0x15, 0x6e, 0xe4, 0x3d,
  0x1f, 0xca, 0x5b, 0x3d, 0x40, 0xf4, 0x44, 0xbb, 0x3b, 0x49, 0x25, 0xbe,
  0x97, 0x38, 0xbd, 0x3e, 0x9e, 0x80, 0x9b, 0xbd, 0x91, 0x62, 0x00, 0xbe,
  0xa9, 0x1c, 0x53, 0xbe, 0xdb, 0x3e, 0x6e, 0xbe, 0x1b, 0xd2, 0x83, 0xbe,
  0x83, 0xb9, 0x2b, 0xbc, 0xc9, 0xe1, 0x89, 0xbe, 0xb4, 0x71, 0x25, 0xbe,
  0xe4, 0x5c, 0xf3, 0xbe, 0xd7, 0xe0, 0x03, 0x3e, 0x08, 0x38, 0xba, 0xbc,
  0x5b, 0x87, 0x98, 0xbe, 0x15, 0x54, 0x28, 0x3c, 0x62, 0xff, 0x57, 0xbe,
  0xd8, 0x4f, 0x81, 0xbd, 0xc2, 0x71, 0xd9, 0xbe, 0xfa, 0xc2, 0xaf, 0xbe,
  0xf5, 0x4b, 0xa5, 0xbd, 0x0f, 0x20, 0x2f, 0x3d, 0x78, 0x6b, 0x1d, 0xbe,
  0x0c, 0xda, 0x6d, 0xbe, 0x46, 0x7c, 0xbf, 0xbd, 0x1d, 0xc0, 0x84, 0xbd,
  0x93, 0x22, 0x11, 0x3d, 0xe7, 0x65, 0x09, 0xbe, 0x3e, 0x0a, 0x6e, 0xbe,
  0xff, 0xf0, 0xee, 0x3c, 0x12, 0xe1, 0x4c, 0xbc, 0xea, 0x2d, 0x12, 0xbe,
  0x3e, 0xe1, 0x3d, 0xbe, 0x61, 0x6a, 0xb4, 0xbc, 0x9c, 0xc6, 0xac, 0xbe,
  0xac, 0x97, 0x5b, 0xbd, 0x45, 0x7d, 0xd0, 0xbd, 0x02, 0x5a, 0xd4, 0x3c,
  0xa5, 0xab, 0x7e, 0xbe, 0x1e, 0x32, 0x71, 0x3c, 0x8d, 0x2c, 0x7b, 0xbe,
  0xa8, 0xb7, 0x5a, 0xbc, 0x9e, 0xdc, 0x95, 0xbe, 0x88, 0x2f, 0x61, 0xbd,
  0x1a, 0x0f, 0x59, 0xbe, 0x9b, 0xc4, 0xf4, 0x3d, 0x26, 0x84, 0xe8, 0xbb,
  0x56, 0x2a, 0x0d, 0xbe, 0x6d, 0xc5, 0x07, 0xbe, 0x1e, 0xf2, 0x2a, 0xbe,
  0xf6, 0x61, 0x6d, 0xbd, 0x55, 0x43, 0xa1, 0xbd, 0x06, 0xbb, 0x8c, 0x3d,
  0x6c, 0x65, 0x6e, 0xbe, 0x0c, 0xe5, 0x90, 0xbe, 0x31, 0xa0, 0x58, 0xbe,
  0xa9, 0xc3, 0xbd, 0xbc, 0xcf, 0x7f, 0xbb, 0x3d, 0xe7, 0x94, 0xde, 0xbd,
  0x77, 0x51, 0x64, 0xbe, 0xdd, 0x19, 0x53, 0x3e, 0x3b, 0x31, 0x2b, 0xbe,
  0xb0, 0x0c, 0x91, 0xbe, 0x25, 0xbe, 0x4b, 0xbe, 0xa2, 0x95, 0x22, 0xbd,
  0x9d, 0x5b, 0x42, 0xbe, 0x9c, 0x1c, 0x0b, 0xbd, 0xb8, 0xf3, 0x8d, 0xbe,
  0x1e, 0x21, 0x7f, 0x3d, 0xb7, 0x4c, 0x61, 0xbe, 0xde, 0xf5, 0x56, 0xbe,
  0x1a, 0xc3, 0xc9, 0x3d, 0xe4, 0xd0, 0x22, 0xbe, 0xde, 0xb2, 0x48, 0xbe,
  0x59, 0xa9, 0xad, 0x3d, 0x29, 0x70, 0x17, 0x3d, 0x96, 0x93, 0x8c, 0x3e,
  0xb4, 0x05, 0x34, 0xbe, 0xf2, 0xba, 0xd0, 0x3e, 0x14, 0x85, 0x98, 0xbe,
  0x94, 0xe5, 0xdd, 0xb9, 0x5b, 0x9f, 0xd3, 0xbe, 0x64, 0x16, 0x92, 0x3d,
  0x86, 0x1a, 0x12, 0x3f, 0xa2, 0xf4, 0x0d, 0xbf, 0x4a, 0x2a, 0xc7, 0xbe,
  0x4f, 0x63, 0x84, 0xbe, 0xb2, 0x45, 0x96, 0xbe, 0x4a, 0x4a, 0xfb, 0xbe,
  0x90, 0xab, 0x04, 0xbe, 0x48, 0xfd, 0xb7, 0xbe, 0x78, 0x52, 0x98, 0xbe,
  0xde, 0xc4, 0x2e, 0x3e, 0x0e, 0x8f, 0xb6, 0x3e, 0xad, 0x4e, 0x8f, 0x3e,
  0x14, 0x60, 0xae, 0x3e, 0x89, 0xc8, 0x00, 0xbe, 0xa6, 0x3b, 0x60, 0xbe,
  0x68, 0x17, 0x14, 0x3e, 0x69, 0x6a, 0xbf, 0x3d, 0x06, 0x45, 0xad, 0x3c,
  0xd5, 0x03, 0x83, 0x3d, 0xe8, 0xf5, 0x43, 0x3e, 0xdc, 0xe8, 0x13, 0xbe,
  0xbe, 0xe2, 0xd1, 0xbd, 0x4e, 0xef, 0x6d, 0xbe, 0x77, 0xe7, 0xa9, 0xbd,
  0x7d, 0x43, 0x4b, 0x3d, 0xf7, 0x00, 0x02, 0x3e, 0x96, 0xc6, 0x2a, 0xbd,
  0x7b, 0x7e, 0xa3, 0xbc, 0xa4, 0xc9, 0xe0, 0xbd, 0xbf, 0x3c, 0x1f, 0x3d,
  0x37, 0x08, 0x0d, 0xbe, 0x2e, 0x0a, 0xfc, 0xbd, 0xde, 0xf7, 0xad, 0x3d,
  0xe3, 0xc2, 0xc9, 0xbe, 0x11, 0xb1, 0x6d, 0xbe, 0x03, 0x20, 0x64, 0x3d,
  0xbd, 0xad, 0xcd, 0xbe, 0x98, 0x80, 0x92, 0x3e, 0xd7, 0xfd, 0xf4, 0x3d,
  0x1b, 0xff, 0x13, 0xbe, 0x3c, 0xf3, 0x0e, 0xbe, 0x07, 0x3e, 0x4a, 0xbe,
  0x18, 0x87, 0x3e, 0xbe, 0x71, 0x0a, 0x80, 0xbd, 0xf8, 0x0d, 0x06, 0xbf,
  0x3e, 0xc4, 0xda, 0x3d, 0xed, 0x46, 0xae, 0x3e, 0x1a, 0x17, 0x44, 0xbd,
  0xae, 0xd6, 0x84, 0xbd, 0xab, 0x93, 0xdf, 0xbe, 0x18, 0x56, 0x80, 0xbe,
  0xfd, 0xb3, 0x6f, 0xbb, 0x01, 0xb2, 0x0b, 0xbf, 0x2a, 0x95, 0x4c, 0xbd,
  0x92, 0xfd, 0x21, 0x3e, 0x34, 0xcc, 0x91, 0x3d, 0x94, 0xd1, 0xa5, 0x3d,
  0x73, 0xde, 0x23, 0xbf, 0x1f, 0x03, 0x63, 0xbe, 0x4d, 0xe2, 0xeb, 0x3c,
  0x8b, 0x92, 0x22, 0xbf, 0x95, 0x6d, 0x92, 0x3c, 0x48, 0x4c, 0xb0, 0xbc,
  0x37, 0x77, 0x04, 0x3d, 0x81, 0x96, 0x5a, 0xbd, 0x3e, 0x5c, 0x60, 0xbe,
  0xbe, 0x0d, 0xc3, 0x3e, 0x6f, 0x5e, 0x98, 0x3e, 0x4e, 0x93, 0x01, 0xbe,
  0x4d, 0x33, 0xde, 0x3d, 0xa6, 0x56, 0x02, 0xbf, 0x1f, 0x4e, 0x3d, 0xbd,
  0x54, 0xcd, 0x64, 0xbc, 0x9f, 0x90, 0x45, 0xbe, 0xb2, 0xb3, 0x0e, 0xbf,
  0x17, 0x14, 0x72, 0xbd, 0xaf, 0x00, 0x8c, 0xbe, 0xc2, 0xd7, 0x82, 0x3e,
  0x08, 0x45, 0x83, 0xbf, 0x02, 0x7e, 0xd1, 0xbc, 0x05, 0xc6, 0x80, 0x3d,
  0x98, 0xac, 0x5e, 0xbf, 0x18, 0x7a, 0x37, 0xbf, 0xbf, 0xed, 0x84, 0xbb,
  0xb0, 0x44, 0xb7, 0xbe, 0x19, 0x72, 0x2a, 0xbd, 0xf2, 0xbc, 0x82, 0xbf,
  0x69, 0x32, 0x5b, 0x3e, 0xc6, 0xa5, 0x58, 0x3c, 0xe8, 0xfb, 0x6f, 0xbf,
  0xf9, 0x35, 0x41, 0xbd, 0x9c, 0x00, 0x6f, 0xbd, 0x03, 0x49, 0x72, 0xbe,
  0x3c, 0x7b, 0x9e, 0xbd, 0x1f, 0x61, 0x87, 0xbe, 0xa0, 0xcd, 0xe9, 0x3c,
  0xaa, 0x32, 0xac, 0xbc, 0x9c, 0x5b, 0x21, 0x3e, 0x85, 0xc7, 0xcf, 0x3e,
  0xc5, 0x44, 0x06, 0x3e, 0x00, 0x9c, 0x7b, 0x3e, 0x0f, 0x01, 0x94, 0xbe,
  0x44, 0x8c, 0x39, 0xbe, 0xeb, 0xeb, 0x91, 0xbe, 0x6e, 0x37, 0xd5, 0x3d,
  0x4d, 0x8b, 0x97, 0xbd, 0x14, 0xb2, 0x9c, 0x3c, 0xa9, 0x8c, 0xee, 0x3c,
  0x84, 0x2b, 0x27, 0x3d, 0xcb, 0x15, 0x56, 0xbe, 0x74, 0x89, 0xa0, 0xbd,
  0x3f, 0x87, 0xc7, 0xbd, 0x4f, 0x49, 0x03, 0xbd, 0xc1, 0xbd, 0x55, 0xbe,
  0xbb, 0x0c, 0xe9, 0x3e, 0xdd, 0xbf, 0x5b, 0x3e, 0x68, 0x43, 0x58, 0xbe,
  0x74, 0x0d, 0xfe, 0xbd, 0x8d, 0x9d, 0x7b, 0xbe, 0xd7, 0xfe, 0xdd, 0xbd,
  0x78, 0x75, 0x37, 0x3d, 0x65, 0x6e, 0xaa, 0xbe, 0x81, 0x12, 0xf3, 0xbe,
  0x36, 0x25, 0x97, 0xbd, 0xfb, 0xf9, 0x0e, 0xbf, 0xc2, 0xba, 0xca, 0x3e,
  0xb9, 0xeb, 0x4b, 0xbf, 0x8d, 0x9b, 0x6d, 0x3e, 0x18, 0xd6, 0xa9, 0xbd,
  0x08, 0x27, 0x2a, 0xbe, 0xb3, 0xaf, 0xf7, 0x3c, 0x8c, 0x31, 0x35, 0xbd,
  0xd5, 0x7f, 0x03, 0xbe, 0xdd, 0xa1, 0x41, 0xbf, 0xd6, 0xda, 0xfe, 0xbd,
  0xa8, 0xe1, 0x93, 0xbd, 0x29, 0xe1, 0x2e, 0xbd, 0x18, 0xaa, 0x57, 0xbe,
  0x18, 0x17, 0x95, 0x3e, 0xe9, 0x36, 0x58, 0x3e, 0xd1, 0x67, 0x89, 0x3d,
  0x3f, 0x2c, 0x12, 0xbf, 0xe3, 0x6f, 0x67, 0xbc, 0x0f, 0x61, 0x23, 0xbe,
  0xd2, 0xc4, 0x8a, 0xbb, 0x7d, 0x8f, 0x0c, 0x3e, 0xec, 0x77, 0x82, 0xbd,
  0x17, 0x7f, 0x87, 0x3e, 0xf4, 0x1a, 0xa3, 0x3e, 0x31, 0x0e, 0x32, 0xbf,
  0x4e, 0x50, 0xd7, 0xbb, 0xa2, 0x9f, 0x50, 0xbd, 0x46, 0xbb, 0x1c, 0x3d,
  0xdd, 0xf1, 0x0e, 0x3d, 0xcf, 0x9f, 0xdd, 0x3c, 0xcf, 0xce, 0x84, 0x3e,
  0x90, 0xd5, 0xe5, 0x3d, 0xe9, 0x58, 0x43, 0xbf, 0x5d, 0x64, 0x26, 0xbc,
  0x32, 0x20, 0x3a, 0xbe, 0x40, 0x08, 0xbd, 0x3d, 0x09, 0x09, 0xd0, 0x3d,
  0xe8, 0x68, 0x03, 0xbf, 0x55, 0x6f, 0x37, 0x3e, 0x0c, 0x0d, 0x2f, 0xbe,
  0x55, 0x6d, 0x1c, 0xbe, 0xc2, 0x2a, 0xef, 0x3e, 0x65, 0x94, 0xd3, 0xbd,
  0x20, 0x30, 0x2b, 0x3e, 0x2d, 0x08, 0x84, 0xbe, 0x28, 0xf0, 0xdf, 0xbe,
  0x54, 0x8c, 0xde, 0xbc, 0xb0, 0x2c, 0x86, 0xbe, 0x5a, 0xd9, 0x2c, 0xbe,
  0x27, 0xe3, 0xaa, 0x3d, 0x17, 0x44, 0x15, 0x3d, 0x34, 0x28, 0x31, 0x3e,
  0xc6, 0xf6, 0xd5, 0xbe, 0xf8, 0x29, 0x35, 0xbf, 0xc5, 0x2c, 0x28, 0x3e,
  0x76, 0x62, 0xfc, 0xbd, 0xb2, 0x5b, 0x35, 0xbe, 0xf8, 0x3f, 0x4f, 0x3e,
  0x9e, 0x96, 0x9b, 0xbd, 0x18, 0x97, 0x01, 0x3e, 0x14, 0xc2, 0xdf, 0xbe,
  0x0e, 0x86, 0x0b, 0xbf, 0x59, 0x1d, 0x4b, 0xbb, 0x30, 0x0b, 0x70, 0xbe,
  0xd9, 0xb9, 0x21, 0xbe, 0x36, 0xc8, 0x25, 0xbc, 0x75, 0x1e, 0x90, 0xbd,
  0x51, 0x53, 0xbb, 0xbd, 0x1a, 0x12, 0x40, 0xbe, 0xa6, 0xe7, 0x65, 0x3d,
  0xcc, 0x5b, 0x0c, 0xbd, 0x42, 0x30, 0x6e, 0xbc, 0xb5, 0xe0, 0xd3, 0x3d,
  0xaa, 0x38, 0xd0, 0xbd, 0x41, 0xc0, 0x03, 0xbd, 0x6e, 0x74, 0xef, 0x3d,
  0x01, 0xe1, 0x86, 0xbe, 0xa0, 0x78, 0x09, 0x3f, 0x62, 0x35, 0x7a, 0xba,
  0x83, 0x1c, 0xc8, 0x3d, 0xe8, 0x2f, 0xd7, 0x3d, 0x5f, 0x0a, 0xd2, 0xbd,
  0x71, 0xff, 0x8a, 0x3e, 0x04, 0x84, 0x0f, 0xbd, 0x38, 0x85, 0x6a, 0xbe,
  0x8a, 0x7c, 0x23, 0x3e, 0x6d, 0x51, 0x2a, 0xbe, 0x6c, 0x5a, 0x3f, 0x3c,
  0xd7, 0x20, 0x8b, 0xbd, 0xaa, 0x00, 0xca, 0xbd, 0x6c, 0x0a, 0xa2, 0xbd,
  0x1d, 0xa5, 0xab, 0x3d, 0x86, 0x98, 0xa0, 0xbd, 0x44, 0x2d, 0x99, 0xbd,
  0xac, 0xa6, 0x44, 0xbe, 0x4b, 0xf3, 0x6a, 0xbd, 0xc9, 0x43, 0xda, 0xbd,
  0x80, 0x7d, 0xba, 0xbd, 0x0e, 0x09, 0xd8, 0x3e, 0x34, 0x30, 0xba, 0xbc,
  0x00, 0xc0, 0xff, 0xff, 0x04, 0xc0, 0xff, 0xff, 0x4e, 0xc0, 0xff, 0xff,
  0x04, 0x00, 0x00, 0x00, 0x20, 0x00, 0x00, 0x00, 0xc9, 0x3e, 0x68, 0xbe,
  0x3f, 0x49, 0x58, 0xbe, 0x53, 0xb6, 0x1a, 0xc0, 0x68, 0x24, 0x61, 0x3d,
  0xe0, 0x06, 0x73, 0xbf, 0xb7, 0xdc, 0xda, 0xbe, 0x10, 0xa3, 0xa0, 0xbf,
  0x84, 0x62, 0x19, 0xc0, 0x34, 0xc0, 0xff, 0xff, 0x7e, 0xc0, 0xff, 0xff,
  0x04, 0x00, 0x00, 0x00, 0x40, 0x00, 0x00, 0x00, 0xe6, 0x37, 0x70, 0x3c,
  0x2d, 0x77, 0xda, 0xbd, 0x3c, 0xad, 0x86, 0x3d, 0x0a, 0xfb, 0x33, 0x3e,
  0x25, 0xc3, 0xcd, 0xbe, 0x68, 0x88, 0x55, 0xbe, 0xc4, 0x62, 0xd5, 0xbe,
  0x8c, 0xf3, 0x46, 0xbe, 0xb8, 0xa7, 0x39, 0xbe, 0xa6, 0xd3, 0xaa, 0x3e,
  0xc7, 0xec, 0xa4, 0x3c, 0x54, 0x45, 0x9b, 0x3d, 0x67, 0xb9, 0x89, 0xbe,
  0x66, 0xc9, 0xeb, 0xbc, 0xd9, 0x0a, 0xa7, 0x3c, 0xbf, 0x1b, 0xa0, 0x3d,
  0x84, 0xc0, 0xff, 0xff, 0x88, 0xc0, 0xff, 0xff, 0xd2, 0xc0, 0xff, 0xff,
  0x04, 0x00, 0x00, 0x00, 0x00, 0x38, 0x00, 0x00, 0x41, 0x33, 0x40, 0xbe,
  0x26, 0x7c, 0xa8, 0xbd, 0xea, 0x08, 0xaa, 0xbe, 0x22, 0xd8, 0x1b, 0x3f,
  0x53, 0x3d, 0x8e, 0x3b, 0xb3, 0x7e, 0xe1, 0xbe, 0xb2, 0x5d, 0xae, 0x3e,
  0xc3, 0x38, 0xf0, 0xbd, 0xb0, 0xa3, 0xfb, 0xbe, 0x81, 0xef, 0x57, 0xbe,
  0xe7, 0x6f, 0x1f, 0x3d, 0xec, 0x25, 0xe5, 0xbd, 0xce, 0xdf, 0x35, 0x3e,
  0x06, 0xe9, 0x95, 0xbd, 0xf4, 0x41, 0x86, 0x3d, 0xf2, 0xda, 0xe3, 0xbd,
  0x8e, 0x99, 0x27, 0xbe, 0xf6, 0xfb, 0x91, 0x3d, 0x2a, 0x0c, 0xbb, 0xbe,
  0xca, 0xed, 0x5e, 0x3e, 0x91, 0x82, 0x51, 0x3e, 0xfd, 0x19, 0xd4, 0xbe,
  0xf7, 0xef, 0x17, 0x3e, 0x3a, 0xd2, 0x30, 0xbd, 0x83, 0x54, 0x3f, 0xbd,
  0x37, 0xc1, 0x91, 0x3c, 0x20, 0x55, 0x95, 0xbd, 0xa6, 0x92, 0x12, 0xbf,
  0x64, 0xaa, 0x84, 0x3e, 0xba, 0x8c, 0x10, 0x3d, 0x5c, 0xe0, 0x20, 0x3d,
  0xfa, 0xfe, 0x12, 0xbe, 0x2b, 0x08, 0x1c, 0xbe, 0x2d, 0xf5, 0x25, 0x3e,
  0x8b, 0x78, 0x86, 0xbe, 0x91, 0x01, 0x2b, 0x3e, 0x17, 0xd4, 0x56, 0x3e,
  0x97, 0xf6, 0xfc, 0xbe, 0xbb, 0x29, 0x21, 0xbd, 0xe0, 0xc4, 0x9c, 0x3d,
  0xbc, 0xda, 0xfd, 0xbc, 0x37, 0x97, 0x9e, 0x3e, 0xad, 0x26, 0x31, 0x3d,
  0x47, 0x4a, 0x9b, 0xbd, 0x7a, 0x5e, 0xaf, 0x3e, 0xf8, 0x07, 0x2d, 0x3e,
  0x39, 0xd6, 0x4a, 0xbd, 0x88, 0xbf, 0xae, 0xbd, 0x37, 0xed, 0x35, 0xbe,
  0x9d, 0xbd, 0x06, 0x3d, 0xd9, 0x28, 0x67, 0xbe, 0xc0, 0x59, 0xd7, 0x3d,
  0x81, 0xe6, 0x41, 0x3e, 0xe6, 0xc3, 0x5f, 0xbe, 0x73, 0xf9, 0x2e, 0x3e,
  0x52, 0x0d, 0xf7, 0xbd, 0xf7, 0xf9, 0x18, 0xbe, 0xe8, 0x33, 0x70, 0x3e,
  0xfa, 0x60, 0x3a, 0xbd, 0xdd, 0x24, 0x52, 0x3e, 0xcc, 0xe6, 0xde, 0x3e,
  0xdf, 0x0c, 0x64, 0x3e, 0xfc, 0xcf, 0x02, 0xbe, 0xd6, 0x45, 0xd8, 0x3c,
  0x2e, 0xe4, 0xc4, 0x3d, 0x03, 0xa8, 0x3e, 0x3b, 0xa0, 0xa9, 0x29, 0xbf,
  0x99, 0x27, 0x6e, 0x3e, 0x9d, 0xe4, 0x80, 0x3e, 0xa3, 0xa0, 0x69, 0xbe,
  0x30, 0x23, 0x25, 0x3e, 0x79, 0xd9, 0x18, 0xbe, 0x10, 0x64, 0x08, 0xbe,
  0x3d, 0x2a, 0x12, 0x3e, 0xcc, 0xd4, 0x0e, 0xbe, 0x49, 0x53, 0xc0, 0x3e,
  0x0c, 0x5d, 0x8a, 0x3e, 0xa9, 0x91, 0xfe, 0x3d, 0x14, 0xe7, 0x36, 0xbe,
  0xa9, 0xb1, 0x2e, 0x3d, 0x6a, 0xa0, 0xdc, 0x3c, 0x3e, 0x7e, 0xcf, 0x3d,
  0x1d, 0xda, 0xbf, 0xbe, 0x5f, 0x10, 0x00, 0x3f, 0x43, 0xac, 0x15, 0x3e,
  0x90, 0xc2, 0xc8, 0xbe, 0xaf, 0x14, 0xde, 0x3d, 0x9c, 0xcb, 0x21, 0xbe,
  0xa1, 0xa1, 0xca, 0xbc, 0x0e, 0x3c, 0x70, 0x3e, 0x79, 0x27, 0x0e, 0xbe,
  0x43, 0x39, 0x6c, 0x3e, 0x93, 0x0f, 0xe7, 0x3e, 0x52, 0x0c, 0x70, 0xbd,
  0xb7, 0x00, 0xa8, 0x3d, 0xcc, 0x52, 0xd5, 0x3d, 0xd6, 0xae, 0x89, 0x3d,
  0xf0, 0x0f, 0x5c, 0xbe, 0x9b, 0x87, 0xb3, 0xbe, 0x46, 0x5f, 0x9a, 0x3e,
  0x70, 0x1a, 0xa5, 0x3e, 0x6a, 0x30, 0xc4, 0xbe, 0x7f, 0xb9, 0x1a, 0x3e,
  0x49, 0x78, 0x24, 0xbc, 0x8f, 0xf8, 0xd3, 0xbe, 0x63, 0xdc, 0x2c, 0xbd,
  0x0f, 0xb0, 0x1a, 0xbc, 0xae, 0x63, 0x83, 0x3e, 0xd1, 0xe2, 0x54, 0x3e,
  0xdb, 0xab, 0x85, 0xbe, 0x3f, 0xb8, 0xaa, 0x3d, 0x75, 0x8e, 0x9a, 0x3d,
  0xd3, 0x16, 0x65, 0x3d, 0xe6, 0x94, 0x8c, 0xbe, 0xe0, 0x90, 0x40, 0xbe,
  0x45, 0x2e, 0x59, 0x3e, 0x7d, 0x7d, 0x6f, 0x3d, 0xb6, 0xfe, 0x16, 0xbf,
  0x32, 0x8a, 0xd7, 0x3d, 0x76, 0xc5, 0x1c, 0xbe, 0x91, 0xfc, 0x08, 0xbe,
  0x80, 0x89, 0x15, 0x3e, 0x9c, 0xd3, 0x55, 0x3c, 0x6f, 0xe3, 0x6b, 0x3d,
  0xfe, 0xb1, 0x0d, 0x3e, 0x03, 0x79, 0x84, 0xbe, 0x73, 0x57, 0x82, 0x3d,
  0x52, 0x5e, 0xf0, 0x3d, 0x7c, 0xc6, 0x88, 0x3d, 0x91, 0x09, 0x07, 0xbf,
  0x85, 0xcc, 0xcc, 0xbe, 0x89, 0xbd, 0x05, 0x3c, 0xe2, 0xca, 0xf6, 0x3c,
  0x67, 0x89, 0x67, 0xbe, 0x60, 0x90, 0x59, 0xbe, 0xa0, 0xc6, 0x14, 0xbd,
  0x30, 0x76, 0x80, 0xbe, 0x67, 0x6d, 0x2b, 0xbe, 0x03, 0x65, 0xe7, 0x3c,
  0x9b, 0x04, 0x66, 0xbe, 0x75, 0x69, 0x02, 0xbe, 0xc4, 0x15, 0x39, 0xbb,
  0xc2, 0x47, 0x06, 0x3d, 0xe7, 0x80, 0x18, 0xbe, 0x88, 0xc7, 0xd1, 0x3d,
  0x1f, 0xed, 0x48, 0xbe, 0x4f, 0x2f, 0x27, 0xbc, 0x27, 0xe0, 0x37, 0x3e,
  0x10, 0x6f, 0x2a, 0x3e, 0x2b, 0x60, 0xb0, 0xbe, 0x67, 0xec, 0x2e, 0xbf,
  0x48, 0x2f, 0x52, 0xbe, 0x65, 0x17, 0xb6, 0xbd, 0xd6, 0xd8, 0x85, 0xbd,
  0x34, 0xbb, 0xa1, 0xbd, 0xac, 0xb6, 0x09, 0xbf, 0xe7, 0xf0, 0x85, 0xbe,
  0xfc, 0xbb, 0xe5, 0xbd, 0x33, 0x6e, 0x45, 0x3d, 0xb5, 0x6b, 0x91, 0xbe,
  0x76, 0x9e, 0x83, 0x3d, 0x2d, 0xbd, 0x2c, 0xbf, 0x56, 0x1f, 0xa6, 0xbe,
  0x1a, 0x81, 0xc3, 0x3c, 0x4f, 0xfb, 0xab, 0xbc, 0x28, 0x00, 0xa4, 0xbe,
  0xae, 0x76, 0x96, 0xbe, 0x06, 0x47, 0xac, 0xbd, 0x68, 0xa4, 0x91, 0xbd,
  0xea, 0xeb, 0xab, 0xbc, 0xd3, 0x90, 0x96, 0xbc, 0x2f, 0x13, 0x00, 0xbf,
  0x1d, 0x70, 0x01, 0xbf, 0xdc, 0x47, 0x26, 0x3e, 0x52, 0xeb, 0x7f, 0x3c,
  0xf5, 0xbe, 0xac, 0xbd, 0xf8, 0x27, 0x01, 0x3d, 0x21, 0x79, 0x9b, 0xbe,
  0x03, 0x5a, 0xe8, 0x3c, 0x5e, 0x98, 0x40, 0x3e, 0xd0, 0x20, 0x47, 0x3e,
  0x36, 0x30, 0x59, 0x3d, 0xa0, 0xbd, 0x93, 0xbe, 0x29, 0xc7, 0x56, 0xbd,
  0x1f, 0x12, 0xd2, 0xbd, 0x84, 0x6d, 0x04, 0xbd, 0x6f, 0x9b, 0x19, 0x3c,
  0x5e, 0x97, 0x11, 0xbf, 0x12, 0xbc, 0x1e, 0xbe, 0xd3, 0x12, 0xb7, 0xba,
  0x46, 0x73, 0xd5, 0x3d, 0x8d, 0x23, 0xa9, 0xbe, 0x58, 0xb6, 0x1c, 0xbd,
  0x36, 0xde, 0xb2, 0xbe, 0xe2, 0x27, 0xc6, 0xbc, 0xf8, 0x78, 0x0c, 0x3e,
  0x1f, 0x50, 0x49, 0xbd, 0x9f, 0x80, 0xb9, 0x3d, 0x15, 0xda, 0x8d, 0xbe,
  0xf4, 0xa4, 0x51, 0x3d, 0x2a, 0x98, 0x42, 0x3e, 0xae, 0x6b, 0x33, 0xbe,
  0xaf, 0x56, 0xea, 0x3c, 0xfa, 0x9a, 0x81, 0xbe, 0xd3, 0x4c, 0x56, 0xbe,
  0x79, 0xe9, 0x5b, 0xbd, 0xb0, 0xec, 0x44, 0xbd, 0x91, 0xed, 0xb1, 0xbd,
  0xe5, 0x1f, 0x34, 0xbd, 0x9e, 0x3e, 0xb7, 0xbe, 0x6a, 0x51, 0x46, 0xbe,
  0x46, 0x4b, 0x0b, 0x3e, 0xcc, 0xd3, 0x47, 0xbe, 0x32, 0xdb, 0xec, 0x3c,
  0xda, 0x8d, 0x28, 0xbe, 0x62, 0xc0, 0xb4, 0xbd, 0x03, 0xa5, 0x2c, 0x3e,
  0xd0, 0xfd, 0x58, 0x3d, 0x72, 0x63, 0x13, 0x3b, 0x2d, 0x2c, 0x9e, 0xbe,
  0xad, 0x02, 0x52, 0xbe, 0xe7, 0xca, 0x06, 0xbe, 0xcc, 0xc6, 0x3b, 0xbd,
  0x71, 0x5e, 0xc9, 0xbe, 0x10, 0xc7, 0xc7, 0xbe, 0x9d, 0x80, 0x28, 0xbe,
  0x65, 0x53, 0x87, 0x3e, 0x34, 0xbc, 0xc9, 0xbd, 0xa2, 0xbf, 0xf9, 0x3d,
  0xa5, 0x83, 0x8c, 0xbe, 0x81, 0xa5, 0x01, 0xbe, 0x90, 0x05, 0x3a, 0xbe,
  0xcb, 0x5a, 0x65, 0x3e, 0x9b, 0x85, 0x85, 0xbe, 0x0e, 0x0d, 0xb1, 0xbd,
  0xdb, 0xa1, 0x95, 0xbe, 0x64, 0x79, 0x1c, 0xbc, 0x8a, 0x90, 0x5f, 0xbe,
  0x2d, 0x9a, 0x2d, 0x3c, 0xa3, 0x59, 0x28, 0xbe, 0xc8, 0x0a, 0xa6, 0xbe,
  0xa6, 0xb3, 0x45, 0x3e, 0x63, 0x6e, 0x9a, 0x3e, 0x2a, 0x07, 0x3c, 0x3d,
  0xe6, 0xad, 0x24, 0xbd, 0xfb, 0x64, 0x98, 0x3e, 0xbe, 0x0e, 0x3d, 0x3e,
  0x9e, 0x18, 0x15, 0xbe, 0x95, 0x75, 0xa3, 0x3e, 0x39, 0xd3, 0x50, 0x3e,
  0x4e, 0x04, 0xd3, 0x3c, 0x54, 0x15, 0x99, 0x3d, 0xf2, 0x8a, 0xc4, 0x3d,
  0x1b, 0x5d, 0xfc, 0xbd, 0x41, 0x27, 0xfa, 0xbd, 0x3d, 0x63, 0xa7, 0x3d,
  0xa7, 0xfd, 0x87, 0xbe, 0xf6, 0xdf, 0x11, 0x3e, 0xdd, 0xcc, 0xa5, 0x3e,
  0xbe, 0x89, 0x57, 0x3e, 0x44, 0xf5, 0x79, 0xbd, 0x05, 0x44, 0xc0, 0x3e,
  0xf6, 0xfd, 0x8c, 0x3e, 0x40, 0xbb, 0xee, 0xbc, 0xea, 0x2a, 0xb0, 0x3e,
  0x4a, 0xeb, 0x1a, 0x3e, 0x31, 0x39, 0xcc, 0xbe, 0xf6, 0xdc, 0x3b, 0xbd,
  0x07, 0xc1, 0x2c, 0x3e, 0x3b, 0x4b, 0x4a, 0xbd, 0x5d, 0xff, 0x70, 0xbe,
  0x55, 0x66, 0x24, 0xbd, 0xec, 0x7b, 0x3c, 0xbe, 0x7d, 0x75, 0x29, 0x3d,
  0xcf, 0x0d, 0x9b, 0x3e, 0x7c, 0x71, 0x05, 0xbe, 0x93, 0x93, 0xbd, 0x3d,
  0x8f, 0x45, 0xa7, 0x3e, 0x76, 0x59, 0x5c, 0x3e, 0x5e, 0x32, 0xb7, 0x3d,
  0xa6, 0x0d, 0xab, 0x3e, 0x91, 0x00, 0x27, 0x3e, 0x0e, 0xe6, 0xc4, 0xbe,
  0x48, 0xd1, 0x1f, 0xbe, 0xaf, 0xb5, 0xae, 0xbc, 0xe6, 0xf9, 0xea, 0x3d,
  0x41, 0x37, 0x42, 0xbe, 0x61, 0xa5, 0x20, 0xbe, 0x0b, 0x75, 0x91, 0xbe,
  0xfa, 0x5b, 0x37, 0x3d, 0x24, 0x9f, 0x3d, 0x3d, 0x46, 0xbb, 0x23, 0x3e,
  0x30, 0x6b, 0xc9, 0x3a, 0x39, 0x0a, 0xaa, 0x3d, 0xbd, 0x64, 0x88, 0x3e,
  0xe0, 0xd0, 0x85, 0xbd, 0xef, 0x5e, 0x84, 0x3e, 0xd5, 0x9c, 0x58, 0x3e,
  0xcd, 0x93, 0x74, 0xbe, 0x3d, 0x8a, 0x0e, 0xbe, 0xc2, 0x9a, 0x25, 0xbe,
  0x5f, 0xbe, 0x10, 0x3e, 0x5a, 0x1b, 0x38, 0xbe, 0xf6, 0x60, 0x5b, 0x3d,
  0x3f, 0x13, 0xb0, 0xbe, 0x9c, 0x4a, 0x88, 0xbc, 0x84, 0x0e, 0x40, 0x3e,
  0x4e, 0x98, 0x1e, 0x3d, 0x6c, 0x1b, 0x51, 0x3d, 0x5e, 0x77, 0x1d, 0x3e,
  0xe4, 0x5c, 0x06, 0x3e, 0x67, 0xa2, 0xe2, 0x3d, 0x82, 0x8f, 0xb9, 0x3e,
  0xdf, 0xbe, 0x69, 0x3e, 0x97, 0x04, 0x35, 0xbe, 0x82, 0x2f, 0xf4, 0x3c,
  0x83, 0x87, 0xc6, 0x3d, 0x3f, 0x0e, 0x42, 0x3e, 0x58, 0x43, 0x42, 0xbe,
  0x47, 0x1e, 0xbb, 0xbd, 0x2c, 0xb7, 0x8c, 0xbe, 0x74, 0xaf, 0x6c, 0xbd,
  0x15, 0x95, 0x59, 0x3c, 0x82, 0x4b, 0x02, 0x3e, 0xc0, 0xc1, 0x1f, 0xbe,
  0x18, 0xc3, 0x50, 0x3e, 0xfb, 0x79, 0x75, 0x3c, 0x02, 0x49, 0x39, 0xbe,
  0x41, 0x67, 0x27, 0x3e, 0xfc, 0x93, 0xe3, 0xbc, 0xa0, 0xd5, 0xb4, 0xbc,
  0xa1, 0xb8, 0x8a, 0xbd, 0x9c, 0xd4, 0x66, 0x3d, 0x8e, 0x15, 0x15, 0x3e,
  0x39, 0xbc, 0x2c, 0xbe, 0x8b, 0x0b, 0x62, 0xbd, 0x85, 0x8f, 0x48, 0xbe,
  0x0d, 0xa1, 0x5c, 0xbe, 0x23, 0x40, 0x97, 0xbe, 0x99, 0xb4, 0x4c, 0x3e,
  0xc9, 0xf2, 0xad, 0xbd, 0x59, 0x35, 0x9d, 0x3d, 0x1e, 0x38, 0x1a, 0x3d,
  0xe2, 0xa2, 0xf9, 0xbd, 0xba, 0x0e, 0x5b, 0xbe, 0x4a, 0x6c, 0x61, 0x3e,
  0x88, 0x37, 0x2b, 0x3d, 0x21, 0x8f, 0x3f, 0xbd, 0x00, 0xe6, 0x10, 0xbe,
  0xf8, 0x89, 0x73, 0xbe, 0xb5, 0xc9, 0xc5, 0xbd, 0x9a, 0x1d, 0x4a, 0x39,
  0xc3, 0x78, 0x8f, 0xbd, 0xee, 0xff, 0x84, 0xbe, 0x2b, 0x10, 0x21, 0xbe,
  0xe3, 0x56, 0x3a, 0x3e, 0xde, 0xa0, 0x70, 0x3d, 0x0a, 0xbc, 0x81, 0xbd,
  0x87, 0xbe, 0x24, 0xbe, 0x22, 0x9d, 0x7d, 0xbd, 0x10, 0x70, 0xb0, 0xbe,
  0x3f, 0x4b, 0xc8, 0x3d, 0xa1, 0x57, 0x3d, 0xbd, 0x33, 0x1b, 0x71, 0x3d,
  0xd7, 0x2d, 0xb1, 0xbd, 0x51, 0x3c, 0xcc, 0xbd, 0xc5, 0xd2, 0x1e, 0x3c,
  0x47, 0xb0, 0x4c, 0xbe, 0xa7, 0xcc, 0xc3, 0xbc, 0x5e, 0x00, 0x41, 0xbe,
  0xba, 0x1f, 0x46, 0xbd, 0x7a, 0xcb, 0x25, 0x3e, 0x9d, 0xaa, 0x00, 0xbe,
  0x4f, 0x74, 0x19, 0xbd, 0xf1, 0xd0, 0x55, 0xbe, 0x5c, 0x47, 0x2d, 0xbe,
  0x85, 0xa4, 0x8c, 0xbe, 0x38, 0x63, 0x23, 0xbe, 0xa5, 0xb8, 0xc1, 0x3b,
  0xb9, 0xd4, 0x12, 0xbe, 0x92, 0x1d, 0x51, 0xbe, 0xd1, 0xe6, 0xe9, 0xbe,
  0x51, 0x20, 0x2a, 0xbc, 0xce, 0xaf, 0x6a, 0xbe, 0x47, 0x47, 0x9d, 0x3d,
  0xb8, 0x8c, 0x1b, 0xbe, 0x0e, 0x1c, 0xd5, 0xbe, 0xc8, 0x41, 0x46, 0x3d,
  0xf0, 0x8e, 0x77, 0x3c, 0x73, 0x8a, 0xad, 0xbe, 0xb4, 0x9e, 0xdb, 0xbe,
  0x9a, 0x48, 0x22, 0xbe, 0x22, 0x2a, 0x4d, 0xbe, 0xc1, 0x20, 0x3f, 0x3a,
  0x41, 0x94, 0xfa, 0x3d, 0xd4, 0x79, 0x1e, 0xbe, 0x53, 0x2b, 0xc3, 0xbd,
  0x56, 0x59, 0xab, 0xbe, 0x7c, 0xaa, 0xf7, 0xbd, 0x18, 0xc6, 0x51, 0xbe,
  0x30, 0xfb, 0x2d, 0x3d, 0x3c, 0xcc, 0xa6, 0xbe, 0xee, 0x05, 0x75, 0xbd,
  0x5d, 0x8b, 0x82, 0x3c, 0x03, 0xc8, 0x89, 0x3d, 0x56, 0xfe, 0x8d, 0xbe,
  0x89, 0x34, 0x35, 0xbe, 0x67, 0x02, 0x4d, 0xbe, 0x8d, 0xbe, 0x27, 0xbe,
  0x18, 0x52, 0x3a, 0xbc, 0x21, 0x6f, 0x44, 0xbd, 0xc3, 0xad, 0x71, 0xbd,
  0xa3, 0xed, 0x99, 0xbd, 0xeb, 0x1a, 0x36, 0xbe, 0x9e, 0x97, 0x4f, 0x3c,
  0xe1, 0x5f, 0x2a, 0xbe, 0x30, 0xdc, 0x8b, 0xbd, 0x9f, 0x65, 0x46, 0xbd,
  0x0c, 0x1e, 0x86, 0xbd, 0xaa, 0x7c, 0x53, 0x3e, 0xdd, 0x8b, 0xe5, 0xba,
  0x2b, 0x4c, 0xa3, 0xbe, 0x0f, 0x66, 0x0b, 0xbf, 0x5f, 0x55, 0x8a, 0xbd,
  0xd3, 0x2d, 0x86, 0xbd, 0xe5, 0x65, 0x9a, 0xbd, 0x10, 0x88, 0x77, 0x3d,
  0x6b, 0x29, 0xa6, 0xbd, 0xb9, 0x84, 0x49, 0xbe, 0xaa, 0xd4, 0x44, 0xbe,
  0xec, 0xe8, 0x62, 0x3b, 0x9d, 0xfb, 0xa5, 0xbd, 0xf8, 0xf1, 0x8e, 0xbe,
  0xc3, 0xcd, 0xfd, 0xbc, 0xba, 0x00, 0xbc, 0xbc, 0x7e, 0x12, 0x9c, 0x3d,
  0x85, 0xee, 0x0a, 0xbd, 0xce, 0x0c, 0x69, 0xbe, 0x7d, 0x10, 0xbe, 0xbe,
  0x73, 0x97, 0x7f, 0xbd, 0xd6, 0x2b, 0xb1, 0xbc, 0xdd, 0x79, 0x82, 0xbc,
  0x7e, 0x80, 0x74, 0xbb, 0x88, 0xa4, 0x0c, 0x3d, 0xd8, 0x12, 0x38, 0x3e,
  0x5d, 0x4a, 0x70, 0xbe, 0xae, 0xb7, 0xf9, 0xbd, 0xbf, 0xe3, 0x91, 0x3d,
  0xf5, 0xa8, 0x32, 0xbe, 0x93, 0x71, 0x8c, 0xbe, 0x4d, 0x2a, 0x8c, 0xbe,
  0xe2, 0xe8, 0x82, 0x3d, 0x1e, 0xe7, 0xf3, 0x3c, 0xfc, 0x9d, 0x9e, 0xbe,
  0x3c, 0x41, 0x0f, 0xbf, 0x80, 0x79, 0x46, 0x3d, 0x9f, 0xf0, 0x51, 0xbe,
  0xe9, 0x98, 0x0b, 0xbf, 0x75, 0x2e, 0x9d, 0x3d, 0xab, 0xb9, 0x81, 0x3d,
  0xe4, 0x44, 0xc8, 0xbe, 0xd4, 0xfc, 0xb5, 0x3c, 0x04, 0x03, 0x97, 0x3c,
  0x34, 0xd4, 0x94, 0x3d, 0x42, 0xbc, 0x60, 0xbe, 0xa3, 0x0b, 0xf8, 0xbe,
  0x06, 0xd6, 0x80, 0xbe, 0xb7, 0xba, 0x05, 0x3c, 0xee, 0x91, 0x3c, 0xbe,
  0x64, 0xa4, 0xbc, 0xbe, 0x34, 0x66, 0xfb, 0xbe, 0x90, 0xc3, 0xda, 0x3d,
  0xcb, 0xb0, 0xc5, 0xbc, 0x4d, 0xf5, 0x5c, 0xbd, 0x8e, 0xdc, 0xe3, 0x3d,
  0xfe, 0x1e, 0x25, 0xbe, 0x95, 0x3b, 0xf1, 0xbd, 0x0d, 0xd6, 0xc4, 0x3d,
  0xce, 0x2d, 0x89, 0x3c, 0x62, 0x05, 0x82, 0xbe, 0xeb, 0xb0, 0x5f, 0xbe,
  0x77, 0x1d, 0x6f, 0xbd, 0xd7, 0x8c, 0x8e, 0xbd, 0x7b, 0x59, 0x82, 0x3d,
  0x9c, 0xf7, 0x35, 0x3e, 0x6e, 0xdf, 0xad, 0xbe, 0x23, 0x75, 0xcc, 0xbe,
  0xfa, 0x15, 0x1e, 0xbe, 0x3a, 0x19, 0x85, 0x3e, 0x3f, 0x9f, 0x34, 0x3e,
  0x3e, 0xba, 0x20, 0xbe, 0x13, 0xd7, 0xdc, 0xbd, 0xfd, 0x31, 0x71, 0x3e,
  0x5a, 0x0f, 0xce, 0xbd, 0x82, 0x9d, 0x68, 0xbd, 0x3a, 0x28, 0x0b, 0xbe,
  0x57, 0x71, 0xff, 0xbd, 0x64, 0x49, 0xf2, 0x3c, 0xeb, 0x2d, 0xcb, 0x3d,
  0xd0, 0xe8, 0xb4, 0x3d, 0xab, 0xec, 0x67, 0xbe, 0x3c, 0x10, 0xe1, 0x3d,
  0x68, 0x0a, 0x0c, 0x3e, 0xb7, 0x0d, 0xcd, 0x3b, 0x07, 0x24, 0x9a, 0x3e,
  0x93, 0x47, 0xd4, 0x3d, 0x97, 0x31, 0xd9, 0xbc, 0xa8, 0xd7, 0x32, 0x3b,
  0x20, 0x4b, 0xe2, 0x3d, 0x69, 0x3f, 0x48, 0x3c, 0x02, 0xff, 0x22, 0xbe,
  0xce, 0x0f, 0x57, 0x3d, 0x69, 0xd2, 0x39, 0xbe, 0xa3, 0xf5, 0x84, 0xbb,
  0xa2, 0xfd, 0xb7, 0x3d, 0xc9, 0x0f, 0x2e, 0xba, 0xa6, 0x96, 0xd0, 0x3d,
  0x4e, 0x48, 0x91, 0x3e, 0x28, 0x6c, 0x33, 0x3e, 0x52, 0x33, 0xb3, 0x3c,
  0x2f, 0x79, 0xce, 0x3e, 0xa5, 0x7d, 0x82, 0x3d, 0xac, 0x57, 0x92, 0xbd,
  0xa4, 0x0b, 0x28, 0x3c, 0xfd, 0x16, 0x78, 0xbe, 0xd6, 0x96, 0x6d, 0xbd,
  0xc2, 0xbc, 0x74, 0xbe, 0x88, 0xba, 0xc3, 0xbd, 0x65, 0x0d, 0xa5, 0xbe,
  0xc1, 0xe9, 0xbd, 0x3c, 0xc6, 0x47, 0x0f, 0x3e, 0x72, 0x42, 0x9a, 0xbb,
  0x85, 0xbb, 0x2f, 0x3e, 0xb3, 0x01, 0x76, 0x3e, 0x1d, 0x81, 0x44, 0x3d,
  0x70, 0x7f, 0x0f, 0xbe, 0x03, 0x6e, 0xa1, 0x3e, 0x7d, 0x8b, 0x6f, 0x3e,
  0x26, 0x7e, 0xfb, 0xbc, 0xd3, 0x03, 0x1f, 0xbd, 0x0b, 0x5a, 0xb8, 0xbd,
  0xff, 0x7f, 0x9a, 0x3d, 0x0a, 0x02, 0x9b, 0xbd, 0xd9, 0x18, 0xc3, 0xbd,
  0xfc, 0x37, 0x5b, 0xbe, 0x0a, 0x68, 0x4e, 0x3e, 0x09, 0xdb, 0x48, 0x3e,
  0x69, 0xaf, 0x83, 0xbc, 0xe5, 0x23, 0x46, 0x3e, 0x0b, 0x07, 0x5a, 0x3e,
  0xd5, 0x48, 0xa7, 0x3d, 0x8f, 0xb9, 0x00, 0x3d, 0x0d, 0xd1, 0x96, 0x3e,
  0xcb, 0x81, 0xad, 0xba, 0x96, 0x46, 0x49, 0xbd, 0x77, 0xde, 0x2c, 0xbe,
  0xc6, 0xa6, 0xba, 0x3d, 0x1f, 0x80, 0xcf, 0xbd, 0x60, 0x8e, 0x29, 0xbe,
  0x4c, 0x95, 0xe1, 0xbd, 0x70, 0xb3, 0xf6, 0xbd, 0x87, 0x05, 0xc6, 0x3c,
  0x0f, 0x55, 0xc0, 0x3e, 0x70, 0x3d, 0xdf, 0xbd, 0x0b, 0xc3, 0xa5, 0xbc,
  0x03, 0x8d, 0x75, 0x3e, 0x41, 0xd0, 0x50, 0x3e, 0x7f, 0x83, 0xdc, 0xbd,
  0x25, 0x40, 0x52, 0x3e, 0xba, 0xff, 0x4a, 0xbc, 0xf1, 0xd5, 0x99, 0xbe,
  0x83, 0xb8, 0x1c, 0xbe, 0x40, 0xed, 0x27, 0x3c, 0x33, 0x0f, 0x1b, 0xbe,
  0xc8, 0x63, 0x1f, 0xbc, 0x37, 0xf6, 0xbb, 0xbd, 0xde, 0x83, 0x4c, 0xbd,
  0x6f, 0x71, 0x43, 0x3e, 0x61, 0x53, 0x92, 0x3e, 0x6e, 0x13, 0xa2, 0x3d,
  0x52, 0x59, 0x4e, 0x3e, 0x16, 0xa3, 0x13, 0x3e, 0xf9, 0x1e, 0x1b, 0x3e,
  0x56, 0x77, 0x0d, 0x3e, 0xa9, 0x93, 0x5a, 0x3e, 0xb1, 0x2b, 0x83, 0xbd,
  0x2e, 0x02, 0xa5, 0xbe, 0x66, 0xf9, 0x12, 0xbe, 0xed, 0x8e, 0xb0, 0xbc,
  0xa5, 0xb5, 0x18, 0x3d, 0x11, 0x60, 0xb5, 0x3d, 0xc0, 0x50, 0x91, 0x3d,
  0x43, 0xb7, 0x24, 0xbe, 0xb0, 0xdf, 0xfb, 0x3d, 0x6d, 0x7a, 0x8c, 0x3e,
  0x07, 0x29, 0x0b, 0xbe, 0xca, 0x81, 0xeb, 0x3d, 0x62, 0x56, 0x1b, 0x3e,
  0xc5, 0x1c, 0x6d, 0x3e, 0x28, 0x96, 0xd5, 0xba, 0x84, 0x49, 0xe3, 0x3e,
  0x21, 0x66, 0x22, 0x3e, 0x92, 0x9e, 0x8c, 0xbe, 0xe0, 0x53, 0x95, 0xbe,
  0x21, 0xd7, 0xf8, 0x3d, 0x0c, 0x65, 0xfd, 0x3d, 0xee, 0x69, 0x30, 0x3d,
  0x9c, 0x55, 0x14, 0xbe, 0xb4, 0xc0, 0x2f, 0xbe, 0x6c, 0xcd, 0xeb, 0x3d,
  0x4b, 0xe2, 0x87, 0x3d, 0x2f, 0x99, 0x87, 0x3e, 0xd7, 0x1d, 0xba, 0x3d,
  0xff, 0x53, 0x56, 0x3e, 0x67, 0x8b, 0x65, 0x3e, 0x6c, 0xda, 0x8b, 0x3c,
  0x29, 0xeb, 0x58, 0x3e, 0xba, 0xdc, 0x7f, 0x3d, 0xdb, 0x46, 0x74, 0xbe,
  0x4b, 0xdf, 0x29, 0xbe, 0x15, 0xfd, 0x99, 0x3d, 0x85, 0x88, 0x12, 0x3d,
  0x4c, 0x31, 0x26, 0x3e, 0x93, 0xa9, 0x1c, 0x3d, 0x3f, 0x46, 0x29, 0xbe,
  0x10, 0x98, 0x4e, 0xbe, 0xfc, 0x82, 0x9b, 0x3b, 0xaf, 0x22, 0xe0, 0xbc,
  0xb6, 0x7c, 0xc1, 0xbd, 0x29, 0xc1, 0x85, 0x3c, 0xeb, 0xb9, 0x81, 0x3e,
  0xac, 0x1d, 0x4b, 0xbe, 0x1d, 0x80, 0x5f, 0xbc, 0x0c, 0xd0, 0xc9, 0x3c,
  0x44, 0xfc, 0x72, 0x3c, 0x35, 0xf3, 0x0f, 0xbe, 0x5c, 0x98, 0xba, 0xbd,
  0x0a, 0xef, 0xa9, 0xbe, 0x92, 0x26, 0x88, 0x3d, 0x00, 0x03, 0x4f, 0xbc,
  0xb5, 0x2c, 0x3c, 0xbe, 0x70, 0x6d, 0xe9, 0xbe, 0x61, 0x54, 0x84, 0xbe,
  0x3e, 0x0b, 0xfe, 0xbd, 0x93, 0xea, 0x3e, 0x3d, 0x22, 0x9f, 0x80, 0xbe,
  0x30, 0x07, 0xfa, 0xbd, 0x8b, 0x31, 0x41, 0xbe, 0x60, 0x39, 0x98, 0xbe,
  0x0c, 0x33, 0x8d, 0xbe, 0x1d, 0x92, 0x11, 0x3e, 0x34, 0x8b, 0x1e, 0xbe,
  0x10, 0x1b, 0x80, 0x3c, 0xea, 0x3d, 0x21, 0xbe, 0x27, 0x86, 0xe4, 0xbd,
  0x2d, 0x85, 0x93, 0xbd, 0xec, 0xb0, 0x29, 0xbe, 0x8f, 0xf2, 0x1b, 0xbf,
  0x1a, 0xcc, 0x2b, 0xbe, 0xb6, 0xd8, 0x4e, 0xbe, 0x77, 0x8b, 0x0f, 0xbc,
  0x63, 0xe7, 0xac, 0xbe, 0x85, 0x19, 0x80, 0xbe, 0x98, 0x65, 0x54, 0xbe,
  0x9f, 0xce, 0xca, 0xbe, 0x60, 0x1c, 0x24, 0xbe, 0xb9, 0xc9, 0xb8, 0x3d,
  0x85, 0x8d, 0x28, 0x3e, 0x41, 0xc9, 0x78, 0xbe, 0x29, 0xc6, 0xd3, 0xbe,
  0x3e, 0x48, 0xc2, 0xbb, 0x9b, 0xb8, 0x18, 0xbd, 0xaa, 0x2b, 0xdc, 0xbd,
  0x49, 0x73, 0x6b, 0xbe, 0x6d, 0xb9, 0xbe, 0xbc, 0xfa, 0xcb, 0x06, 0x3e,
  0xa7, 0xfa, 0x1c, 0x3e, 0x39, 0x86, 0x04, 0xbe, 0x9e, 0xc4, 0x33, 0xbe,
  0xbf, 0xa6, 0xec, 0x3d, 0xe0, 0x85, 0xb5, 0x3d, 0x6d, 0xa5, 0xc6, 0x3c,
  0x2e, 0x36, 0xbc, 0x3d, 0x29, 0xa2, 0x71, 0x3d, 0x5a, 0x46, 0xb4, 0xbd,
  0x97, 0x55, 0x0d, 0xbd, 0x7d, 0x1e, 0x8f, 0x3d, 0x84, 0xa1, 0xcc, 0x3d,
  0x17, 0x95, 0x10, 0x3d, 0x6a, 0xca, 0x85, 0xbe, 0xac, 0x98, 0xe1, 0xbe,
  0xa8, 0xe9, 0x38, 0x3e, 0x9e, 0x0d, 0x04, 0x3e, 0x39, 0x08, 0xd1, 0x3d,
  0x69, 0xb9, 0x95, 0x3d, 0x82, 0x37, 0xad, 0xbc, 0x35, 0x24, 0xf8, 0xbe,
  0xbf, 0xb1, 0x9c, 0x3e, 0xe2, 0xaa, 0x40, 0x3d, 0x79, 0x0f, 0x59, 0xbe,
  0x0e, 0xf0, 0x7e, 0xbe, 0x7d, 0xb6, 0x3a, 0x3e, 0x4f, 0x57, 0xe6, 0x3d,
  0xfe, 0x5f, 0x26, 0xbe, 0x41, 0xd8, 0xc8, 0xbd, 0xb1, 0xc1, 0xad, 0xbe,
  0x97, 0x9f, 0xd7, 0xbe, 0x44, 0x51, 0x16, 0x3d, 0x36, 0x94, 0x5a, 0x3c,
  0x07, 0xd5, 0xc9, 0xbd, 0xfc, 0xe4, 0x48, 0xbe, 0x2a, 0xef, 0xa5, 0x3d,
  0xf0, 0xfb, 0x99, 0xbe, 0x8b, 0xfa, 0x15, 0x3e, 0xcf, 0xe0, 0x83, 0x3d,
  0x19, 0xc9, 0x3f, 0xbe, 0xbc, 0xed, 0xb7, 0xbc, 0x67, 0xe2, 0xca, 0xbc,
  0x76, 0x63, 0x81, 0x3d, 0x1f, 0xb8, 0xbb, 0xbd, 0xce, 0xaa, 0x57, 0xbd,
  0x2e, 0x99, 0x1c, 0xbe, 0x65, 0x68, 0xdc, 0xbe, 0x5a, 0x1e, 0x5b, 0x3e,
  0xce, 0xe3, 0xf7, 0x3d, 0xd9, 0xd5, 0x8f, 0xbe, 0x78, 0x1b, 0x57, 0x3d,
  0xce, 0x77, 0x1a, 0xbe, 0x2e, 0xe8, 0xc2, 0xbe, 0x24, 0xb9, 0x38, 0x3e,
  0x9f, 0xd5, 0x98, 0x3d, 0x0a, 0x7c, 0x58, 0xbe, 0xd2, 0x58, 0x85, 0x3c,
  0xf4, 0x58, 0xf9, 0x3d, 0xfb, 0x24, 0xe8, 0x3d, 0x38, 0xd1, 0x1d, 0xbe,
  0xa3, 0x4e, 0x14, 0xbe, 0x67, 0xa1, 0x20, 0xbd, 0x90, 0x67, 0x0c, 0xbe,
  0x7e, 0x99, 0x34, 0x3e, 0x47, 0xab, 0x6f, 0x3e, 0x62, 0xad, 0xb6, 0xbd,
  0xb7, 0x91, 0x23, 0x3e, 0xea, 0x84, 0xa8, 0xbc, 0x0b, 0x34, 0xc6, 0xbe,
  0xeb, 0x64, 0xd1, 0x3e, 0x83, 0x6b, 0x58, 0x3c, 0xb9, 0x18, 0x5c, 0xbd,
  0x96, 0xb5, 0x4b, 0x3e, 0x47, 0xe9, 0x11, 0x3d, 0xef, 0x95, 0x03, 0x3d,
  0x0b, 0x32, 0x3c, 0xbe, 0x46, 0xf7, 0x2f, 0xbe, 0xb8, 0x4b, 0x0f, 0x3e,
  0x02, 0x34, 0xd0, 0xbe, 0x70, 0x87, 0xa2, 0x3d, 0xa9, 0x65, 0x32, 0x3e,
  0x7a, 0xce, 0x86, 0xbe, 0xcd, 0x42, 0xf9, 0x3d, 0xc9, 0xb6, 0xb2, 0xbd,
  0x4f, 0x7a, 0x75, 0xbe, 0xd7, 0xc3, 0xa6, 0x3c, 0xf1, 0x4b, 0xf9, 0xbb,
  0x5d, 0xf0, 0x83, 0xbe, 0xa9, 0xe4, 0xdb, 0x3c, 0x7d, 0x15, 0xca, 0x3d,
  0x99, 0x7b, 0x28, 0x3d, 0x76, 0xbc, 0x6f, 0xbd, 0x99, 0x83, 0x1a, 0xbe,
  0xb7, 0x90, 0x0c, 0x3e, 0x29, 0xae, 0xb0, 0xbe, 0xe6, 0x94, 0x05, 0x3e,
  0x11, 0x89, 0xa2, 0x3e, 0x4d, 0x04, 0xa8, 0xbe, 0x83, 0xb3, 0x2d, 0x3e,
  0x70, 0xff, 0x1d, 0xbe, 0x3f, 0xd8, 0x28, 0xbd, 0xe3, 0xf8, 0x52, 0x3c,
  0xcc, 0xf0, 0xbc, 0x3d, 0xdf, 0x59, 0x0d, 0xbe, 0x19, 0xfd, 0x00, 0x3f,
  0x95, 0xc8, 0xb3, 0xbc, 0xad, 0xdc, 0x31, 0x3d, 0x72, 0x7b, 0x28, 0xbc,
  0x8c, 0x2e, 0x9d, 0xbe, 0x62, 0xcb, 0xb3, 0x3d, 0xbf, 0x03, 0xd7, 0xbe,
  0xfc, 0xf0, 0x12, 0x3e, 0xdd, 0x5f, 0x8c, 0x3e, 0xe2, 0x74, 0xd5, 0xbe,
  0xd5, 0x2c, 0x6d, 0xbd, 0x21, 0xcf, 0xac, 0xbb, 0x7f, 0x86, 0xb3, 0xbd,
  0xda, 0x15, 0x39, 0x3e, 0xba, 0x9c, 0x7a, 0x3d, 0xfb, 0x1c, 0x3d, 0x3e,
  0x47, 0xef, 0xb6, 0x3e, 0x57, 0x5d, 0x7f, 0xbc, 0xa7, 0x61, 0x6c, 0xbd,
  0x3a, 0x7c, 0x41, 0xbd, 0xff, 0xad, 0x54, 0xbe, 0x88, 0x90, 0x85, 0x3d,
  0xd0, 0xfe, 0x6b, 0xbe, 0xf3, 0xfe, 0x99, 0x3e, 0xbf, 0xaa, 0x9f, 0x3c,
  0xd3, 0x94, 0xc0, 0xbe, 0xb0, 0x90, 0x30, 0x3d, 0xa7, 0xe3, 0x0d, 0xbd,
  0x16, 0x30, 0x79, 0xbd, 0xbe, 0xd2, 0x72, 0x3e, 0x34, 0x36, 0x48, 0xbd,
  0xfb, 0x51, 0x62, 0x3e, 0x33, 0xc8, 0x91, 0x3e, 0xc7, 0x30, 0xc7, 0x3d,
  0xcd, 0xd9, 0x12, 0xbe, 0x4c, 0xfb, 0x36, 0xbd, 0xbe, 0xc9, 0xa9, 0xbd,
  0x9d, 0xf6, 0x8e, 0x3d, 0x2e, 0xcd, 0xa6, 0xbe, 0x65, 0x4b, 0xa0, 0x3d,
  0x9a, 0x21, 0x95, 0x3e, 0xaf, 0x8c, 0x97, 0xbe, 0x21, 0x79, 0xab, 0x3d,
  0x2f, 0xbe, 0xd4, 0x3d, 0xd8, 0xb9, 0x88, 0xbd, 0xe9, 0xe6, 0x8c, 0x3d,
  0xc3, 0xaf, 0xf1, 0xbd, 0x54, 0x6d, 0x85, 0x3e, 0x1e, 0x89, 0x4e, 0x3e,
  0xfd, 0xe2, 0xdd, 0x3d, 0x83, 0x06, 0x8d, 0xbe, 0x75, 0xbd, 0x8d, 0x3d,
  0x6a, 0x5b, 0x2b, 0xbd, 0x4e, 0x55, 0x1d, 0x3e, 0x4c, 0x66, 0x3b, 0xbe,
  0x10, 0x72, 0x7c, 0x3b, 0x92, 0x7f, 0x8c, 0x3e, 0x29, 0xc4, 0xe2, 0xbd,
  0xd4, 0x75, 0x6d, 0x3e, 0xf6, 0x86, 0xb3, 0x3d, 0x16, 0x81, 0xf8, 0xbd,
  0x5d, 0x58, 0xbd, 0xbd, 0xd9, 0x73, 0xc3, 0xbd, 0x1c, 0x03, 0x2e, 0x3e,
  0xeb, 0x03, 0xcc, 0x3e, 0xee, 0x19, 0x85, 0xbd, 0xd3, 0xbd, 0x20, 0xbd,
  0x24, 0xd1, 0x29, 0x3d, 0x45, 0xf0, 0xac, 0x3d, 0x21, 0x32, 0x91, 0xbe,
  0xd4, 0x6c, 0x8c, 0xbe, 0x34, 0x0d, 0x92, 0x3e, 0x20, 0x5a, 0x51, 0x3e,
  0xf5, 0x5d, 0x9f, 0xbe, 0x5a, 0xd1, 0x4a, 0x3d, 0x7f, 0x7c, 0x95, 0x3d,
  0x09, 0x55, 0xa0, 0xbe, 0x88, 0x7a, 0x8f, 0x3d, 0xbd, 0x9a, 0x40, 0xbe,
  0xf9, 0x69, 0x02, 0x3e, 0xed, 0x0f, 0x04, 0x3d, 0x80, 0xde, 0x5a, 0xbe,
  0x67, 0x06, 0x41, 0x3d, 0x98, 0xc3, 0x4a, 0x3c, 0x63, 0x76, 0x2b, 0x3e,
  0x8b, 0xb8, 0x83, 0xbe, 0xc0, 0x92, 0x02, 0x3d, 0xfe, 0x86, 0x40, 0x3d,
  0xd8, 0xaf, 0x2f, 0x3d, 0xbc, 0x95, 0x2c, 0xbe, 0x8a, 0x33, 0xc9, 0x3d,
  0x91, 0x9f, 0xfd, 0x3d, 0x31, 0x83, 0x1b, 0xbe, 0xea, 0x15, 0x3f, 0xbe,
  0x8a, 0xe9, 0x91, 0xbe, 0xce, 0xf2, 0xff, 0xbe, 0x61, 0x92, 0x0d, 0xbf,
  0x9b, 0x74, 0xb3, 0xbd, 0xc1, 0xe1, 0x00, 0x3e, 0x67, 0xa7, 0xc5, 0xbe,
  0x0a, 0x7d, 0x7c, 0x3b, 0xe7, 0x00, 0x06, 0xbf, 0x3d, 0xe8, 0xc3, 0xbd,
  0xa0, 0x86, 0x52, 0xbe, 0x9d, 0x11, 0xf2, 0xbd, 0x28, 0x0a, 0x5b, 0xbc,
  0x86, 0x0c, 0x36, 0xbe, 0xd1, 0x4b, 0xf4, 0x3d, 0x25, 0x81, 0x75, 0xbc,
  0x98, 0x9d, 0x81, 0xbd, 0x84, 0x66, 0x62, 0xbe, 0xbd, 0x5f, 0xbe, 0xbe,
  0xe2, 0x70, 0xd7, 0xbe, 0x89, 0xac, 0xa9, 0xbd, 0x35, 0x39, 0xec, 0x3d,
  0xb8, 0xc7, 0x18, 0xbf, 0xa1, 0x60, 0xc8, 0xbe, 0x07, 0xd8, 0x84, 0xb9,
  0x09, 0xe5, 0x22, 0x3e, 0x4a, 0x4d, 0x7a, 0xbd, 0x37, 0x8e, 0x8c, 0x3e,
  0xb0, 0x6d, 0x72, 0xbd, 0x52, 0x57, 0x83, 0xbd, 0x67, 0x6f, 0x83, 0x3d,
  0x41, 0xb9, 0xbe, 0x3e, 0x2c, 0xf4, 0x89, 0xbe, 0x48, 0xee, 0x49, 0xbe,
  0xca, 0x8b, 0xce, 0xbe, 0x20, 0xf6, 0x1e, 0x3e, 0x16, 0xd0, 0x4e, 0xbe,
  0x36, 0xf2, 0xce, 0xbd, 0xde, 0x81, 0x16, 0xbe, 0x43, 0x33, 0x93, 0xbe,
  0x47, 0x8f, 0x89, 0x3e, 0xd5, 0x81, 0xa4, 0x3e, 0x17, 0xd3, 0x99, 0x3d,
  0x8d, 0xdd, 0x85, 0x3e, 0xcb, 0xf8, 0xad, 0x3e, 0x46, 0x86, 0x80, 0x3e,
  0x03, 0x05, 0x7c, 0xbd, 0x91, 0x38, 0x9c, 0x3e, 0xa8, 0x1c, 0x5f, 0x3d,
  0xb2, 0xac, 0x0a, 0xbd, 0xdb, 0x9e, 0xc9, 0x3a, 0x49, 0xb6, 0xa4, 0xbc,
  0x7b, 0x1c, 0xaf, 0x3d, 0xee, 0x5a, 0xa5, 0xbd, 0x67, 0x5d, 0x83, 0x3c,
  0xb2, 0xb1, 0xf0, 0xbe, 0x81, 0x60, 0xd0, 0x3c, 0xbf, 0xd6, 0x6a, 0x3e,
  0x79, 0x4e, 0xb6, 0x3d, 0xdd, 0x02, 0xa1, 0xbc, 0x65, 0x79, 0x5c, 0x3e,
  0xb8, 0x2f, 0x58, 0x3e, 0xbb, 0xb4, 0xe2, 0xbd, 0x9b, 0x91, 0x1c, 0x3e,
  0x8b, 0x1e, 0xb4, 0x3e, 0x72, 0xbe, 0x06, 0xbf, 0xcb, 0x6b, 0xae, 0xbe,
  0x8a, 0xb9, 0x85, 0x3d, 0xf4, 0x1b, 0x59, 0xbe, 0x9b, 0x10, 0x2b, 0xbe,
  0xaf, 0xe1, 0x68, 0xbc, 0x1b, 0xda, 0xcc, 0xbe, 0xfb, 0x8f, 0xd4, 0x3d,
  0x6b, 0xa0, 0x1a, 0x3e, 0x67, 0x5b, 0x01, 0x3e, 0xb9, 0xa4, 0x46, 0x3e,
  0x97, 0xaf, 0x87, 0x3e, 0x83, 0x93, 0x1b, 0x3e, 0x32, 0xe1, 0x4a, 0x3d,
  0xb7, 0x97, 0x4d, 0x3e, 0x09, 0x0e, 0x3d, 0x3e, 0x84, 0x7b, 0xa4, 0xbc,
  0x6e, 0x1c, 0x35, 0xbe, 0x8e, 0x75, 0xb5, 0xbc, 0x53, 0xe5, 0x8b, 0x3e,
  0x4d, 0xca, 0xa7, 0xbd, 0x3c, 0xbb, 0x16, 0xbe, 0x23, 0xf2, 0x69, 0xbe,
  0x32, 0x45, 0xd6, 0xbc, 0x5a, 0x30, 0x32, 0xbe, 0xae, 0x41, 0x84, 0x3e,
  0xe1, 0x4d, 0xe6, 0x3b, 0x94, 0xfe, 0x39, 0xbd, 0x49, 0x28, 0x3a, 0x3e,
  0x9f, 0x3a, 0x25, 0x3d, 0xb0, 0x4c, 0x2e, 0x3f, 0x3a, 0x8d, 0x97, 0x3e,
  0xd4, 0xa3, 0x70, 0xbd, 0xa2, 0x0a, 0x5c, 0xbc, 0xae, 0x7c, 0xe2, 0x3d,
  0xd3, 0xea, 0x6e, 0x3d, 0xfa, 0x49, 0x7d, 0x3a, 0x1c, 0xa9, 0xab, 0xbd,
  0xdf, 0x9c, 0x96, 0xbe, 0x5e, 0x97, 0x3b, 0xbe, 0x84, 0x3f, 0x05, 0xbd,
  0x95, 0x3e, 0xb1, 0x3e, 0xea, 0x9b, 0x01, 0x3d, 0x9f, 0x52, 0xd0, 0x3c,
  0xe5, 0x76, 0xd4, 0x3c, 0x54, 0xca, 0x8f, 0x3d, 0x0e, 0xeb, 0x0f, 0x3e,
  0x81, 0x2f, 0x72, 0xbe, 0x95, 0xb7, 0x4a, 0x3d, 0xb5, 0x75, 0xd4, 0xbd,
  0xd3, 0x7d, 0x5f, 0x3e, 0x95, 0x33, 0x1a, 0x3e, 0x10, 0xe4, 0x85, 0x3d,
  0x57, 0xbd, 0x51, 0xbe, 0x91, 0xf2, 0xb4, 0xbd, 0x67, 0x6b, 0xcf, 0xbe,
  0x3f, 0x28, 0xa2, 0xbe, 0xcb, 0x9a, 0x7e, 0x3e, 0x74, 0x08, 0x0f, 0xbd,
  0xc4, 0x11, 0x3e, 0xbc, 0x30, 0x50, 0x48, 0xbc, 0x7d, 0x0d, 0x8f, 0xbd,
  0x7c, 0xc4, 0x8c, 0xbe, 0x3a, 0x96, 0x8e, 0x3c, 0x23, 0x3b, 0x2e, 0x3d,
  0x16, 0x3b, 0xd0, 0xbc, 0xfe, 0x9b, 0x03, 0x3e, 0xdc, 0x27, 0x0d, 0x3e,
  0xce, 0x4e, 0x45, 0x3e, 0x87, 0xce, 0x3a, 0xbe, 0x3a, 0x64, 0x21, 0xbe,
  0xe8, 0x5a, 0x47, 0xbe, 0x71, 0x82, 0xd2, 0xbd, 0x74, 0xba, 0xd1, 0x3e,
  0xc8, 0x4b, 0x20, 0xbe, 0xb0, 0xf9, 0x22, 0xbe, 0xa2, 0xfb, 0x16, 0xbe,
  0x56, 0xe1, 0x34, 0xbe, 0x7a, 0x74, 0xb4, 0xbe, 0x20, 0x3f, 0x03, 0xbe,
  0x36, 0x9b, 0x73, 0x3c, 0xdb, 0x65, 0x06, 0xbe, 0x9a, 0x0f, 0x8c, 0xbd,
  0xc4, 0x51, 0xb7, 0xbd, 0xb1, 0xdb, 0xe2, 0xbd, 0xdf, 0xfa, 0x28, 0xbe,
  0xe2, 0xc7, 0xee, 0xbd, 0x80, 0x90, 0xcf, 0xbe, 0xd1, 0x68, 0xb5, 0xbd,
  0x22, 0x8c, 0x5b, 0x3e, 0xa9, 0x00, 0x89, 0x3d, 0xf9, 0x01, 0x0c, 0xbe,
  0x22, 0x7a, 0xa7, 0xbe, 0xed, 0x41, 0xee, 0xbd, 0x59, 0xb4, 0x1e, 0xbe,
  0xe6, 0x07, 0x84, 0x3d, 0xe6, 0x87, 0xe3, 0x3c, 0x7c, 0x57, 0xca, 0xbd,
  0x56, 0x82, 0xb7, 0xbc, 0x3d, 0x21, 0x22, 0x3e, 0x76, 0x88, 0x74, 0xbd,
  0xcf, 0xc8, 0x9b, 0xbe, 0x0c, 0x65, 0x1a, 0xbe, 0x79, 0xb2, 0x4a, 0xbe,
  0x4f, 0xf8, 0x35, 0xbe, 0x22, 0x54, 0x44, 0x3e, 0xa4, 0xd8, 0x64, 0x3d,
  0x96, 0xd4, 0x8c, 0xbe, 0x5f, 0xba, 0x34, 0xbe, 0x16, 0x16, 0x63, 0x3d,
  0x31, 0x36, 0xcd, 0xbd, 0x44, 0xab, 0x01, 0x3e, 0x3a, 0x4c, 0x06, 0x3b,
  0x74, 0xb7, 0xf7, 0xbc, 0x94, 0x89, 0x7d, 0x3c, 0xef, 0x33, 0x40, 0xbe,
  0x9b, 0xd5, 0x2c, 0xbe, 0x46, 0x11, 0x85, 0xbe, 0xed, 0x1f, 0xb2, 0xbd,
  0x1d, 0xad, 0x90, 0xbd, 0x19, 0x15, 0xe4, 0xbd, 0x29, 0x1f, 0x26, 0x3e,
  0xcf, 0x23, 0xe2, 0x3d, 0x41, 0xe6, 0x00, 0x3d, 0x6a, 0x42, 0x8c, 0xbe,
  0xfa, 0xa0, 0xb6, 0xbd, 0xe5, 0x20, 0x13, 0xbe, 0x2d, 0xe5, 0x16, 0xbe,
  0xd1, 0xfc, 0x7c, 0xbc, 0x7d, 0x7d, 0x87, 0xbb, 0xbc, 0x50, 0x10, 0x3d,
  0x6b, 0x22, 0x37, 0x3d, 0x7f, 0xf4, 0x25, 0xbe, 0xe2, 0xe8, 0x2e, 0xbe,
  0x30, 0x5c, 0x2a, 0xbd, 0xb2, 0xb4, 0x90, 0xbe, 0xb0, 0xb6, 0x85, 0xbd,
  0x72, 0x49, 0x29, 0xbc, 0x2f, 0x6a, 0x92, 0x3d, 0x80, 0x7b, 0x0c, 0xbe,
  0x33, 0x36, 0xc8, 0xbe, 0x53, 0x7c, 0x4a, 0xbd, 0x5a, 0x0d, 0xd3, 0xbd,
  0x78, 0xaa, 0x5e, 0x3c, 0x8c, 0xa5, 0x77, 0x3b, 0xbf, 0x69, 0xf4, 0xbc,
  0x5b, 0x30, 0x94, 0xbd, 0x3f, 0x4b, 0xf6, 0x3d, 0xb8, 0xdb, 0xd0, 0xbc,
  0x8f, 0x4c, 0xd8, 0xbe, 0xf1, 0xf7, 0x73, 0xbd, 0x44, 0xd7, 0x12, 0xbe,
  0x0e, 0x65, 0x81, 0xbc, 0x51, 0x1b, 0xc6, 0x3d, 0xdb, 0x6f, 0x51, 0x3c,
  0x29, 0xdc, 0xac, 0xbe, 0x62, 0xd4, 0xe9, 0xbe, 0x50, 0x33, 0x49, 0x3d,
  0x77, 0x24, 0x91, 0xbc, 0xda, 0xc2, 0xe3, 0xbd, 0x5b, 0x8c, 0x85, 0x3d,
  0xaf, 0xb7, 0x9d, 0xbc, 0xd8, 0xb1, 0x13, 0x3e, 0x04, 0x6d, 0xdb, 0xbd,
  0x27, 0x9c, 0x0b, 0xbe, 0x90, 0x8d, 0x17, 0xbd, 0xed, 0x58, 0x08, 0xbe,
  0xeb, 0x4e, 0x03, 0xbe, 0x10, 0x20, 0x65, 0xbe, 0xb7, 0xe1, 0xc7, 0xbd,
  0xdb, 0xd6, 0x90, 0x3d, 0xc1, 0x76, 0x0f, 0xbe, 0x4f, 0x73, 0xc2, 0xbe,
  0x58, 0x84, 0x8e, 0x3c, 0x4e, 0x4f, 0x01, 0xbe, 0xa5, 0xdb, 0xad, 0x3d,
  0x4f, 0x54, 0xb8, 0xbd, 0x2d, 0x36, 0xbd, 0x3d, 0x73, 0x53, 0x5c, 0x3c,
  0x02, 0xed, 0x48, 0xbe, 0x75, 0x9a, 0x3f, 0xbe, 0x04, 0x92, 0x38, 0xbe,
  0xda, 0x43, 0x22, 0x3e, 0xc9, 0xe6, 0x98, 0xbd, 0xd0, 0x62, 0xab, 0xbd,
  0xb2, 0x33, 0xe5, 0x3d, 0x5b, 0xbb, 0xb2, 0x3c, 0xc4, 0xac, 0xa9, 0x3e,
  0xc3, 0xe3, 0x7f, 0x3e, 0x81, 0x31, 0x43, 0xbd, 0x94, 0x97, 0x01, 0xbd,
  0x8c, 0x13, 0x61, 0x3e, 0xb5, 0x98, 0xe7, 0xbe, 0x4a, 0x60, 0xbc, 0x3e,
  0x9b, 0xcd, 0x29, 0x3e, 0x1b, 0xac, 0x06, 0x3f, 0x33, 0x68, 0x0f, 0xbf,
  0x6b, 0x31, 0x13, 0x3e, 0x44, 0x5c, 0x05, 0x3c, 0x75, 0xe8, 0x69, 0x3d,
  0xcb, 0xad, 0x86, 0x3d, 0xe4, 0xd3, 0x59, 0x3e, 0x3f, 0x81, 0x0a, 0x3e,
  0xd8, 0x48, 0xe3, 0xbc, 0x2f, 0x45, 0xfd, 0xbd, 0x6f, 0x31, 0xa4, 0xbd,
  0x3e, 0x39, 0xdc, 0xbd, 0xca, 0x6d, 0xa2, 0x3d, 0x67, 0x51, 0x02, 0xbf,
  0x58, 0x77, 0xac, 0x3e, 0x81, 0x26, 0x4a, 0xbd, 0xae, 0x00, 0xb8, 0x3e,
  0x36, 0x86, 0x3e, 0xbf, 0xce, 0x93, 0x79, 0xbd, 0x55, 0x1a, 0x9e, 0xbd,
  0x20, 0xdf, 0x04, 0x3d, 0x21, 0xfe, 0x1b, 0x3e, 0x34, 0xb7, 0x20, 0x3e,
  0x6b, 0xc3, 0x34, 0xbc, 0x35, 0xdf, 0x60, 0x3d, 0xbc, 0xcd, 0x75, 0x3c,
  0x29, 0x5b, 0x6f, 0xbd, 0x40, 0xee, 0x4a, 0x3d, 0x05, 0xab, 0x4b, 0xbe,
  0x31, 0x1a, 0x9c, 0xbe, 0x0c, 0x1e, 0x11, 0x3e, 0xe2, 0xd4, 0x49, 0xbd,
  0x28, 0xfe, 0x03, 0x3e, 0xd3, 0xbb, 0x01, 0xbf, 0xa7, 0x46, 0x63, 0xbd,
  0x5e, 0xa6, 0x52, 0xbd, 0x59, 0xb8, 0x13, 0x3e, 0x7b, 0x75, 0x98, 0x3a,
  0xe1, 0xaf, 0x6b, 0xbd, 0x76, 0x3f, 0x25, 0x3e, 0x22, 0xef, 0x6c, 0x3e,
  0x7a, 0x0c, 0xbe, 0xbd, 0xbb, 0xcf, 0xb9, 0x3d, 0x5d, 0xb4, 0x08, 0xbd,
  0xce, 0x54, 0xa3, 0x3b, 0xfb, 0x2a, 0x33, 0xbe, 0xb9, 0x51, 0x61, 0x3d,
  0x12, 0x8e, 0x34, 0x3e, 0x90, 0x0b, 0x62, 0xbe, 0x7d, 0xd7, 0xca, 0xbe,
  0x2b, 0x12, 0x71, 0x3d, 0xce, 0x83, 0x67, 0xbd, 0xc1, 0x7e, 0x59, 0x3e,
  0x56, 0x2e, 0x63, 0x3e, 0x56, 0x0f, 0xae, 0xbd, 0xf3, 0x48, 0x8d, 0x3b,
  0x59, 0x59, 0xc2, 0x3d, 0x7d, 0xa2, 0xa8, 0x3d, 0xa7, 0x56, 0xd8, 0x3d,
  0x14, 0x05, 0xb4, 0xbd, 0x03, 0xbf, 0x85, 0xbb, 0x08, 0x1a, 0x7f, 0xbe,
  0xb9, 0x53, 0x8d, 0xbe, 0x1f, 0x52, 0x83, 0x3d, 0x9d, 0x7f, 0xcf, 0x3d,
  0x01, 0x97, 0xd9, 0xbe, 0x58, 0xe0, 0xc8, 0xbd, 0xfa, 0xaf, 0x35, 0xbe,
  0x18, 0x26, 0x10, 0x3e, 0xc7, 0xaa, 0x4f, 0x3e, 0xb8, 0xbb, 0x7a, 0xbd,
  0x5c, 0xb7, 0x4b, 0x3e, 0x7f, 0x2e, 0xc9, 0x3d, 0x87, 0xdf, 0xb9, 0x3d,
  0xe8, 0x10, 0xbb, 0x3d, 0xfe, 0x72, 0x04, 0x3e, 0xb0, 0x86, 0x3d, 0xbe,
  0x65, 0x01, 0xa6, 0xbe, 0x1f, 0x78, 0xda, 0x3d, 0x41, 0x6a, 0xac, 0x3e,
  0xe7, 0x89, 0x7b, 0x3d, 0x35, 0x8c, 0x0b, 0xbf, 0x98, 0xf1, 0x0d, 0x3d,
  0xab, 0xe3, 0x55, 0xbe, 0x24, 0x22, 0xdf, 0x3d, 0xcc, 0x42, 0x8d, 0x3d,
  0xd9, 0x56, 0x17, 0x3e, 0x23, 0xa8, 0x69, 0x3d, 0xea, 0x0f, 0x11, 0x3e,
  0xaa, 0xde, 0x94, 0x3d, 0x55, 0x3c, 0xb4, 0x3d, 0x26, 0x10, 0xea, 0x3d,
  0x65, 0x5c, 0x46, 0xbe, 0xc5, 0x93, 0x0e, 0xbf, 0xe3, 0x0e, 0xbf, 0x3c,
  0x6c, 0x05, 0x81, 0x3e, 0x1c, 0xf9, 0x08, 0xbe, 0x33, 0x98, 0x10, 0xbf,
  0xb7, 0x52, 0x59, 0xbd, 0x97, 0x02, 0xe0, 0xbd, 0x22, 0x49, 0x34, 0x3e,
  0x86, 0xb4, 0x82, 0xbd, 0xe0, 0xac, 0xf0, 0xbd, 0x7c, 0xd9, 0xc0, 0xbd,
  0x0c, 0x63, 0x60, 0x3e, 0x70, 0x11, 0x0b, 0x3e, 0x91, 0xb2, 0x22, 0xbe,
  0x1e, 0x29, 0x53, 0x3c, 0x09, 0x4f, 0x6a, 0x3e, 0x44, 0x7e, 0x37, 0xbf,
  0xa9, 0xd3, 0xb2, 0xbd, 0x92, 0xe4, 0xde, 0x3d, 0x4e, 0x76, 0x6a, 0x3e,
  0x63, 0xa7, 0xfd, 0xbe, 0x48, 0x08, 0x92, 0x3e, 0x14, 0x29, 0x03, 0xbe,
  0xdb, 0x84, 0xef, 0x3d, 0xa1, 0x4e, 0x40, 0x3d, 0xb3, 0x52, 0xc9, 0x3b,
  0x8d, 0x9c, 0x9c, 0xbb, 0x13, 0xe8, 0xd0, 0x3d, 0x18, 0x51, 0x62, 0xbc,
  0x8d, 0xb8, 0x32, 0xbe, 0xc5, 0x66, 0x7a, 0x3e, 0x5c, 0x51, 0xb3, 0xbb,
  0x11, 0x84, 0x7f, 0xbe, 0x5d, 0x09, 0x1c, 0xbe, 0x65, 0x99, 0x1f, 0x3d,
  0x7d, 0x8c, 0x40, 0x3d, 0x30, 0x4f, 0x8a, 0xbe, 0x84, 0x96, 0x1f, 0x3e,
  0x28, 0x4f, 0xe3, 0xbd, 0x77, 0xad, 0xa4, 0x3d, 0x7a, 0xd8, 0x39, 0x3e,
  0x1f, 0xe5, 0xaf, 0x3d, 0x61, 0x5c, 0x86, 0xbd, 0xae, 0x23, 0x5b, 0x3e,
  0x89, 0xe5, 0x6b, 0x3d, 0xe0, 0xca, 0x0c, 0x3e, 0x09, 0x8a, 0xca, 0x3d,
  0x2f, 0xbe, 0xaa, 0xbd, 0x83, 0xf6, 0xf1, 0xbe, 0xcc, 0x9b, 0xc0, 0x3d,
  0x13, 0x72, 0x7a, 0xbe, 0x14, 0x41, 0x96, 0x3d, 0xd5, 0x5d, 0x05, 0xbf,
  0xbb, 0x90, 0x4d, 0x3d, 0x61, 0xa6, 0x4e, 0xbe, 0xc8, 0xcb, 0xce, 0x3d,
  0x53, 0x87, 0xa4, 0x3c, 0x31, 0x4d, 0xfa, 0xbc, 0x08, 0x69, 0x75, 0x3e,
  0x65, 0x8f, 0x5a, 0x3e, 0x84, 0x2a, 0xd0, 0xbd, 0x14, 0x66, 0x40, 0xbe,
  0xbb, 0x39, 0xd7, 0xbd, 0x44, 0x09, 0x5b, 0xbd, 0x07, 0x16, 0x1c, 0xbf,
  0x18, 0xb6, 0x4a, 0xbe, 0x5d, 0x1d, 0x30, 0x3c, 0x29, 0x23, 0x17, 0x3c,
  0xde, 0x3d, 0x33, 0xbe, 0xeb, 0x24, 0xbb, 0xbd, 0xbf, 0xe1, 0x0a, 0xbe,
  0xf7, 0xfa, 0x36, 0x3e, 0x7a, 0x9c, 0x38, 0x3c, 0x4f, 0xf6, 0xf7, 0xbd,
  0x09, 0xd2, 0x64, 0xbc, 0xf3, 0xc0, 0x43, 0x3e, 0xaa, 0x52, 0xb5, 0xbe,
  0x48, 0x5b, 0xc5, 0xbb, 0x2a, 0x46, 0x3e, 0x3e, 0xa5, 0xb9, 0x9c, 0xbd,
  0x2a, 0x65, 0xf8, 0xbe, 0x4e, 0xdf, 0x62, 0xbd, 0xcd, 0x9c, 0xbe, 0xbd,
  0x53, 0x03, 0xd9, 0xbc, 0x0a, 0x43, 0xb2, 0xbe, 0x6f, 0x4b, 0x86, 0x3d,
  0x82, 0xbf, 0x4e, 0xbe, 0x24, 0x2b, 0x90, 0x3c, 0x6c, 0x34, 0x1f, 0xbe,
  0x3d, 0x41, 0xff, 0xbd, 0x9e, 0xda, 0xeb, 0x3c, 0x41, 0x0b, 0x43, 0x3e,
  0xff, 0x1a, 0xdf, 0xbd, 0x4c, 0xe0, 0xa7, 0xbc, 0x0d, 0x6e, 0x0e, 0x3e,
  0xa2, 0xdf, 0xc9, 0xbc, 0x86, 0x06, 0x47, 0xbf, 0xab, 0xfe, 0x2f, 0x3e,
  0x6b, 0xcf, 0x8b, 0xbe, 0x0d, 0x98, 0x20, 0x3e, 0x58, 0x5e, 0x99, 0xbe,
  0xdf, 0x8c, 0x89, 0x3e, 0x50, 0xdf, 0x73, 0xbe, 0x7d, 0x24, 0xd7, 0x3c,
  0xcc, 0xe5, 0x78, 0xbe, 0x05, 0x5b, 0x7c, 0x3d, 0x53, 0xc7, 0x7b, 0x3e,
  0xc0, 0x0a, 0x29, 0x3e, 0x6b, 0xc6, 0x89, 0x3e, 0x29, 0x70, 0x7f, 0x3d,
  0x2e, 0x0d, 0xb8, 0x3e, 0x0c, 0xab, 0x4d, 0x3d, 0x63, 0x99, 0x37, 0xbf,
  0x81, 0x2e, 0x8e, 0xbe, 0x30, 0xc3, 0x85, 0xbd, 0xcd, 0x84, 0x57, 0x3e,
  0xad, 0x3e, 0x21, 0xbf, 0xb7, 0x70, 0x38, 0xbd, 0x5f, 0x16, 0x73, 0x3c,
  0x94, 0xa3, 0x48, 0x3d, 0x7d, 0x56, 0x98, 0xbd, 0xb4, 0x7d, 0x05, 0xbd,
  0xe5, 0xb1, 0x29, 0x3e, 0x2d, 0x20, 0x3d, 0x3e, 0x9f, 0xdb, 0xa0, 0x3e,
  0xb8, 0xd6, 0x0f, 0xbd, 0x9c, 0xa2, 0xf3, 0x3c, 0x39, 0x64, 0xde, 0x3e,
  0xee, 0x6e, 0xb7, 0xbe, 0x49, 0x9f, 0x66, 0x3e, 0x6f, 0xe5, 0xc6, 0x3e,
  0x34, 0x0a, 0xe0, 0x3e, 0xc5, 0xc3, 0xdc, 0xbe, 0x88, 0x8c, 0xe8, 0x3d,
  0x84, 0xb2, 0x95, 0xbc, 0xc0, 0x64, 0x9e, 0x3e, 0x9c, 0x5e, 0x70, 0xbd,
  0x67, 0x6a, 0x82, 0x3d, 0xf7, 0xf2, 0x67, 0x3e, 0xb1, 0xe9, 0x4c, 0x3d,
  0xb3, 0xd8, 0xa8, 0xbd, 0xed, 0x55, 0xcc, 0xbd, 0x48, 0x8b, 0x62, 0x3d,
  0x07, 0xcd, 0x67, 0xbd, 0x57, 0x43, 0x03, 0xbf, 0xa0, 0xf3, 0x3e, 0x3e,
  0xe7, 0xce, 0x87, 0x3e, 0xe8, 0x6e, 0xae, 0xbd, 0x0f, 0xeb, 0x8b, 0xbe,
  0xdf, 0x13, 0x11, 0xbe, 0xcf, 0xcf, 0xc5, 0xbd, 0xb6, 0xe9, 0x4f, 0xbb,
  0xfa, 0x3c, 0xbc, 0x3d, 0xea, 0xdd, 0x6e, 0xbc, 0x0b, 0xbd, 0xfb, 0xbd,
  0xf2, 0x76, 0xa3, 0x3b, 0x83, 0xd8, 0x22, 0x3c, 0xdb, 0xe6, 0x26, 0xbd,
  0xe3, 0xf8, 0x02, 0x3d, 0xef, 0x3c, 0x35, 0xbe, 0x61, 0x8c, 0x99, 0xbe,
  0x38, 0x16, 0x68, 0xbd, 0xba, 0x84, 0x70, 0x3e, 0xc4, 0xdc, 0x5c, 0x3c,
  0x9a, 0xd1, 0x2c, 0xbf, 0x40, 0xed, 0xaa, 0x3d, 0x91, 0x8f, 0x06, 0xbe,
  0x0b, 0x90, 0x15, 0x3e, 0xb9, 0x55, 0x48, 0x3e, 0x8d, 0x3e, 0x1a, 0x3a,
  0xa2, 0xef, 0x0b, 0x3d, 0xa9, 0x02, 0x9e, 0x3d, 0x49, 0x5d, 0x5c, 0xbe,
  0x3e, 0x36, 0xe4, 0x3b, 0xd7, 0xd1, 0x1c, 0x3e, 0x1a, 0xed, 0x48, 0xbd,
  0x30, 0x0d, 0xb7, 0xbe, 0x5d, 0xcd, 0x82, 0xbe, 0x2d, 0xce, 0x4b, 0x3e,
  0x7d, 0x2b, 0xcb, 0xbd, 0xd5, 0x3e, 0x36, 0xbf, 0x29, 0x18, 0x40, 0xbb,
  0x45, 0xde, 0x62, 0xbe, 0x86, 0x0c, 0x24, 0x3e, 0x78, 0xf0, 0x7d, 0x3d,
  0x66, 0xb1, 0x8f, 0xbc, 0x4d, 0x75, 0x1b, 0x3e, 0xd4, 0x8f, 0x1e, 0x3e,
  0x24, 0x1f, 0x28, 0xbd, 0xd0, 0x77, 0x00, 0x3e, 0x58, 0x22, 0xa2, 0xbd,
  0xa3, 0x28, 0x01, 0x3e, 0xa2, 0x46, 0xa3, 0xbe, 0xe1, 0x11, 0x88, 0xbe,
  0xfe, 0x6d, 0x41, 0x3d, 0x3a, 0x11, 0xb3, 0xbc, 0xf3, 0x01, 0xd5, 0xbe,
  0x47, 0xed, 0xa6, 0x3c, 0x8a, 0x88, 0x87, 0xbe, 0x02, 0xaa, 0x9e, 0x3e,
  0xe3, 0x41, 0xcd, 0xbb, 0x41, 0xc1, 0x96, 0xbe, 0x3e, 0x83, 0x28, 0x3e,
  0xec, 0x0f, 0xad, 0x3d, 0x73, 0x93, 0xb5, 0x3c, 0x13, 0xf1, 0xf7, 0x3d,
  0xbd, 0xe9, 0x30, 0x3e, 0x71, 0x38, 0x8e, 0xbb, 0x73, 0x5b, 0xe7, 0xbe,
  0x2e, 0x34, 0x6d, 0x3d, 0x35, 0x54, 0xae, 0x3d, 0xff, 0xc6, 0x25, 0xbe,
  0x77, 0x74, 0xe6, 0xbe, 0xfc, 0x6e, 0x18, 0x3c, 0x6f, 0x11, 0x15, 0xbe,
  0x81, 0x71, 0x3a, 0x3e, 0x28, 0x02, 0xb2, 0x3d, 0xaf, 0x15, 0x4a, 0xbd,
  0xdc, 0x1a, 0x84, 0x3d, 0x54, 0xc0, 0xaf, 0x3d, 0x82, 0x07, 0x96, 0x3e,
  0x0d, 0x82, 0xbd, 0x3d, 0x0d, 0x09, 0x87, 0x3c, 0x4d, 0xeb, 0x19, 0xbe,
  0xde, 0x70, 0x8f, 0xbe, 0x7d, 0xb0, 0xaa, 0xbd, 0xb9, 0x27, 0x80, 0xbe,
  0xfa, 0xbf, 0xaf, 0xbe, 0xbc, 0xf0, 0x00, 0xbf, 0xe4, 0x0a, 0xee, 0x3d,
  0x33, 0x8c, 0x78, 0xbd, 0xca, 0x9f, 0xc2, 0x3d, 0x6d, 0x48, 0x34, 0x3c,
  0xd3, 0xf4, 0x0d, 0xbe, 0xa7, 0x47, 0x15, 0xbd, 0x8d, 0xdc, 0xe5, 0x3d,
  0xf9, 0xbd, 0x54, 0x3d, 0x02, 0x70, 0xa7, 0xbd, 0x19, 0xaa, 0x75, 0x3c,
  0x5c, 0x4b, 0xa6, 0xbd, 0xca, 0x95, 0xdf, 0xbe, 0x0d, 0x21, 0x04, 0x3d,
  0x1b, 0x6c, 0xe8, 0xbd, 0xe9, 0x09, 0x15, 0xbe, 0xbb, 0xd1, 0x2e, 0xbe,
  0xd7, 0x95, 0x22, 0xbe, 0xc6, 0x0c, 0x29, 0xbe, 0x61, 0xce, 0xeb, 0x3c,
  0x4b, 0xf8, 0x74, 0x3e, 0x5d, 0x58, 0x80, 0x3d, 0xd1, 0x1b, 0xe1, 0xbd,
  0xa5, 0xf3, 0xa9, 0x3e, 0xb3, 0x2d, 0x00, 0xbe, 0xc2, 0xe3, 0xc9, 0x3d,
  0x1a, 0xd7, 0x70, 0x3d, 0x72, 0x0a, 0x08, 0xbe, 0x81, 0x23, 0xe1, 0xbe,
  0x32, 0xed, 0x2d, 0x3d, 0x6c, 0x35, 0x10, 0x3d, 0x5c, 0x1c, 0xc2, 0xbd,
  0x5d, 0x29, 0x27, 0xbe, 0xcf, 0xf2, 0xeb, 0xbb, 0x47, 0x95, 0x9e, 0xbc,
  0x18, 0xd3, 0x3f, 0x3e, 0x17, 0xba, 0x63, 0x3d, 0x7e, 0xf7, 0x28, 0xbe,
  0xc1, 0xd6, 0x86, 0xbd, 0x0a, 0x7f, 0x8b, 0x3d, 0x54, 0xe2, 0x03, 0x3d,
  0x78, 0xb1, 0xd6, 0x3c, 0x3c, 0x6f, 0xd2, 0x3d, 0x36, 0x4d, 0xdf, 0xbd,
  0xc0, 0x5c, 0x00, 0xbe, 0x0f, 0xea, 0x55, 0x3c, 0x73, 0x48, 0x26, 0x3d,
  0x5e, 0xe4, 0x56, 0x3d, 0x91, 0x8d, 0xcd, 0xbe, 0xeb, 0xab, 0x2f, 0xbd,
  0x8e, 0x0e, 0x89, 0xbe, 0xc4, 0x05, 0x2a, 0x3e, 0xea, 0x65, 0x03, 0xbc,
  0xa5, 0xd6, 0x6b, 0x3d, 0x04, 0x05, 0x44, 0x3e, 0x62, 0x3b, 0xed, 0x3d,
  0x1f, 0x8e, 0x8a, 0xbc, 0x39, 0x17, 0x1a, 0x3c, 0x74, 0x47, 0x29, 0xbe,
  0xd3, 0x58, 0xee, 0x3c, 0x2a, 0x09, 0x8b, 0xbe, 0x14, 0x06, 0xb7, 0x3c,
  0x5d, 0xb0, 0x8d, 0xbd, 0x37, 0x43, 0xbf, 0xbd, 0xca, 0xda, 0x37, 0xbe,
  0x19, 0x90, 0x2f, 0xbe, 0x9c, 0x65, 0xdc, 0xbd, 0x96, 0x1d, 0xda, 0x3d,
  0x53, 0x2a, 0x47, 0x3c, 0x36, 0x90, 0x34, 0xbd, 0xd9, 0x47, 0x64, 0x3d,
  0x60, 0xb3, 0xa0, 0x3d, 0x0b, 0x3d, 0xb0, 0xbd, 0x74, 0xb0, 0x54, 0xbd,
  0xb2, 0x4b, 0x73, 0xbd, 0x83, 0xa4, 0x75, 0xbd, 0x18, 0xb4, 0x1a, 0xbf,
  0x30, 0x59, 0xaa, 0x3d, 0xb7, 0xe5, 0x1c, 0xbd, 0xa0, 0xc5, 0x50, 0x3e,
  0xa2, 0xa8, 0xbc, 0xbe, 0x80, 0x12, 0xb1, 0xbe, 0xb2, 0xc6, 0x7d, 0xbe,
  0xa8, 0xc5, 0xa4, 0x3d, 0x0a, 0x36, 0xcc, 0xbd, 0xe6, 0xa8, 0xaa, 0x3d,
  0xc1, 0x46, 0xcb, 0xbc, 0xd9, 0xae, 0xe4, 0x3d, 0x5b, 0xc9, 0x70, 0x3c,
  0x80, 0x22, 0xf8, 0xbd, 0x83, 0xa5, 0x6f, 0x3d, 0x98, 0xad, 0xa8, 0xbd,
  0xbc, 0x4f, 0x20, 0xbf, 0xb2, 0xe4, 0x8b, 0x3d, 0x48, 0x54, 0x44, 0x3d,
  0x8e, 0x1b, 0x47, 0x3c, 0x32, 0x0d, 0x80, 0xbe, 0xd4, 0x97, 0x50, 0x3d,
  0x25, 0x1e, 0xc6, 0xbd, 0xfd, 0x9b, 0x36, 0x3e, 0xa4, 0xac, 0x81, 0x3c,
  0x4d, 0x4e, 0x02, 0xbe, 0x80, 0x82, 0x47, 0xbc, 0xa4, 0x03, 0x5c, 0x3e,
  0xc3, 0x8c, 0x90, 0x3d, 0xae, 0xa8, 0xae, 0x3d, 0xc1, 0x5e, 0xa5, 0x3e,
  0x16, 0x17, 0x08, 0x3e, 0x00, 0x7e, 0xb6, 0xbe, 0xc5, 0x0b, 0x9c, 0x3e,
  0x15, 0x7d, 0x56, 0x3e, 0x1a, 0xa3, 0x46, 0x3e, 0xd2, 0x21, 0x12, 0xbf,
  0xdb, 0xce, 0x05, 0xbe, 0x82, 0x14, 0x59, 0x3c, 0x6d, 0x7d, 0x27, 0xbe,
  0xa6, 0xe2, 0x54, 0xbe, 0x6b, 0x1b, 0xbe, 0xbd, 0x5f, 0x6f, 0x26, 0x3d,
  0xb4, 0xde, 0xe9, 0xbe, 0xc8, 0x51, 0x13, 0x3e, 0x73, 0x24, 0x1e, 0x3a,
  0xd2, 0x14, 0xb3, 0xbe, 0x6c, 0x30, 0x2b, 0xbd, 0x1c, 0xe8, 0xdd, 0xbd,
  0x3a, 0x76, 0x39, 0x3e, 0x3f, 0x54, 0xf9, 0x3d, 0xa2, 0x15, 0xe1, 0xbe,
  0x6e, 0x39, 0x27, 0xbf, 0x32, 0x46, 0x4c, 0x3e, 0xd1, 0xea, 0x15, 0x3d,
  0xa3, 0xd4, 0x9c, 0xbe, 0x63, 0xa1, 0x84, 0xbd, 0xa6, 0x45, 0x28, 0xbc,
  0xc2, 0xbe, 0x32, 0x3e, 0x6e, 0x20, 0xac, 0xbe, 0xaf, 0xbe, 0x2e, 0xbd,
  0x8c, 0x40, 0x63, 0xbe, 0x89, 0x02, 0xbe, 0xbd, 0x6c, 0xb3, 0x71, 0xbd,
  0x9d, 0xc7, 0xea, 0xbd, 0x17, 0x5f, 0xa1, 0xbe, 0x9a, 0xc6, 0x88, 0x3b,
  0x84, 0x1d, 0x41, 0xbe, 0x2f, 0x47, 0xe8, 0xbe, 0x60, 0xa9, 0x53, 0x3e,
  0x85, 0x8b, 0xa5, 0x3c, 0x44, 0x62, 0x78, 0xbd, 0xe6, 0x4d, 0xd8, 0xbc,
  0x4b, 0x13, 0xca, 0x3d, 0xda, 0xc1, 0x08, 0x3e, 0x42, 0x88, 0x43, 0xbe,
  0x3e, 0x5b, 0x3b, 0x3e, 0xfa, 0x1d, 0xe3, 0x3d, 0x06, 0x79, 0x29, 0xbd,
  0xe5, 0xa1, 0x9f, 0x3e, 0xc6, 0x17, 0xa3, 0xbd, 0xc5, 0x43, 0xb3, 0xbe,
  0xc5, 0x23, 0x90, 0xbd, 0xb9, 0x31, 0x22, 0x3e, 0x23, 0xfe, 0xde, 0xbe,
  0x61, 0xa4, 0x05, 0x3e, 0x60, 0xd9, 0x4a, 0x3d, 0x96, 0xad, 0x93, 0x3d,
  0xfb, 0xa7, 0x15, 0xbc, 0x7c, 0x35, 0x9e, 0x3d, 0x41, 0x34, 0x94, 0x3e,
  0xf3, 0x54, 0x2f, 0xbe, 0x60, 0x12, 0x8b, 0x3d, 0xc4, 0xb6, 0x0e, 0x3d,
  0x9c, 0x26, 0x27, 0xbe, 0x8f, 0x3e, 0x4e, 0x3d, 0xf1, 0xb6, 0x24, 0xbe,
  0xcb, 0x5e, 0x04, 0xbe, 0x21, 0x09, 0x83, 0xbe, 0x46, 0xfc, 0x81, 0x3d,
  0x9c, 0x1f, 0xf4, 0xbe, 0x7b, 0x42, 0x49, 0x3d, 0x61, 0x25, 0xe2, 0x3c,
  0xf4, 0xf3, 0x24, 0x3d, 0x37, 0x9c, 0xa8, 0x3d, 0x42, 0x36, 0x27, 0x3d,
  0x7a, 0x36, 0x1f, 0x3e, 0x7a, 0xe6, 0xaa, 0xbc, 0x6c, 0x4c, 0x72, 0xbd,
  0x5f, 0x8b, 0x37, 0xbe, 0x41, 0xf8, 0x8c, 0xbd, 0x81, 0x12, 0x05, 0x3e,
  0xce, 0x44, 0x15, 0xbe, 0x72, 0xd5, 0x12, 0xbe, 0x6d, 0xd3, 0x7e, 0xbe,
  0x00, 0x95, 0xee, 0xbd, 0x78, 0x11, 0x6a, 0xbe, 0x43, 0x2e, 0xa0, 0x3c,
  0x16, 0xc4, 0x02, 0x3c, 0xdf, 0x27, 0x05, 0xbd, 0xeb, 0xb9, 0x20, 0xbc,
  0x0a, 0x23, 0x0e, 0xbe, 0xa9, 0x99, 0x48, 0xbd, 0x51, 0x52, 0xc6, 0x3d,
  0x96, 0x73, 0x5c, 0xbd, 0x34, 0xf4, 0xd0, 0xbd, 0xfa, 0x00, 0xb7, 0xbd,
  0xf7, 0x72, 0x06, 0xbe, 0x7e, 0x4f, 0x26, 0xbe, 0x31, 0x9f, 0x4d, 0xbe,
  0x6d, 0xed, 0x18, 0xbe, 0xfb, 0x4f, 0x57, 0xbe, 0x8d, 0x74, 0x8a, 0xbe,
  0xcb, 0xc4, 0x8b, 0x3c, 0x19, 0x2f, 0x4d, 0xbc, 0x69, 0xa2, 0x4b, 0xbd,
  0x0b, 0xb8, 0x0f, 0xbe, 0xe9, 0x3e, 0x5f, 0xbd, 0x2b, 0xe5, 0x5b, 0x3e,
  0x99, 0xcd, 0x85, 0x3d, 0x7f, 0x94, 0x1b, 0xbd, 0x78, 0x0e, 0x4e, 0xbd,
  0xe1, 0xcb, 0x53, 0x3d, 0x63, 0x32, 0xda, 0xbd, 0x65, 0x37, 0x30, 0xbe,
  0x0c, 0xb8, 0xca, 0xbb, 0x63, 0xaf, 0x9a, 0xbe, 0x3b, 0x24, 0xc0, 0xbe,
  0xb6, 0x70, 0xcd, 0xbd, 0x1e, 0x0e, 0xd4, 0xbc, 0x14, 0xc0, 0x81, 0xbc,
  0x6a, 0xd6, 0x1d, 0xbe, 0x55, 0x4b, 0x44, 0xbe, 0x8d, 0xcd, 0x7f, 0x39,
  0x57, 0x69, 0xa1, 0x3e, 0x3b, 0xcd, 0xc2, 0x3d, 0xa6, 0x59, 0x7a, 0xbe,
  0xed, 0x5e, 0xb8, 0xbb, 0x08, 0xd5, 0x13, 0xbe, 0x2b, 0xe9, 0x47, 0x3d,
  0xde, 0x06, 0x4c, 0xbe, 0x33, 0x41, 0x0a, 0xbe, 0x46, 0x45, 0x03, 0xbe,
  0xd5, 0xe9, 0x83, 0xbe, 0x11, 0xd7, 0xf2, 0xbd, 0x17, 0xec, 0x7b, 0x3d,
  0xcf, 0xa3, 0xee, 0xbc, 0x09, 0xd1, 0xc0, 0xbd, 0x0c, 0x44, 0x28, 0x3c,
  0x58, 0xac, 0xdb, 0xbd, 0xf2, 0x59, 0x9a, 0x3d, 0x11, 0x11, 0x81, 0xbd,
  0xf3, 0x61, 0x38, 0xbe, 0xf0, 0x30, 0x80, 0x3d, 0x87, 0xe7, 0x4d, 0xbc,
  0xcb, 0x75, 0xb5, 0x3c, 0x2a, 0xbe, 0x69, 0xbe, 0xf1, 0xb5, 0x89, 0xbe,
  0x87, 0x54, 0xe8, 0x3d, 0x4d, 0x9c, 0x95, 0xbe, 0x9e, 0xd4, 0xe7, 0xbd,
  0x97, 0xc8, 0xcd, 0x3c, 0xa9, 0x10, 0x2b, 0xbb, 0xde, 0x78, 0xb9, 0xbd,
  0x01, 0x7b, 0x07, 0xbd, 0xc7, 0x2a, 0x19, 0xbc, 0x56, 0x5c, 0x33, 0x3e,
  0xc2, 0x60, 0x4f, 0xbd, 0x11, 0x25, 0x25, 0x3d, 0xdd, 0x3a, 0x5d, 0xbd,
  0x8d, 0xfe, 0x3e, 0xbd, 0x3e, 0x80, 0xff, 0xbc, 0x19, 0xa1, 0xb4, 0xbd,
  0x81, 0xed, 0x87, 0xbe, 0x97, 0x8d, 0x20, 0x3e, 0x40, 0x8f, 0xcf, 0xbd,
  0x7d, 0x2f, 0x75, 0xbd, 0x6b, 0x1b, 0x00, 0x3d, 0x65, 0xe0, 0xb7, 0x3a,
  0x0e, 0x03, 0x8b, 0xbd, 0xcc, 0x43, 0x9e, 0xbd, 0x18, 0xd4, 0x32, 0xbd,
  0x66, 0xe9, 0xd1, 0x3c, 0x3e, 0x3a, 0xdc, 0xbd, 0x67, 0xf8, 0xb5, 0xbd,
  0x1b, 0xdd, 0x38, 0xbe, 0x9e, 0xd2, 0x3b, 0xbe, 0x65, 0x2e, 0xf8, 0x3d,
  0x75, 0xb4, 0xc8, 0xbd, 0xf0, 0x08, 0x23, 0xbe, 0x19, 0x20, 0x16, 0xbe,
  0x8d, 0x3b, 0x6c, 0x3d, 0xfa, 0x51, 0x95, 0xbd, 0x93, 0x53, 0x1d, 0xbd,
  0x78, 0xdb, 0x32, 0xbc, 0x9c, 0xee, 0x44, 0x3d, 0x51, 0x3e, 0x58, 0xbe,
  0xc7, 0xab, 0x60, 0x3d, 0x41, 0x47, 0x7b, 0x3d, 0x55, 0x8c, 0xb6, 0xbd,
  0x6d, 0xa1, 0xb8, 0xbc, 0x21, 0xe8, 0x87, 0x3d, 0x83, 0x94, 0x7f, 0xbe,
  0x83, 0xfb, 0x4a, 0x3b, 0xae, 0x40, 0x22, 0x3c, 0x41, 0xf1, 0xee, 0xbd,
  0x78, 0xbf, 0x4f, 0xbe, 0xbc, 0xaa, 0x0f, 0x3e, 0xd9, 0xc1, 0xc6, 0xbd,
  0x42, 0xa0, 0x16, 0xbe, 0x19, 0x05, 0x66, 0x3c, 0x41, 0xa8, 0x93, 0x3d,
  0x70, 0x9a, 0x13, 0xbe, 0xfd, 0xdf, 0xbe, 0xbd, 0x8f, 0x7b, 0xaa, 0x3d,
  0xc5, 0x01, 0x5d, 0xbe, 0xbe, 0x4d, 0xbe, 0x3d, 0xce, 0x2f, 0xf1, 0x3d,
  0x58, 0xef, 0xa0, 0xbe, 0x86, 0x83, 0xee, 0x3c, 0x5a, 0xb5, 0xde, 0xbd,
  0x7f, 0xb4, 0xb0, 0xbc, 0x83, 0xde, 0xf7, 0xbd, 0x80, 0x05, 0x00, 0x3e,
  0x8d, 0x10, 0x36, 0xbd, 0xed, 0x78, 0xa0, 0xbe, 0x63, 0x13, 0x06, 0xbd,
  0x15, 0x1c, 0xa8, 0x3e, 0xe5, 0x8a, 0xa2, 0x3e, 0xfa, 0x9c, 0xcd, 0x3c,
  0x5d, 0xe8, 0x9a, 0xbe, 0xf3, 0x26, 0xe0, 0xbd, 0xf2, 0x68, 0xd7, 0xbe,
  0xf8, 0x98, 0x58, 0xbc, 0x27, 0x8c, 0xf9, 0xbd, 0x81, 0xbc, 0x81, 0x3e,
  0x4a, 0x50, 0x8f, 0xbd, 0x5e, 0x34, 0x36, 0xbe, 0xd6, 0xb5, 0x74, 0x3e,
  0x97, 0xe0, 0xde, 0x3c, 0x2b, 0xc1, 0xdf, 0xbd, 0xb5, 0xc8, 0x11, 0xbf,
  0x6b, 0x0b, 0x84, 0xbe, 0xcd, 0x3d, 0xa6, 0xbc, 0x79, 0xf7, 0x2a, 0x3e,
  0x1b, 0x08, 0x9f, 0xbe, 0x10, 0x40, 0xaf, 0x3d, 0x0c, 0x4e, 0xa1, 0xbd,
  0xf8, 0x08, 0x2f, 0xbf, 0xbe, 0xc0, 0x57, 0xbb, 0x40, 0x30, 0xb2, 0x3e,
  0xbf, 0xc9, 0x9e, 0xbe, 0xdd, 0xa0, 0x04, 0x3d, 0xe4, 0xb3, 0x31, 0xbf,
  0x98, 0x5f, 0xb8, 0xbe, 0x8c, 0x34, 0x07, 0xbf, 0x00, 0x95, 0x04, 0xbd,
  0x2e, 0x78, 0x95, 0xbe, 0xd1, 0x7a, 0xbe, 0xbd, 0x16, 0x08, 0xc4, 0x3d,
  0xf7, 0x70, 0x80, 0x3e, 0xf7, 0x92, 0x06, 0xbf, 0xdf, 0x39, 0x44, 0x3e,
  0x94, 0x7e, 0x76, 0x3e, 0x66, 0x9e, 0x8b, 0xbc, 0x91, 0x0d, 0xbe, 0xbb,
  0x25, 0x28, 0x3c, 0x3e, 0x4c, 0x69, 0xdd, 0x3d, 0xf2, 0xdf, 0x9c, 0x3c,
  0x23, 0xbe, 0x70, 0xbe, 0x98, 0x83, 0x60, 0xbe, 0xd2, 0x3f, 0x89, 0xbd,
  0xa5, 0x2c, 0x86, 0x3d, 0x9a, 0x58, 0x05, 0xbd, 0x32, 0xc6, 0x46, 0xbe,
  0x68, 0xc9, 0x77, 0x3d, 0xad, 0xf5, 0x32, 0x3e, 0x7d, 0x69, 0xc5, 0xbd,
  0xd8, 0xb3, 0x02, 0x3e, 0x79, 0xdc, 0x85, 0x3e, 0xff, 0xcf, 0x5a, 0x3e,
  0x8e, 0x95, 0x3b, 0xbe, 0xfb, 0x22, 0x58, 0x3e, 0xe9, 0xd1, 0x81, 0x3e,
  0x35, 0xa5, 0xef, 0xbc, 0x48, 0xab, 0x42, 0xbe, 0xe1, 0xa6, 0x58, 0xbe,
  0x9f, 0x39, 0xa4, 0xbd, 0xe9, 0x92, 0xb8, 0xbd, 0x83, 0xd7, 0x08, 0xbd,
  0xd4, 0x24, 0x6d, 0xbd, 0xd9, 0x3a, 0x00, 0x3d, 0x97, 0xf0, 0x40, 0x3e,
  0x5c, 0xa0, 0xe4, 0xbc, 0x6a, 0xce, 0x1c, 0x3d, 0x22, 0x47, 0x41, 0x3e,
  0xf0, 0x37, 0x6b, 0x3e, 0x33, 0xb6, 0x3a, 0xbc, 0x31, 0xe2, 0x2f, 0x3e,
  0x45, 0x38, 0x4c, 0x3d, 0xa1, 0x43, 0xbd, 0xbd, 0x90, 0xf6, 0x1d, 0xbe,
  0x49, 0x47, 0x68, 0xbe, 0xee, 0xe5, 0xa2, 0xbb, 0xf0, 0xff, 0x02, 0xbc,
  0x8c, 0xbf, 0xae, 0xbd, 0xbd, 0xc1, 0x73, 0xbd, 0x25, 0x6f, 0x96, 0xbd,
  0xda, 0xaa, 0xa3, 0x3d, 0x10, 0xbd, 0xd4, 0xbe, 0x31, 0x47, 0x9e, 0xbe,
  0x39, 0xcf, 0x3e, 0x3e, 0x0b, 0x05, 0x62, 0x3e, 0x91, 0x5f, 0x5f, 0xbd,
  0xe6, 0x16, 0x75, 0x3e, 0x8a, 0x1c, 0xdc, 0x3d, 0xab, 0x09, 0x1d, 0xbd,
  0xeb, 0x29, 0x17, 0xbe, 0x4d, 0xeb, 0xc6, 0xbd, 0x73, 0x46, 0x30, 0xbd,
  0xc6, 0xd7, 0x6b, 0xbd, 0xb4, 0x9c, 0x01, 0x3d, 0x42, 0xfe, 0x82, 0xbd,
  0x21, 0x2d, 0xf5, 0xbc, 0x7c, 0x99, 0x55, 0x3e, 0xc6, 0x36, 0xee, 0xbc,
  0x74, 0x2d, 0x36, 0xbe, 0x8c, 0x40, 0x52, 0x3e, 0x9d, 0xe2, 0xc8, 0x3e,
  0x54, 0x58, 0xdf, 0x3d, 0x3c, 0x9b, 0x63, 0x3e, 0x67, 0xd8, 0x66, 0x3e,
  0x8d, 0x9e, 0xb3, 0xbc, 0x5a, 0xc3, 0x36, 0xbd, 0xc7, 0x34, 0x19, 0xbc,
  0xf2, 0xbd, 0x5f, 0x3d, 0x07, 0xec, 0xe3, 0x3c, 0x0c, 0xc8, 0x27, 0xbd,
  0x16, 0x71, 0x3b, 0xbd, 0x37, 0x92, 0x97, 0xbd, 0xad, 0xa3, 0x2c, 0x3e,
  0xd0, 0x2f, 0xf6, 0xbd, 0x04, 0xe2, 0x6b, 0xbe, 0xd1, 0xe1, 0x07, 0x3e,
  0xdd, 0x6b, 0x5f, 0x3e, 0x1f, 0xad, 0x2e, 0x3d, 0x0c, 0x3e, 0x96, 0x3e,
  0xe4, 0x15, 0x41, 0x3e, 0x1a, 0xf3, 0x6f, 0xbd, 0x03, 0x5f, 0x23, 0xbd,
  0x25, 0xc5, 0xa7, 0xbe, 0x31, 0xf5, 0xc6, 0xbd, 0x0f, 0x1f, 0x3e, 0xbd,
  0xb5, 0x3f, 0x69, 0xbd, 0xbe, 0xc0, 0x4c, 0xbd, 0xa1, 0xb1, 0x0d, 0xbe,
  0xaa, 0x1e, 0xe2, 0x3d, 0xf5, 0x66, 0xb6, 0xbd, 0x65, 0x8f, 0x65, 0xbe,
  0xf9, 0xf0, 0x96, 0x3d, 0xfb, 0x56, 0xaf, 0x3e, 0x2a, 0xaf, 0xbb, 0x3c,
  0x54, 0x11, 0x9e, 0x3d, 0x45, 0x86, 0x57, 0x3d, 0x05, 0xba, 0x1b, 0x3b,
  0x49, 0x12, 0xf5, 0xbd, 0x76, 0x6d, 0x09, 0x3d, 0x8f, 0xd7, 0x8d, 0xbd,
  0xd9, 0x01, 0x95, 0xbc, 0xdd, 0x7b, 0xd4, 0xbd, 0x89, 0x03, 0xfa, 0xbd,
  0x15, 0xf9, 0x48, 0x3c, 0x7a, 0x71, 0xaf, 0x3b, 0x36, 0x50, 0x80, 0x3e,
  0x9f, 0xeb, 0x3f, 0xbe, 0xcd, 0xa2, 0xcc, 0x3d, 0x5e, 0xe9, 0x25, 0x3e,
  0x3d, 0xf0, 0x95, 0xbd, 0x67, 0xf2, 0x21, 0x3e, 0x25, 0xf3, 0x0b, 0x3e,
  0x37, 0x82, 0x3c, 0xbc, 0x1c, 0x19, 0xa3, 0xbd, 0x8a, 0x06, 0xb2, 0xbd,
  0xcf, 0xcd, 0xcd, 0xba, 0xf5, 0xa9, 0xd1, 0xbb, 0x36, 0xdc, 0xf7, 0xbd,
  0x95, 0x6a, 0x9b, 0x3c, 0xd6, 0x4a, 0x87, 0x3c, 0xeb, 0x1f, 0xe4, 0x3d,
  0x57, 0x04, 0x8b, 0x3e, 0x75, 0xbe, 0x3c, 0x3d, 0x20, 0xec, 0xa8, 0x3c,
  0xa7, 0x2b, 0x54, 0x3e, 0x36, 0xd7, 0xcb, 0xbd, 0x00, 0x70, 0xa0, 0x3e,
  0x1d, 0xd7, 0x5f, 0x3d, 0x80, 0x1f, 0xcb, 0xbc, 0x14, 0x38, 0x92, 0xbd,
  0x5d, 0x00, 0xa3, 0xbd, 0x6b, 0x90, 0xbb, 0xbd, 0x56, 0x39, 0x0e, 0x3d,
  0x78, 0x20, 0xf5, 0xbc, 0x06, 0xe9, 0xd7, 0xbd, 0xf7, 0xb0, 0x85, 0x3d,
  0x0a, 0x5f, 0x5e, 0x3e, 0x7d, 0x11, 0x90, 0xbd, 0x09, 0xe1, 0x57, 0xbd,
  0x95, 0xa2, 0x38, 0x3e, 0xa4, 0xf0, 0xa0, 0x3e, 0x10, 0x72, 0x5e, 0xbc,
  0x25, 0x9a, 0xb0, 0x3e, 0xce, 0x16, 0x50, 0x3e, 0x09, 0x2f, 0x14, 0xbd,
  0x36, 0x3a, 0x11, 0xbe, 0xc0, 0xf3, 0xc6, 0xbd, 0x3a, 0xcb, 0x20, 0xbe,
  0x7e, 0x58, 0x36, 0xbc, 0x4e, 0xdf, 0x38, 0xbe, 0x54, 0x21, 0x5f, 0xbd,
  0x6f, 0x79, 0xcb, 0x3d, 0x26, 0xf5, 0x63, 0x3e, 0xfb, 0x5c, 0xaf, 0xbe,
  0x40, 0x80, 0x0c, 0xbe, 0x01, 0x7f, 0xb3, 0x3e, 0x4d, 0xcd, 0x8e, 0x3e,
  0xb0, 0x2e, 0xba, 0x3d, 0x5a, 0x8a, 0x96, 0x3e, 0xd8, 0x80, 0x7f, 0x3e,
  0x55, 0x0c, 0xa7, 0xbb, 0xed, 0xc5, 0xb9, 0xbe, 0xe1, 0x46, 0xbc, 0xbe,
  0x81, 0xc7, 0x4a, 0xbe, 0xa1, 0x93, 0x06, 0x3d, 0x1b, 0x83, 0xda, 0xbd,
  0x97, 0x67, 0xab, 0xbd, 0x94, 0x22, 0x0a, 0x3e, 0xd3, 0x92, 0xf8, 0x3d,
  0xe7, 0xed, 0x97, 0xbe, 0x78, 0x88, 0x29, 0xbc, 0x3a, 0xfc, 0x90, 0x3e,
  0x2b, 0x0d, 0x4c, 0x3e, 0x77, 0x04, 0x4f, 0x3c, 0x5b, 0x29, 0xb4, 0x3e,
  0xd1, 0x91, 0x78, 0x3e, 0xf0, 0x5b, 0xa6, 0x3d, 0x39, 0xe7, 0x01, 0xbf,
  0x72, 0xe6, 0x35, 0xbd, 0x71, 0xd3, 0x15, 0xbe, 0x62, 0x06, 0x7c, 0x3d,
  0x1e, 0x77, 0xd3, 0xbc, 0xbe, 0x8a, 0x8e, 0xbe, 0x19, 0x7a, 0xe7, 0xbb,
  0x9d, 0xea, 0x57, 0xbe, 0x46, 0x2c, 0x23, 0xbf, 0xa7, 0x9b, 0xbc, 0x3d,
  0x65, 0x91, 0x81, 0x3d, 0x13, 0x91, 0x23, 0xbd, 0x01, 0x2d, 0x49, 0xbd,
  0x44, 0x6f, 0x88, 0xbe, 0x57, 0x7b, 0x70, 0x3e, 0x9d, 0x7a, 0xa1, 0x3d,
  0x46, 0x8c, 0x32, 0xbe, 0xcf, 0xee, 0xba, 0xbc, 0xb9, 0xfe, 0x6b, 0x3d,
  0x7a, 0xb7, 0xae, 0x3d, 0xb0, 0xde, 0x69, 0x3c, 0xe0, 0x46, 0x03, 0xbc,
  0x02, 0x48, 0xde, 0x3d, 0x80, 0xed, 0xa1, 0x3d, 0xc5, 0x5e, 0xd2, 0x3d,
  0xff, 0x5b, 0x8e, 0x3e, 0xf0, 0xe8, 0x1d, 0x3f, 0x01, 0xba, 0xab, 0x3e,
  0xad, 0x64, 0x75, 0xbd, 0xa9, 0x25, 0x64, 0xbe, 0x77, 0x10, 0x3e, 0x3e,
  0x51, 0xa5, 0x8e, 0xbd, 0xe2, 0xd7, 0x97, 0x3f, 0x6e, 0x98, 0xd2, 0x3d,
  0x8a, 0x99, 0x34, 0x3f, 0xf3, 0x6a, 0xfb, 0xbe, 0x0b, 0xb5, 0xde, 0xbd,
  0xd4, 0x78, 0x27, 0xbd, 0xf5, 0xaf, 0xdd, 0xbd, 0x4a, 0x55, 0x9f, 0xbd,
  0x5c, 0x65, 0x48, 0x3e, 0x5f, 0xb5, 0xaa, 0x3d, 0xa5, 0x1f, 0x05, 0xbd,
  0x21, 0xfd, 0x90, 0xbe, 0x93, 0xe0, 0xd1, 0x3d, 0x40, 0x1d, 0xb3, 0x3d,
  0xb5, 0xc7, 0x26, 0x3e, 0xbf, 0x14, 0x56, 0xbe, 0xc6, 0xa4, 0xd9, 0x3e,
  0x7e, 0x26, 0xe8, 0xbe, 0x5e, 0x27, 0xed, 0x3e, 0x79, 0xf2, 0xfa, 0xbe,
  0xdc, 0xf4, 0x0a, 0xbe, 0xc1, 0xd4, 0x6f, 0xbd, 0x7c, 0x80, 0x47, 0x3c,
  0xac, 0x39, 0xfa, 0x3d, 0x18, 0xce, 0x0b, 0x3e, 0xc1, 0xc4, 0x84, 0x3d,
  0xb1, 0x8d, 0x99, 0x3d, 0x7f, 0x54, 0x28, 0xbe, 0x4d, 0xbb, 0x17, 0xbe,
  0x9f, 0x24, 0xc8, 0xbe, 0x6f, 0xd8, 0x19, 0xbe, 0xb6, 0x04, 0xa6, 0xbe,
  0xdd, 0x81, 0xc8, 0x3b, 0x70, 0x44, 0x45, 0xbb, 0x64, 0xeb, 0x81, 0xbc,
  0xcb, 0x38, 0x35, 0xbe, 0x22, 0x6e, 0x77, 0xbd, 0x63, 0x11, 0x80, 0xbd,
  0xa2, 0x6b, 0x0c, 0xbd, 0x5d, 0xd8, 0x10, 0x3e, 0x8e, 0xff, 0x87, 0xbe,
  0x71, 0x87, 0x1e, 0x3e, 0xa5, 0xeb, 0xa7, 0x3d, 0x9c, 0xea, 0x2f, 0xbd,
  0xbb, 0x9c, 0xe2, 0xbc, 0x23, 0x88, 0x02, 0xbe, 0xd9, 0x9d, 0x27, 0xbe,
  0xd9, 0x58, 0x96, 0xbd, 0x6d, 0xc8, 0x03, 0xbe, 0xa9, 0xe1, 0xdd, 0x3d,
  0xf3, 0x70, 0xd8, 0xbd, 0xcf, 0x6c, 0x69, 0xbd, 0x80, 0x97, 0x28, 0xbd,
  0xa9, 0xb2, 0x2d, 0xbd, 0xf5, 0x10, 0x58, 0x3d, 0xba, 0x89, 0xaa, 0x3d,
  0xbc, 0xc9, 0x6c, 0xbe, 0x23, 0x32, 0xcb, 0x3e, 0x8e, 0x12, 0xa6, 0x3e,
  0xd7, 0x0e, 0xf0, 0xbc, 0x53, 0x65, 0x03, 0xbe, 0xaf, 0x66, 0xd4, 0xbd,
  0x55, 0x0e, 0x3d, 0x3d, 0xb1, 0x3e, 0xc6, 0x3d, 0x85, 0x8b, 0x49, 0xbe,
  0xde, 0x00, 0xbd, 0x3e, 0x78, 0xbb, 0x1d, 0x3d, 0xbc, 0x0e, 0xcd, 0xbe,
  0x9a, 0xbf, 0x6a, 0xbd, 0x98, 0x93, 0x26, 0x3c, 0x01, 0x33, 0x17, 0x3e,
  0x62, 0x8c, 0x85, 0x3e, 0x1b, 0x4b, 0xa6, 0xbd, 0xf7, 0xf0, 0x8a, 0x3d,
  0x3b, 0x9c, 0xe1, 0x3d, 0x4d, 0xf2, 0x1d, 0x3d, 0x9d, 0xee, 0x08, 0x3e,
  0x43, 0x63, 0x33, 0x3d, 0x01, 0xd0, 0x34, 0x3e, 0x97, 0xef, 0x06, 0xbc,
  0x26, 0x26, 0x28, 0xbe, 0xde, 0x65, 0x50, 0x3e, 0x44, 0xe9, 0x04, 0x3c,
  0xd1, 0x64, 0xef, 0x3b, 0xad, 0xa0, 0x78, 0xbc, 0xae, 0x50, 0xf0, 0xbb,
  0x27, 0x4c, 0x60, 0x3e, 0xf3, 0xce, 0x35, 0x3b, 0xf4, 0xf3, 0xcc, 0xbe,
  0x29, 0x59, 0xbb, 0x3e, 0xce, 0x02, 0xb8, 0x3d, 0xc5, 0xbb, 0x5a, 0xbd,
  0xe6, 0xb2, 0x32, 0x3e, 0x01, 0x94, 0x6d, 0x3d, 0xad, 0x00, 0x00, 0x3e,
  0xf3, 0x19, 0xa7, 0xbc, 0x36, 0x94, 0xe0, 0xbd, 0xe7, 0x51, 0x2c, 0x3c,
  0x38, 0xfa, 0x07, 0x3e, 0xe9, 0xa7, 0x66, 0xbe, 0x46, 0x7f, 0xce, 0x39,
  0xf7, 0x1f, 0xd2, 0x3c, 0x2d, 0xb6, 0x34, 0x3e, 0x32, 0x16, 0x29, 0x3e,
  0x04, 0x12, 0x9f, 0xbe, 0x29, 0xe9, 0xab, 0xbc, 0xbd, 0xd4, 0xed, 0xbc,
  0xcb, 0xc0, 0xf7, 0xbd, 0xe5, 0x75, 0xaf, 0x3d, 0x87, 0x69, 0x90, 0xbe,
  0x10, 0xb0, 0xae, 0x3d, 0xa7, 0x90, 0xa7, 0xbc, 0x69, 0x75, 0x52, 0xbd,
  0xe3, 0xbc, 0x6b, 0x3e, 0x3d, 0x90, 0x34, 0xbd, 0xf8, 0x38, 0x1e, 0xbe,
  0xf7, 0xc2, 0x5e, 0xbd, 0x63, 0x42, 0x9c, 0xbb, 0xeb, 0x56, 0x40, 0x3d,
  0x07, 0x75, 0x6d, 0xbd, 0x8c, 0x39, 0x45, 0xbe, 0x1e, 0x43, 0x63, 0x3e,
  0xc4, 0xfd, 0xd4, 0xbd, 0x7b, 0x75, 0x0a, 0xbe, 0x68, 0x26, 0xb3, 0xbd,
  0x33, 0xe4, 0x8a, 0xbd, 0xd1, 0x2f, 0x8e, 0x3d, 0x79, 0xaa, 0xbf, 0xbb,
  0x85, 0xf9, 0x94, 0xbd, 0xca, 0x87, 0xb4, 0xbd, 0x45, 0x97, 0xe2, 0xbc,
  0x97, 0x85, 0x26, 0xbe, 0x47, 0xbd, 0x4d, 0xbd, 0x5d, 0x02, 0x5b, 0x3c,
  0xb2, 0xa8, 0xd2, 0x3d, 0xdd, 0x02, 0x3e, 0x3e, 0x8e, 0xe5, 0x85, 0x3d,
  0x9e, 0x67, 0xcd, 0x39, 0x99, 0xe2, 0xcb, 0xbc, 0xc1, 0x78, 0x6a, 0xbe,
  0x09, 0x6f, 0xbe, 0x3d, 0xa1, 0xb6, 0x1f, 0xbe, 0x5c, 0x6f, 0xfb, 0x3d,
  0xfe, 0x63, 0x83, 0xbe, 0x1c, 0xbe, 0xac, 0xbd, 0x74, 0xc1, 0x2c, 0x3e,
  0x91, 0x14, 0x58, 0xbd, 0xe5, 0x7b, 0x8e, 0xbe, 0x2d, 0xdf, 0xa4, 0x3c,
  0xdd, 0xe1, 0xc5, 0xbc, 0xf9, 0x90, 0x5a, 0x3d, 0x40, 0x97, 0xa8, 0x3d,
  0xe7, 0xa6, 0x15, 0x3e, 0x36, 0xeb, 0x10, 0x3e, 0x54, 0xed, 0xa5, 0xbd,
  0x08, 0x6c, 0xc2, 0xbe, 0x39, 0x3d, 0xe0, 0x3d, 0x5e, 0x15, 0x61, 0x3b,
  0xbe, 0x16, 0xd5, 0x3d, 0x8d, 0xa6, 0x6e, 0xbd, 0x9d, 0x24, 0xfa, 0x3d,
  0xdb, 0x42, 0x90, 0xbd, 0x20, 0xb3, 0x53, 0xbe, 0x43, 0x82, 0x1e, 0xbe,
  0x9b, 0x6a, 0x5d, 0x3c, 0x2d, 0x6c, 0x11, 0xbd, 0x0f, 0xc0, 0x95, 0xba,
  0xec, 0x45, 0xbf, 0x3c, 0x30, 0xa4, 0x9a, 0x3e, 0x83, 0x5f, 0x91, 0x3e,
  0x2b, 0x0e, 0xa6, 0xba, 0x0e, 0x26, 0xf9, 0xbe, 0xbd, 0xcb, 0xd8, 0xbd,
  0x35, 0xd9, 0x80, 0xbe, 0x8a, 0x39, 0x7f, 0xbe, 0xe9, 0xab, 0x8d, 0xbe,
  0x6e, 0x04, 0x75, 0x3e, 0x91, 0x1b, 0x9c, 0xbe, 0x85, 0x43, 0x50, 0x3d,
  0xc8, 0xd0, 0xc1, 0xbe, 0x4e, 0x1d, 0x18, 0x3d, 0xf6, 0xff, 0x2b, 0xbd,
  0x59, 0xe6, 0xf5, 0xbd, 0x9c, 0x91, 0x8f, 0xbd, 0xcd, 0xa7, 0x00, 0x3f,
  0xb5, 0x0a, 0x60, 0x3e, 0x26, 0xca, 0x6e, 0x3e, 0x63, 0xa2, 0xa0, 0xbd,
  0xb5, 0xff, 0x98, 0x3c, 0x30, 0x15, 0x44, 0xbe, 0xcd, 0x3d, 0xa5, 0x3e,
  0x38, 0xb6, 0x00, 0xbf, 0xe6, 0x36, 0xd7, 0x3d, 0xd6, 0xa8, 0xcb, 0xbd,
  0xed, 0x64, 0x2d, 0x3e, 0x5d, 0x05, 0x9e, 0xbe, 0x1f, 0xdf, 0x59, 0x3d,
  0xfe, 0x51, 0x8a, 0xbc, 0xa1, 0x4d, 0x34, 0xbe, 0x89, 0xa5, 0xc9, 0xbe,
  0xe5, 0x51, 0xfc, 0x3e, 0x16, 0x6b, 0x74, 0x3e, 0x71, 0xd3, 0x92, 0x3e,
  0x5f, 0x5b, 0xaf, 0x3e, 0x7b, 0xdf, 0x8a, 0x3d, 0xb7, 0x67, 0x83, 0x3e,
  0xdb, 0x5b, 0x82, 0x3e, 0xab, 0x79, 0x28, 0xbe, 0x3f, 0x25, 0xd4, 0x3d,
  0xfa, 0x52, 0x06, 0xbe, 0x71, 0x7e, 0xe8, 0xbd, 0x30, 0xae, 0xf8, 0xbd,
  0x69, 0x88, 0x64, 0x3e, 0x8c, 0x58, 0x11, 0xbe, 0xba, 0x73, 0x17, 0xbe,
  0x01, 0x05, 0x68, 0x3c, 0x68, 0xac, 0xfa, 0x3c, 0x39, 0x02, 0x2a, 0x3d,
  0x92, 0xb4, 0xba, 0xb9, 0xfe, 0x2f, 0xea, 0xbd, 0x50, 0x1a, 0xa3, 0xbd,
  0xa1, 0x62, 0xbe, 0x3d, 0xc4, 0x4f, 0xa5, 0x3d, 0x71, 0xfb, 0x14, 0xbc,
  0xd4, 0x6f, 0xcb, 0x3b, 0x60, 0x8f, 0x01, 0x3c, 0x52, 0xe1, 0x5c, 0x3d,
  0x2e, 0xa7, 0x19, 0xbd, 0x17, 0xd9, 0x1e, 0xbe, 0x8d, 0x2f, 0xe6, 0xbd,
  0x4c, 0xa9, 0x93, 0xbd, 0x71, 0x32, 0x47, 0x3d, 0xde, 0x77, 0x10, 0xbd,
  0x24, 0xda, 0x60, 0x3d, 0x9a, 0xe8, 0x17, 0xbe, 0x66, 0x72, 0xf8, 0xbd,
  0x4a, 0x2b, 0xbf, 0xbd, 0x28, 0xa1, 0x39, 0xbd, 0x4e, 0x48, 0xda, 0x3d,
  0xbd, 0xb6, 0x40, 0xbe, 0x0b, 0xc4, 0x1a, 0xbc, 0xf2, 0xaf, 0xba, 0x3d,
  0x81, 0x45, 0x03, 0xbe, 0x1c, 0x90, 0x0a, 0xbe, 0xd0, 0x98, 0x7a, 0x3d,
  0x98, 0x2a, 0x60, 0xbe, 0xf2, 0xe9, 0xab, 0xbd, 0x0b, 0x6a, 0x0d, 0xbe,
  0x52, 0xee, 0xf1, 0x3d, 0x34, 0x3f, 0xed, 0x3d, 0xf2, 0x28, 0x89, 0x3c,
  0xe6, 0x8c, 0xe0, 0x3c, 0xb1, 0x7b, 0x3f, 0xbd, 0x67, 0x1d, 0x48, 0xbd,
  0x4b, 0xe0, 0xa2, 0xbd, 0x6a, 0xf5, 0x16, 0xbe, 0x52, 0x8b, 0x5f, 0xbe,
  0x5b, 0x86, 0x8a, 0xbb, 0x60, 0x37, 0xef, 0xbd, 0x68, 0xb0, 0xc3, 0x3d,
  0xd8, 0x40, 0x47, 0x3d, 0xc8, 0xb7, 0x0f, 0xbe, 0x8d, 0xb2, 0x8a, 0x3d,
  0xfd, 0x10, 0xbd, 0x3c, 0x00, 0x20, 0x93, 0x39, 0x0e, 0x8b, 0x22, 0x3c,
  0xb5, 0x4c, 0x32, 0xbe, 0x97, 0xe1, 0xf4, 0xbd, 0x6c, 0x56, 0x2b, 0xbe,
  0x70, 0xce, 0xb4, 0x3d, 0x6f, 0xc9, 0x75, 0x3c, 0x6f, 0xa6, 0xd1, 0x3c,
  0x00, 0x83, 0x24, 0x3d, 0x45, 0xa5, 0x2d, 0xbc, 0x75, 0xc6, 0xc3, 0x3c,
  0x8d, 0x32, 0x30, 0xbe, 0x20, 0xc8, 0x08, 0x3d, 0xdb, 0x76, 0x45, 0xbd,
  0xc1, 0x8d, 0x09, 0x3d, 0x0b, 0xc9, 0x37, 0xbe, 0x96, 0x90, 0x0e, 0xbe,
  0xd2, 0x8a, 0xfb, 0xbd, 0x03, 0xb5, 0x3b, 0xbe, 0x5d, 0x8e, 0x1b, 0xbe,
  0x34, 0x84, 0x21, 0xbe, 0x23, 0x72, 0x17, 0xbe, 0x25, 0x23, 0x09, 0xbe,
  0x66, 0x8e, 0x22, 0xbe, 0xf6, 0xa0, 0x23, 0x3d, 0x37, 0xaa, 0xcd, 0x3d,
  0x49, 0xeb, 0xe9, 0x3c, 0xaa, 0x10, 0x60, 0xbe, 0xb7, 0xc7, 0x35, 0xbe,
  0x95, 0x95, 0x21, 0xbe, 0x7b, 0xb2, 0x84, 0xbd, 0x00, 0x26, 0xdf, 0xbc,
  0xb5, 0xc8, 0x10, 0x3e, 0x06, 0xb0, 0x2d, 0xbe, 0xd5, 0x3a, 0x33, 0xbe,
  0x6d, 0x3d, 0xed, 0xbd, 0x90, 0xa0, 0x4a, 0xbe, 0xe8, 0x04, 0x12, 0xbb,
  0x08, 0xfc, 0x83, 0x3d, 0x35, 0xb2, 0x61, 0x3c, 0xcd, 0x58, 0x17, 0xbd,
  0xd2, 0xf6, 0xe2, 0x3d, 0xe2, 0x2e, 0x00, 0xbe, 0x11, 0x9b, 0xb5, 0x3c,
  0x4e, 0x98, 0x61, 0xbe, 0xb3, 0x29, 0x1a, 0xbd, 0xf9, 0x35, 0x96, 0x3c,
  0xd4, 0xe6, 0x1d, 0xbc, 0xe1, 0xa2, 0x0b, 0x3e, 0xe9, 0x82, 0xdf, 0x3d,
  0xae, 0xdc, 0xaa, 0xbd, 0xc4, 0x6f, 0x2d, 0xbe, 0x53, 0x55, 0xad, 0x3d,
  0x77, 0xbb, 0xb5, 0x3c, 0x9c, 0xfc, 0x31, 0xbc, 0x8a, 0xf3, 0x74, 0xbe,
  0x5b, 0xba, 0x28, 0xbe, 0x58, 0xef, 0xbe, 0xbd, 0x71, 0x2b, 0x10, 0xbd,
  0xae, 0x52, 0xf3, 0x3c, 0x68, 0x0e, 0x38, 0xbe, 0xb2, 0x54, 0xe9, 0x3b,
  0x21, 0xce, 0xb0, 0x3d, 0xb2, 0xb7, 0x81, 0x3d, 0x92, 0x09, 0xe3, 0x3d,
  0x37, 0x26, 0x3f, 0xbe, 0x66, 0x8c, 0xc8, 0xbd, 0xd7, 0x63, 0x1c, 0xbe,
  0x6f, 0xf5, 0x6d, 0x3d, 0x98, 0x26, 0x16, 0xbe, 0x23, 0x0b, 0x0b, 0xbd,
  0xbf, 0x64, 0x08, 0xbe, 0x6f, 0xd2, 0xd6, 0xbd, 0x3b, 0x81, 0xc1, 0x3d,
  0xa8, 0x6b, 0x0c, 0x3d, 0xdf, 0x1c, 0xc4, 0xbd, 0x7a, 0x40, 0xbd, 0xbc,
  0xaa, 0x84, 0x30, 0x3d, 0x09, 0xf8, 0x5f, 0xbe, 0x44, 0x97, 0x61, 0x3c,
  0x56, 0x9d, 0xcd, 0xbd, 0x9b, 0x64, 0x34, 0x3d, 0x6d, 0xeb, 0x9b, 0x3d,
  0x37, 0xcc, 0xf5, 0xbd, 0x6f, 0x26, 0x9c, 0xbd, 0x71, 0x68, 0x08, 0xbe,
  0xe9, 0x07, 0x3f, 0x3d, 0x3d, 0x99, 0x6f, 0x3d, 0xd7, 0x4c, 0x29, 0xbe,
  0x95, 0x2b, 0x3d, 0xbe, 0xc0, 0xee, 0x3e, 0xbe, 0x07, 0x33, 0x12, 0xbe,
  0xd4, 0xa0, 0xf6, 0xbd, 0x1f, 0x4a, 0x0d, 0x3d, 0xbd, 0xd4, 0xa3, 0x3c,
  0x5c, 0x55, 0x56, 0xbd, 0xa0, 0x06, 0xfc, 0xbb, 0x7a, 0xa9, 0x59, 0x3d,
  0x5f, 0x9b, 0x93, 0x3c, 0x80, 0xfb, 0x21, 0xbd, 0xfc, 0xb0, 0xaa, 0x3d,
  0xc5, 0x9f, 0x0e, 0x3d, 0x4b, 0x99, 0x59, 0x3d, 0x71, 0xb1, 0x43, 0xbe,
  0xf8, 0x2a, 0xc3, 0xbd, 0xb8, 0xf5, 0xe1, 0x3c, 0x95, 0x4a, 0xc5, 0xbd,
  0x2d, 0xa5, 0x00, 0x3d, 0x5e, 0x27, 0x2e, 0x3d, 0x48, 0xdf, 0x09, 0x3d,
  0x91, 0x3c, 0x35, 0xbe, 0x66, 0x30, 0xd5, 0xbd, 0xf4, 0x99, 0x23, 0x3d,
  0x8e, 0xed, 0xf9, 0xbd, 0xc8, 0x35, 0xd5, 0xbd, 0xa2, 0x98, 0x14, 0xbe,
  0x53, 0x76, 0xd5, 0xbd, 0x5f, 0x97, 0xc4, 0x3d, 0x51, 0x8f, 0xdf, 0xbd,
  0x91, 0x03, 0xc0, 0x3c, 0x2a, 0x11, 0xf7, 0xbb, 0xc3, 0x1a, 0x0e, 0x3e,
  0x5a, 0x6c, 0xce, 0x3c, 0x51, 0x1d, 0x9c, 0xbc, 0x20, 0xf4, 0xf1, 0xbc,
  0x61, 0x19, 0x30, 0xbe, 0xc5, 0x86, 0x00, 0x3d, 0xde, 0xab, 0x6e, 0x3d,
  0x7d, 0x0e, 0x21, 0xbe, 0xf6, 0xe1, 0x12, 0xbe, 0x39, 0x90, 0x30, 0xbe,
  0x22, 0x92, 0x02, 0xbe, 0xed, 0xc9, 0x29, 0xbe, 0x0b, 0x37, 0x19, 0x3c,
  0xdf, 0xb5, 0x90, 0xbc, 0xcf, 0x5e, 0x67, 0xbd, 0xa3, 0x52, 0x9f, 0xbd,
  0x1f, 0x91, 0x1e, 0x3e, 0x46, 0x93, 0x1f, 0xbe, 0xa1, 0x04, 0x51, 0xbd,
  0x5e, 0x1d, 0xe1, 0xbc, 0x52, 0x4d, 0x7d, 0xbe, 0x90, 0x8b, 0x98, 0xb9,
  0xac, 0x5e, 0xf1, 0xbd, 0x80, 0xef, 0xff, 0xbb, 0xcc, 0x24, 0x99, 0xbd,
  0xfb, 0xce, 0x85, 0xbd, 0x15, 0x70, 0x15, 0xbe, 0x81, 0x54, 0xf3, 0xbc,
  0x73, 0x2c, 0xfc, 0x3d, 0xa0, 0xa7, 0xb1, 0xbd, 0xe8, 0xb1, 0xae, 0xbc,
  0xc4, 0x8b, 0x79, 0x3d, 0x40, 0x5f, 0x6a, 0x3b, 0x9d, 0x74, 0x31, 0xbe,
  0xc5, 0xa4, 0x19, 0xbe, 0xe0, 0x08, 0xfd, 0xbc, 0x54, 0xa8, 0x71, 0x3c,
  0x5e, 0xdb, 0xaa, 0xbd, 0x5e, 0xfe, 0x69, 0xbe, 0x50, 0x39, 0x2c, 0xbd,
  0xe9, 0xb6, 0x18, 0xbe, 0xa7, 0x0f, 0xc2, 0x3d, 0x86, 0xcc, 0xe9, 0xbd,
  0x5f, 0xe8, 0x76, 0x3b, 0xf8, 0xf8, 0x3f, 0x3d, 0x7b, 0xb1, 0xbe, 0x3c,
  0xaf, 0x6a, 0x2d, 0xbe, 0xc0, 0x0c, 0x2b, 0xbe, 0x2a, 0xc9, 0xe1, 0x3d,
  0x71, 0x78, 0x9a, 0xbd, 0x43, 0x8d, 0xe7, 0xbc, 0x73, 0x89, 0x45, 0xbe,
  0x60, 0x05, 0x77, 0xbe, 0xee, 0xab, 0xaa, 0xbd, 0x36, 0x8e, 0xe5, 0xbe,
  0xa1, 0xc8, 0x3b, 0x3e, 0x0e, 0xd2, 0xed, 0xbb, 0x26, 0xe8, 0x1b, 0xbe,
  0x4d, 0x77, 0x41, 0x3e, 0x2d, 0x4c, 0x7f, 0x3d, 0xb7, 0xbe, 0x90, 0xbe,
  0x40, 0x2e, 0xfe, 0xbd, 0xe5, 0x5b, 0x03, 0xbe, 0xb9, 0xa1, 0xbb, 0xbe,
  0x4a, 0x17, 0xda, 0x3d, 0x25, 0xd9, 0x37, 0xbe, 0x97, 0x6e, 0xe1, 0xbd,
  0xe4, 0xe5, 0xdd, 0xbd, 0x2f, 0xe4, 0x62, 0xbe, 0x3e, 0x8f, 0xfc, 0x3d,
  0xe8, 0xb0, 0xec, 0xbd, 0xe6, 0xf6, 0xd8, 0xbe, 0xc3, 0xfa, 0x94, 0x3d,
  0xbf, 0x15, 0x99, 0xbe, 0x9e, 0xc8, 0xb8, 0x3d, 0x6b, 0xdc, 0x09, 0x3e,
  0xa1, 0xb3, 0xb4, 0x3d, 0x4b, 0x41, 0x19, 0x3e, 0x0a, 0x26, 0x8b, 0xbe,
  0x09, 0x5e, 0xa6, 0xbd, 0xad, 0xef, 0xd8, 0x3e, 0x04, 0xac, 0x46, 0x3e,
  0x89, 0xdb, 0x7b, 0xbe, 0x00, 0x09, 0xc5, 0xbc, 0x96, 0xdf, 0x8c, 0xbd,
  0xb2, 0x84, 0x09, 0x3d, 0xc9, 0x71, 0x8f, 0xbe, 0xd0, 0xe2, 0x20, 0xbd,
  0xe0, 0x1a, 0xad, 0x3e, 0xae, 0x16, 0x50, 0xbe, 0x58, 0x4f, 0x83, 0x3c,
  0x63, 0x24, 0xf1, 0xbc, 0x7f, 0xa9, 0x0b, 0x3d, 0x9c, 0xb7, 0x3d, 0x3e,
  0xa6, 0x7f, 0x73, 0xbe, 0x2a, 0xd9, 0x92, 0x3e, 0xd3, 0x1c, 0xcd, 0x3e,
  0xc0, 0x77, 0x9d, 0x3e, 0x3c, 0x45, 0x3f, 0xbe, 0xb1, 0xe7, 0x33, 0x3d,
  0x96, 0x0a, 0x36, 0x3c, 0xee, 0x0d, 0x10, 0xbd, 0x8f, 0xf6, 0xad, 0xbe,
  0x6c, 0xd8, 0x89, 0x3d, 0x29, 0x49, 0xa0, 0x3d, 0x10, 0x1e, 0x20, 0xbe,
  0xf0, 0x31, 0x23, 0x3e, 0xa2, 0xeb, 0x0f, 0xbc, 0x71, 0xdb, 0xcc, 0xbe,
  0x6e, 0x53, 0x79, 0x3e, 0x6c, 0xfb, 0x64, 0xbd, 0x5e, 0x42, 0x2a, 0x3e,
  0xed, 0xb3, 0xaf, 0x3e, 0x45, 0xc9, 0x5b, 0xbd, 0x9e, 0xe6, 0x99, 0x3d,
  0x8c, 0x1b, 0x06, 0x3c, 0x72, 0x38, 0xbb, 0x3d, 0xb8, 0x3f, 0x83, 0xbe,
  0xac, 0xd2, 0x0b, 0xbf, 0x74, 0xbd, 0x31, 0x3f, 0xd8, 0x3e, 0x67, 0x3e,
  0x77, 0xc1, 0x6d, 0xbd, 0xec, 0x53, 0x12, 0x3c, 0xa5, 0x94, 0xe0, 0x3d,
  0x7b, 0x5e, 0xc9, 0xbe, 0x84, 0xc2, 0x14, 0x3e, 0xf8, 0x4f, 0xd2, 0x3d,
  0x6b, 0x7d, 0x8b, 0x3e, 0x83, 0xe1, 0xef, 0x3e, 0x9c, 0xe0, 0x9b, 0xbe,
  0x8e, 0x50, 0x85, 0x3c, 0x8b, 0x88, 0xc2, 0xbc, 0x21, 0xb7, 0xa6, 0x3d,
  0x0f, 0x51, 0x89, 0xbe, 0xce, 0x86, 0x01, 0x3e, 0x7f, 0x0c, 0x5b, 0x3e,
  0x51, 0xc4, 0xe4, 0x3e, 0x58, 0x37, 0x1c, 0xbf, 0x3e, 0xd5, 0x27, 0x3e,
  0x6b, 0x8e, 0xbd, 0xbd, 0x86, 0x6b, 0x36, 0x3c, 0x66, 0xc1, 0xcf, 0xbc,
  0x8d, 0x87, 0x01, 0x3d, 0x60, 0xbd, 0x14, 0x3e, 0x70, 0xc2, 0x27, 0xbe,
  0x72, 0x23, 0x27, 0xbd, 0xd1, 0x69, 0x58, 0x3d, 0x70, 0xf3, 0x7e, 0xbc,
  0xfd, 0x95, 0x4f, 0xbb, 0xe7, 0x98, 0xb0, 0xbe, 0x3c, 0x88, 0xcb, 0xbd,
  0xd0, 0x4c, 0x91, 0xbc, 0x96, 0x78, 0x56, 0x3d, 0x54, 0x14, 0xab, 0xbe,
  0xf7, 0x6e, 0x4f, 0x3d, 0x72, 0xb4, 0xa7, 0x3d, 0x94, 0x02, 0x2e, 0xbe,
  0xdb, 0x6d, 0x07, 0xbe, 0x1e, 0x79, 0x25, 0xbd, 0x74, 0x4a, 0xe3, 0xbd,
  0x8d, 0xbb, 0xb5, 0xbe, 0xf8, 0x53, 0x4f, 0xbb, 0x37, 0x05, 0xc7, 0x3d,
  0xdd, 0x08, 0x31, 0xbc, 0x87, 0x5b, 0xfd, 0x3c, 0x0e, 0xd7, 0x55, 0xbe,
  0x7f, 0x10, 0x99, 0xbe, 0xe2, 0x76, 0xe9, 0x3d, 0x93, 0xe8, 0x9f, 0xbd,
  0x1c, 0xc4, 0x19, 0xbe, 0x23, 0x1f, 0x1e, 0xbf, 0xee, 0x4f, 0xb2, 0xbd,
  0xfa, 0xad, 0xcd, 0xbe, 0x18, 0x08, 0x75, 0xbd, 0x3e, 0x3e, 0xe1, 0xbc,
  0xef, 0x5b, 0xf4, 0xbe, 0xaf, 0x65, 0x02, 0xbf, 0x96, 0x17, 0xd1, 0xbd,
  0xa7, 0x7f, 0x19, 0x3d, 0x5e, 0xa2, 0x45, 0xbe, 0xd7, 0x77, 0xc1, 0x3c,
  0xa8, 0x05, 0x56, 0xbe, 0xb5, 0x05, 0xa7, 0xbe, 0xe1, 0xca, 0x34, 0x3e,
  0x68, 0xab, 0xd1, 0x3c, 0x5d, 0x50, 0x03, 0xbe, 0x9f, 0x07, 0xe2, 0xbe,
  0x6b, 0xa5, 0xe1, 0xbd, 0xdb, 0x67, 0x0a, 0xbe, 0xd9, 0x7b, 0xdc, 0xbd,
  0x0b, 0x62, 0xa8, 0xbc, 0xa0, 0xe0, 0xe6, 0xbe, 0x01, 0xbd, 0x86, 0xbe,
  0x84, 0xe3, 0x5a, 0xbd, 0x9c, 0x3d, 0xb3, 0x3b, 0x2a, 0xe5, 0x53, 0xbe,
  0x8b, 0xa4, 0x8d, 0x3d, 0x31, 0xc7, 0xb5, 0xbd, 0x95, 0xe5, 0xa5, 0xbd,
  0xa7, 0xbb, 0xb9, 0xbc, 0x6a, 0xd7, 0x2d, 0x3e, 0x55, 0xe9, 0xb3, 0xbe,
  0x00, 0x30, 0xaf, 0xbe, 0xf9, 0x6e, 0xcf, 0x3c, 0xa7, 0x80, 0xe1, 0xbd,
  0x54, 0x42, 0x21, 0xbe, 0x94, 0x94, 0xdd, 0xbc, 0x9c, 0xd8, 0x75, 0xbe,
  0x9f, 0x91, 0xb5, 0xbe, 0x65, 0x3a, 0xde, 0xbd, 0x8e, 0xc4, 0xa8, 0x3d,
  0x30, 0xf7, 0x8d, 0xbd, 0x59, 0x2c, 0x84, 0x3d, 0xf3, 0x1f, 0xb5, 0xbe,
  0xef, 0x83, 0x3c, 0xbe, 0xe2, 0xe1, 0x9f, 0x3e, 0x5b, 0x3e, 0x26, 0x3d,
  0x62, 0xb3, 0x95, 0x3c, 0x4e, 0xf4, 0xb1, 0xbd, 0xfd, 0x6e, 0xdb, 0x3d,
  0xe7, 0x98, 0x83, 0xbe, 0x37, 0xbd, 0x4d, 0xbe, 0xcf, 0x72, 0x5a, 0x3c,
  0x04, 0xb3, 0x55, 0xbe, 0xda, 0x5e, 0x83, 0xbb, 0xac, 0x6c, 0xd4, 0x3d,
  0x6f, 0x51, 0xdc, 0x3c, 0xc2, 0x11, 0x54, 0xbd, 0xa4, 0xeb, 0x02, 0xbc,
  0x9b, 0x8d, 0x81, 0xbe, 0xb7, 0x5c, 0x56, 0xbe, 0x86, 0xda, 0x65, 0x3b,
  0x09, 0x1a, 0x69, 0x3d, 0xf8, 0x63, 0xb9, 0x3d, 0xe1, 0x31, 0xd7, 0xbd,
  0x3e, 0x18, 0xd7, 0xbd, 0xe3, 0xb5, 0x4e, 0xbe, 0xb8, 0x05, 0x9b, 0xbd,
  0x38, 0x51, 0x8d, 0xbc, 0x8c, 0xc4, 0x7b, 0x3c, 0x25, 0x02, 0x88, 0xbe,
  0x2f, 0x5b, 0x40, 0x3e, 0x36, 0x9c, 0x37, 0x3d, 0x21, 0xb7, 0x97, 0xbd,
  0x57, 0x86, 0xbb, 0xbd, 0x79, 0x9b, 0xef, 0xbe, 0x15, 0x19, 0x67, 0xbe,
  0xa9, 0xcb, 0x67, 0x3e, 0x33, 0x11, 0xc5, 0x3d, 0xf8, 0x7d, 0x66, 0xbd,
  0x1a, 0x5a, 0x8f, 0xbe, 0xfc, 0x16, 0x7b, 0x3d, 0x4d, 0x8b, 0xf5, 0x3c,
  0xe7, 0xf5, 0x47, 0xbe, 0x37, 0x92, 0x1c, 0x3d, 0x2d, 0x49, 0x92, 0xbe,
  0xd8, 0xa3, 0x77, 0xbd, 0x50, 0x93, 0x54, 0x3d, 0x5f, 0xf2, 0x2e, 0x3d,
  0x85, 0xd5, 0x0d, 0xbd, 0x15, 0x21, 0x2e, 0xbd, 0x45, 0x09, 0x4e, 0xbe,
  0xc6, 0xef, 0xd6, 0xbe, 0x69, 0x1d, 0x78, 0x3e, 0xe8, 0xb3, 0x1a, 0xbd,
  0x17, 0x82, 0xc2, 0x3d, 0x7d, 0xa9, 0x70, 0xbd, 0x14, 0x2d, 0x80, 0x3d,
  0x87, 0xe5, 0x70, 0x3c, 0x9b, 0x9a, 0xca, 0xbd, 0x9e, 0xa2, 0x2f, 0x3d,
  0x64, 0x06, 0x2c, 0x3d, 0x7d, 0x69, 0x4d, 0xbe, 0x49, 0xce, 0xec, 0xbd,
  0xca, 0x05, 0xeb, 0xbc, 0xfe, 0x89, 0x1f, 0xbe, 0xd9, 0xc4, 0x0a, 0x3b,
  0x9f, 0xb4, 0x97, 0xbd, 0x81, 0xe3, 0xa9, 0xbd, 0x1a, 0x4c, 0x70, 0xbd,
  0x4d, 0x20, 0xe6, 0x3d, 0xdf, 0x35, 0xf9, 0xbe, 0x2f, 0xe5, 0xf5, 0xbe,
  0x98, 0x35, 0x43, 0xbe, 0xbb, 0xe2, 0x2d, 0xbf, 0x35, 0xea, 0xbf, 0xbe,
  0x7b, 0xd7, 0x50, 0x3b, 0x71, 0x1e, 0x85, 0xbd, 0x20, 0x8a, 0x8e, 0xbe,
  0x15, 0x76, 0xeb, 0xbe, 0x83, 0x41, 0xbd, 0xbc, 0x89, 0x84, 0x43, 0x3c,
  0x00, 0x59, 0x4a, 0x3d, 0xc9, 0x6e, 0xa6, 0xbe, 0x6e, 0x72, 0x04, 0xbf,
  0x06, 0xad, 0x74, 0x3c, 0xbf, 0x19, 0x02, 0xbe, 0x37, 0x7a, 0xc2, 0xbe,
  0xf3, 0x70, 0x01, 0xbf, 0x68, 0x79, 0xb0, 0x3d, 0xd1, 0x85, 0xe0, 0xbe,
  0x60, 0x92, 0x22, 0xbe, 0x66, 0xfc, 0x6a, 0x3d, 0x67, 0xcd, 0x84, 0xbe,
  0x51, 0x7a, 0xc1, 0xbe, 0xb5, 0xeb, 0xa8, 0x3d, 0xdd, 0x21, 0xcb, 0xbd,
  0x0c, 0x32, 0x12, 0xbd, 0x99, 0xcb, 0x2b, 0x3c, 0xf0, 0x3d, 0xc6, 0xbe,
  0x56, 0x15, 0xf8, 0xbe, 0x8a, 0x42, 0x41, 0x3d, 0xdd, 0xfd, 0x7b, 0x3c,
  0x4d, 0x4f, 0x14, 0xbf, 0x74, 0x05, 0xdc, 0xbe, 0x42, 0x7d, 0xb5, 0xbd,
  0x5b, 0x44, 0xb5, 0xba, 0x3b, 0x1a, 0xdf, 0xbd, 0xab, 0x3f, 0xb7, 0x3d,
  0x33, 0xc1, 0x56, 0xbe, 0x77, 0xff, 0x79, 0xbd, 0xb7, 0x92, 0x16, 0xbe,
  0x36, 0xc7, 0xe4, 0xbd, 0xe3, 0x03, 0x80, 0x3c, 0x02, 0x23, 0x8f, 0x3d,
  0xcf, 0xbd, 0x96, 0xbe, 0x1d, 0xf1, 0x07, 0xbe, 0x69, 0xe6, 0xa1, 0xbd,
  0x9c, 0xd4, 0xc6, 0x3d, 0x12, 0xc8, 0x9b, 0xbe, 0x81, 0x72, 0xb0, 0xbe,
  0x77, 0x97, 0x42, 0xbe, 0x90, 0x2e, 0x51, 0x3e, 0x08, 0xd2, 0xd4, 0x3c,
  0x00, 0x3f, 0x03, 0x3e, 0x06, 0x45, 0x63, 0xbe, 0x43, 0xc6, 0xd0, 0x3d,
  0x05, 0x44, 0xe6, 0xbd, 0x7a, 0x91, 0xaa, 0xbd, 0xd4, 0x9a, 0x03, 0xbe,
  0x0b, 0x5c, 0x2a, 0xbe, 0xf8, 0xd7, 0xb7, 0xbd, 0x7d, 0x47, 0x55, 0x3d,
  0x68, 0xa3, 0x4d, 0x3d, 0xee, 0xf8, 0x01, 0x3e, 0x45, 0x05, 0x1c, 0x3e,
  0x35, 0x76, 0x09, 0xbe, 0xef, 0x9f, 0x5f, 0xbd, 0x08, 0xa5, 0x36, 0x3e,
  0x2e, 0x37, 0x9b, 0xba, 0xd9, 0x4a, 0xf5, 0x3c, 0x90, 0xbd, 0x0f, 0xbe,
  0xe6, 0x91, 0x6a, 0x3e, 0x3b, 0xe4, 0x13, 0x3d, 0xef, 0x18, 0xf3, 0xbd,
  0x79, 0x24, 0xd1, 0xbd, 0x6a, 0xac, 0x34, 0xbe, 0xca, 0x1c, 0xcf, 0xbb,
  0xad, 0x0a, 0xd9, 0x3d, 0x63, 0x7e, 0x0c, 0x3e, 0x45, 0xb2, 0xbd, 0x3d,
  0x0d, 0x32, 0x36, 0x3d, 0x0b, 0xad, 0x87, 0x3d, 0x96, 0x3c, 0xc1, 0x3d,
  0x89, 0xb6, 0xa5, 0x3d, 0xce, 0xae, 0x24, 0x3e, 0x60, 0x4f, 0xcb, 0xbd,
  0x49, 0x18, 0x02, 0x3e, 0x11, 0x77, 0x1e, 0x3e, 0xf0, 0xc6, 0x4b, 0xbc,
  0xcf, 0xd4, 0x6c, 0xbd, 0xbf, 0x56, 0x76, 0xbd, 0x65, 0x9d, 0x70, 0xbe,
  0x78, 0x2c, 0x8f, 0x3d, 0xf5, 0x0d, 0x91, 0x3e, 0x32, 0xd7, 0x41, 0xbd,
  0x4b, 0xe5, 0x5c, 0xbe, 0x9d, 0xaa, 0x52, 0x3e, 0x6d, 0xe6, 0x2c, 0x3e,
  0x64, 0xca, 0xe1, 0xbd, 0x31, 0x36, 0x04, 0x3e, 0xff, 0x2c, 0x78, 0x3d,
  0x9a, 0xd9, 0x49, 0xbd, 0x2e, 0x8a, 0xc6, 0xbc, 0xe5, 0xe6, 0x97, 0x3c,
  0x27, 0xd6, 0xac, 0x3c, 0x45, 0x48, 0xa1, 0xbd, 0xd1, 0x86, 0xf9, 0xbc,
  0xce, 0xe6, 0x2a, 0xbe, 0xa7, 0xf4, 0xa7, 0x3d, 0x71, 0x28, 0xc1, 0x3d,
  0xe4, 0x01, 0x94, 0xbc, 0x4f, 0xcd, 0x82, 0xbd, 0xe8, 0xb4, 0x81, 0x3e,
  0xfa, 0xed, 0x39, 0x3e, 0x7e, 0xaa, 0xf0, 0x3d, 0x17, 0x11, 0x93, 0x3e,
  0x3a, 0xc0, 0xaa, 0x3d, 0xdb, 0xf7, 0xe1, 0xbc, 0xa2, 0x3f, 0xd4, 0xbd,
  0x71, 0x39, 0x8b, 0x3c, 0x38, 0x0e, 0x67, 0xbd, 0x0a, 0xca, 0xbd, 0xbd,
  0x05, 0xb6, 0x60, 0xbd, 0x8f, 0x83, 0xa9, 0xbe, 0xf7, 0x05, 0xc3, 0x3d,
  0x0a, 0x8a, 0x97, 0x3e, 0xf9, 0x93, 0x9c, 0xbe, 0xe9, 0x31, 0x4f, 0x3d,
  0xa4, 0x90, 0x62, 0x3e, 0x3a, 0x23, 0x2d, 0x3e, 0xd7, 0x6a, 0x15, 0x3e,
  0xcd, 0x43, 0x5d, 0x3e, 0x62, 0xca, 0x0d, 0xbe, 0x41, 0x84, 0x29, 0xbd,
  0x5c, 0x8a, 0xb8, 0xbe, 0x03, 0xd1, 0xcb, 0x3b, 0x10, 0xb1, 0x39, 0xbe,
  0xc8, 0xe0, 0x24, 0xbd, 0xcd, 0x74, 0xc1, 0xbd, 0xfa, 0xb1, 0xf4, 0xbd,
  0x24, 0xc6, 0xbe, 0x3d, 0xa2, 0x0b, 0x80, 0x3e, 0xca, 0xb2, 0x1f, 0xbe,
  0xcd, 0x46, 0xea, 0xbd, 0x42, 0x2c, 0x02, 0x3e, 0xe0, 0xd7, 0x0b, 0x3e,
  0x89, 0xa2, 0x01, 0xbc, 0x46, 0xad, 0xa8, 0x3e, 0x61, 0xb0, 0x46, 0x3d,
  0x8d, 0x72, 0x4d, 0xbe, 0x70, 0x17, 0x2c, 0xbe, 0xcc, 0x1d, 0x8a, 0x3d,
  0x26, 0x75, 0x16, 0x3e, 0xbf, 0xa5, 0x9e, 0x3d, 0x93, 0xf5, 0xeb, 0xbd,
  0x60, 0xe6, 0x48, 0xbe, 0x06, 0x25, 0x38, 0x3e, 0x75, 0xd8, 0xab, 0x3e,
  0x10, 0x95, 0xa6, 0x3e, 0xa7, 0x62, 0xf0, 0x3d, 0xf5, 0x00, 0x35, 0x3e,
  0x85, 0x37, 0x14, 0x3e, 0x08, 0xde, 0x18, 0x3d, 0xd5, 0x82, 0xe5, 0x3e,
  0x2f, 0x46, 0xca, 0x3c, 0xa0, 0x75, 0x80, 0xbe, 0x76, 0x0e, 0x04, 0xbd,
  0x1c, 0x2d, 0x3f, 0xbd, 0xdc, 0x20, 0x1b, 0xbc, 0xb3, 0x1a, 0xa4, 0x3c,
  0x26, 0x53, 0xef, 0xbc, 0x21, 0x2a, 0xb5, 0xbe, 0x42, 0x43, 0x27, 0xbd,
  0x39, 0x36, 0x9a, 0x3e, 0xfe, 0x3f, 0x02, 0x3d, 0x76, 0x3e, 0x12, 0x3e,
  0xe0, 0x65, 0x40, 0x3e, 0xb5, 0x5a, 0x09, 0x3e, 0xbc, 0x76, 0x73, 0xbd,
  0x57, 0xdd, 0xba, 0x3e, 0x58, 0x44, 0xf8, 0x3d, 0x9a, 0x26, 0x87, 0xbd,
  0x6b, 0xd8, 0x63, 0xbe, 0x48, 0xac, 0x60, 0xbe, 0x71, 0x80, 0xc3, 0xbd,
  0x6d, 0x0c, 0xcf, 0x3d, 0x94, 0xf0, 0x33, 0x3c, 0x57, 0x59, 0x38, 0xbe,
  0x37, 0x85, 0x70, 0xbb, 0x54, 0x61, 0x19, 0x3e, 0xb6, 0xee, 0x96, 0x3c,
  0xeb, 0xa8, 0xcc, 0x3d, 0xaa, 0x55, 0x59, 0x3e, 0x0f, 0x86, 0x9d, 0x3e,
  0x8e, 0x95, 0x6e, 0x3d, 0xd5, 0x8d, 0x3f, 0x3d, 0xfa, 0x9c, 0x33, 0x3e,
  0x77, 0xc9, 0xb9, 0xbb, 0xdc, 0xf2, 0x52, 0xbe, 0xa1, 0x0a, 0x29, 0x3e,
  0x3d, 0xd3, 0xb3, 0xbd, 0x0d, 0x7c, 0x44, 0xbc, 0x3f, 0x1d, 0xdd, 0x3c,
  0x43, 0xe8, 0xde, 0xbe, 0xd4, 0xc1, 0x5c, 0xbf, 0x82, 0x1c, 0x9c, 0xbe,
  0x0b, 0x80, 0x41, 0xbe, 0xd9, 0x4f, 0xe9, 0x3d, 0x93, 0xac, 0x43, 0xbe,
  0x6c, 0xba, 0x63, 0xbe, 0x1c, 0x6a, 0xd5, 0x3d, 0x0c, 0x54, 0x58, 0xbe,
  0x0e, 0xbc, 0x7a, 0xbe, 0x21, 0x2e, 0x35, 0x3d, 0xae, 0xa9, 0xf4, 0xbd,
  0x8c, 0x5c, 0x16, 0xbe, 0x8a, 0x3c, 0xb1, 0xbd, 0xe5, 0xf1, 0x66, 0xbb,
  0x85, 0x84, 0x7b, 0x3d, 0x56, 0x8c, 0x2e, 0x3d, 0xcc, 0x77, 0xc5, 0x3d,
  0xe5, 0xe6, 0x25, 0x3e, 0x9f, 0xf4, 0x25, 0xbe, 0x0a, 0x34, 0x0f, 0x3e,
  0x36, 0x53, 0xf7, 0x3c, 0x8a, 0x21, 0x0c, 0xbd, 0x95, 0x9f, 0xdd, 0x3d,
  0x42, 0x04, 0xa0, 0xbe, 0x41, 0x75, 0x1a, 0x3e, 0x0a, 0xca, 0xdf, 0x3d,
  0xb1, 0x00, 0xc3, 0x3e, 0x9b, 0x34, 0x3f, 0xbd, 0x97, 0xf9, 0x3a, 0x3e,
  0xd4, 0xf6, 0xcc, 0xbc, 0x59, 0xcc, 0x20, 0x3b, 0xdb, 0x03, 0x9b, 0xbd,
  0x7e, 0x26, 0x30, 0xbf, 0x5b, 0x7e, 0xe9, 0x3c, 0x49, 0x19, 0x66, 0xbe,
  0xc2, 0xaa, 0x38, 0x3d, 0xfc, 0x85, 0x66, 0xbe, 0x16, 0xb4, 0x05, 0xbf,
  0xe1, 0x7e, 0xad, 0xbd, 0x3b, 0x45, 0x60, 0x3d, 0x6b, 0x57, 0x0b, 0x3e,
  0xcf, 0x20, 0x31, 0x3d, 0x05, 0xeb, 0x64, 0x3e, 0xdf, 0xd4, 0xc1, 0xbe,
  0xc7, 0xc1, 0x3d, 0x3e, 0x96, 0x11, 0x37, 0xbe, 0x88, 0xf8, 0x7d, 0xbd,
  0x5e, 0x69, 0xac, 0xbd, 0x3c, 0x39, 0xc7, 0xbd, 0x70, 0x3a, 0xd3, 0x3d,
  0xf4, 0x23, 0x98, 0xbe, 0x16, 0x3d, 0x22, 0xbd, 0x76, 0xb0, 0x91, 0x3e,
  0x81, 0xd3, 0xd3, 0xbd, 0x4d, 0xac, 0xfb, 0x3d, 0xe0, 0x85, 0x90, 0x3c,
  0xd9, 0x74, 0x15, 0x3e, 0x1d, 0x26, 0xd3, 0xbc, 0x65, 0xea, 0x8d, 0x3d,
  0xf3, 0xcb, 0x6e, 0xbe, 0xae, 0x15, 0x55, 0x3d, 0x2d, 0xbf, 0x87, 0xbe,
  0x73, 0xdc, 0xc2, 0xbd, 0x96, 0x2d, 0xdf, 0xbc, 0x3a, 0xc2, 0xa8, 0x3d,
  0x97, 0x2e, 0xa3, 0x3d, 0x42, 0x94, 0xfc, 0xbd, 0x61, 0x6e, 0x1c, 0x3e,
  0xed, 0x19, 0xcf, 0x3e, 0xb5, 0x14, 0x57, 0xbe, 0xc7, 0x82, 0x73, 0xbd,
  0xa1, 0x39, 0xe2, 0xbe, 0x82, 0xfa, 0x14, 0xbe, 0x20, 0xef, 0x47, 0xbd,
  0x7c, 0x3d, 0xaa, 0x3d, 0xb7, 0x0a, 0x25, 0xbe, 0xbc, 0xa1, 0x06, 0x3e,
  0xa3, 0x23, 0x51, 0xbe, 0x27, 0xd2, 0xe6, 0xbc, 0xc6, 0x01, 0x17, 0x3d,
  0x53, 0xa0, 0x78, 0xbd, 0x18, 0x13, 0xfa, 0xbc, 0xd4, 0xa7, 0xbb, 0xbe,
  0x9f, 0x00, 0xd5, 0x3d, 0xb8, 0x14, 0xef, 0x3c, 0x83, 0xc2, 0xb6, 0xbe,
  0x49, 0x51, 0x14, 0x3e, 0xfa, 0x3f, 0xe3, 0xbe, 0x88, 0xe2, 0xe6, 0xbd,
  0xec, 0x29, 0xd6, 0xbc, 0x8a, 0x6f, 0x50, 0x3d, 0x8e, 0x5e, 0x17, 0xbe,
  0xef, 0x55, 0x22, 0x3d, 0x61, 0x40, 0x3d, 0xbe, 0xe2, 0xa0, 0x97, 0x3c,
  0xa1, 0xc1, 0xd4, 0xbd, 0xc8, 0x91, 0x39, 0xbe, 0x88, 0x87, 0x16, 0x3e,
  0x05, 0x39, 0x94, 0xbe, 0xdd, 0x81, 0xe7, 0x3d, 0xa6, 0xd9, 0x23, 0xbc,
  0xf9, 0xf4, 0x84, 0xbe, 0x49, 0xbf, 0x09, 0x3e, 0x96, 0x1c, 0x82, 0xbe,
  0x1a, 0x04, 0x18, 0x3e, 0x86, 0x80, 0xb9, 0x3b, 0x05, 0xa1, 0x97, 0x3d,
  0x28, 0xca, 0x85, 0xbe, 0x64, 0x1f, 0x82, 0x3e, 0x97, 0x28, 0xc9, 0xbe,
  0xe3, 0x78, 0xa4, 0x3d, 0x70, 0x8b, 0x6a, 0xbc, 0x3e, 0x79, 0x8c, 0xbc,
  0x6a, 0x09, 0xad, 0x3c, 0x2c, 0xa9, 0x86, 0xbe, 0x49, 0x11, 0xfa, 0x3d,
  0xa0, 0x7f, 0x86, 0x3c, 0xde, 0xa6, 0x98, 0xbd, 0x9b, 0x1d, 0x2c, 0xbd,
  0xb9, 0x14, 0x96, 0xbe, 0x5b, 0xb6, 0x1c, 0xbd, 0x7f, 0xc0, 0x80, 0xbc,
  0x70, 0x57, 0xf2, 0x3d, 0x93, 0x83, 0x65, 0xbd, 0x69, 0x50, 0x70, 0x3e,
  0x15, 0xd6, 0xf6, 0x3d, 0xbc, 0x13, 0x4a, 0xbd, 0xfa, 0x01, 0x9e, 0x39,
  0x7e, 0x49, 0x30, 0xbe, 0xbc, 0xe2, 0x55, 0x3e, 0x32, 0x80, 0xe4, 0xbd,
  0xad, 0xd0, 0x83, 0x3e, 0xc0, 0x0b, 0x09, 0x3e, 0x5e, 0xcd, 0x16, 0xbe,
  0x04, 0x75, 0xcd, 0xbd, 0xb9, 0x23, 0x9c, 0xbd, 0x46, 0x79, 0x94, 0xbd,
  0x4d, 0xa1, 0x13, 0x3c, 0x66, 0x55, 0x80, 0x3d, 0x51, 0x45, 0x5f, 0xbd,
  0xe0, 0x45, 0x99, 0x3e, 0x5c, 0x81, 0x9f, 0x3c, 0xdf, 0x52, 0xa9, 0xbc,
  0xf1, 0x51, 0x05, 0xbb, 0xdb, 0x99, 0x14, 0xbe, 0x15, 0x45, 0xfd, 0x3c,
  0xf7, 0x81, 0xbe, 0xbd, 0x75, 0xa2, 0x95, 0x3e, 0xc8, 0xe8, 0x9a, 0xbc,
  0xc3, 0x76, 0x54, 0xbc, 0xf4, 0x09, 0x88, 0x3d, 0x8c, 0x63, 0xd8, 0xbd,
  0x8d, 0xb5, 0x01, 0xbe, 0x08, 0x4b, 0x96, 0xbd, 0x9c, 0x7c, 0x30, 0x3e,
  0xfb, 0x7f, 0xd0, 0xbc, 0xaf, 0x81, 0x90, 0x3e, 0xd0, 0xe8, 0x46, 0xbe,
  0x54, 0x5f, 0x97, 0x3d, 0xcb, 0xe0, 0x05, 0xbe, 0x7d, 0xa2, 0xf2, 0xbd,
  0x8a, 0x76, 0x15, 0xbe, 0xfd, 0x1a, 0x4a, 0x3d, 0x4c, 0x90, 0x85, 0x3c,
  0x4a, 0xd1, 0xa7, 0x3e, 0xce, 0x93, 0x7e, 0xbe, 0x5b, 0xe7, 0x78, 0xbd,
  0xa9, 0xb4, 0xc9, 0xbe, 0x2a, 0xf5, 0xee, 0xbc, 0x63, 0xb1, 0x98, 0xbd,
  0x5c, 0x16, 0x82, 0xbd, 0x22, 0xb0, 0xfc, 0x3d, 0xfe, 0x87, 0x87, 0x3e,
  0x56, 0x49, 0x60, 0xbe, 0x4b, 0xa5, 0x26, 0xbe, 0x55, 0x8e, 0x31, 0xbd,
  0x94, 0xb8, 0x0c, 0xbe, 0xab, 0x4f, 0x5b, 0x3c, 0x5a, 0xa0, 0x8f, 0x3e,
  0xa3, 0x28, 0x13, 0x3d, 0xaf, 0xfb, 0x5c, 0x3e, 0x51, 0xef, 0x25, 0xbe,
  0x76, 0xe9, 0xa9, 0x3c, 0x32, 0x80, 0x11, 0xbf, 0xdd, 0xd7, 0x10, 0x3d,
  0x66, 0x60, 0xc6, 0x3c, 0xb2, 0xb3, 0x95, 0x3c, 0x67, 0x62, 0x1e, 0x3e,
  0x0b, 0x52, 0x8b, 0x3e, 0xad, 0x99, 0x8f, 0xbe, 0xd2, 0x0b, 0xae, 0xbd,
  0x43, 0x53, 0x45, 0xbd, 0x89, 0x5a, 0x92, 0xbe, 0x4d, 0x37, 0x0f, 0xbe,
  0x7d, 0xd4, 0x5b, 0x3e, 0x11, 0x97, 0x9f, 0x3e, 0xe8, 0x75, 0xa4, 0x3e,
  0xd6, 0xf7, 0x5c, 0xbe, 0x28, 0xeb, 0x84, 0xbd, 0x46, 0x54, 0x0a, 0xbf,
  0x26, 0x8f, 0x8c, 0x3d, 0x24, 0x3f, 0xe1, 0x3d, 0x45, 0x8c, 0x9e, 0xbd,
  0x98, 0x9f, 0x45, 0x3e, 0xcd, 0x68, 0xb5, 0x3e, 0x6e, 0xb5, 0x3a, 0xbe,
  0x06, 0x9d, 0x98, 0x3d, 0x44, 0x92, 0x83, 0xbd, 0x7e, 0xf7, 0xb6, 0xbe,
  0x4e, 0xc2, 0x2b, 0xbd, 0x3a, 0x4f, 0x28, 0x3f, 0x3e, 0x3d, 0x3b, 0x3e,
  0x53, 0xc1, 0x0f, 0x3e, 0x6d, 0xe1, 0xd2, 0xbc, 0xd8, 0x42, 0x47, 0x3d,
  0x94, 0x3c, 0xfd, 0xbe, 0x66, 0x57, 0xca, 0x3d, 0xf7, 0xcb, 0xe8, 0x3d,
  0x92, 0x43, 0xa4, 0xbc, 0x47, 0x9a, 0xed, 0x3d, 0xa7, 0xef, 0x18, 0x3e,
  0x3f, 0xbc, 0x97, 0x3c, 0x79, 0x62, 0x18, 0x3e, 0x17, 0xc2, 0x6a, 0xbe,
  0x39, 0x42, 0x76, 0xbe, 0x41, 0xce, 0x65, 0xbe, 0x3f, 0x05, 0x2a, 0x3e,
  0xcf, 0xde, 0x89, 0x3e, 0x53, 0x75, 0xae, 0x3e, 0x01, 0xd2, 0xf8, 0x3d,
  0x3b, 0x82, 0x61, 0xbd, 0x24, 0xa3, 0xe4, 0x3d, 0x30, 0xa8, 0x50, 0x3d,
  0xde, 0x40, 0x6f, 0x3e, 0xd1, 0xae, 0xeb, 0xbc, 0xe6, 0x2f, 0xcc, 0x3e,
  0x0c, 0xa8, 0x96, 0x3e, 0xa3, 0xf0, 0x54, 0x3d, 0xad, 0x27, 0x93, 0x3e,
  0xd9, 0x7a, 0x8b, 0xbd, 0x29, 0x18, 0x01, 0xbe, 0xb0, 0x96, 0xf4, 0xbd,
  0x78, 0xc3, 0x1c, 0x3e, 0x4a, 0x13, 0x7c, 0x3e, 0xb5, 0x90, 0xa5, 0x3e,
  0xe8, 0xf3, 0x0b, 0x3f, 0xd2, 0x2a, 0xd6, 0x3d, 0xa7, 0xcb, 0xb7, 0x3e,
  0x45, 0x22, 0xb1, 0x3d, 0xe6, 0xb8, 0x44, 0xbe, 0x14, 0x13, 0xbd, 0x3e,
  0xdd, 0x13, 0x9f, 0x3e, 0x37, 0xf7, 0xa9, 0x3d, 0x01, 0x14, 0xfb, 0x3c,
  0x80, 0x3a, 0x39, 0xbe, 0xa5, 0x7e, 0x29, 0x3e, 0xa1, 0x19, 0x1a, 0xbe,
  0xeb, 0x99, 0x98, 0xbe, 0x51, 0x06, 0x91, 0x3e, 0x8f, 0xc3, 0x3c, 0xbd,
  0x29, 0x02, 0xb2, 0x3d, 0xdf, 0x66, 0x76, 0xbe, 0xca, 0x6b, 0x12, 0x3d,
  0xbf, 0xf3, 0x46, 0xbe, 0xe3, 0x15, 0x1a, 0x3e, 0x06, 0x3a, 0x8e, 0xbe,
  0xc4, 0x59, 0xfe, 0x3d, 0x07, 0x29, 0x03, 0x3e, 0xa7, 0xf2, 0xbb, 0xba,
  0xcd, 0xda, 0x15, 0xbe, 0x2a, 0xc7, 0xae, 0xbe, 0xf5, 0xc8, 0x61, 0x3e,
  0x52, 0xc0, 0x23, 0xbd, 0x7d, 0xf4, 0x06, 0x3c, 0x19, 0xc7, 0x4f, 0x3e,
  0xd6, 0x1f, 0x1e, 0x3e, 0xa6, 0xf3, 0x0c, 0xbe, 0x63, 0x3a, 0x6d, 0xbe,
  0x55, 0xc4, 0xcf, 0xbd, 0xe4, 0xb8, 0x5d, 0xbd, 0x58, 0x24, 0xf4, 0x3c,
  0x79, 0x1e, 0xac, 0xbe, 0xc9, 0xc0, 0xa1, 0x3c, 0xc7, 0x12, 0xd6, 0x3d,
  0xca, 0xe5, 0x9f, 0xbd, 0xbc, 0x01, 0x95, 0xbe, 0x7e, 0x24, 0x01, 0xbe,
  0x13, 0xe6, 0x92, 0x3c, 0x1c, 0xab, 0xff, 0x3b, 0xf0, 0x5a, 0x77, 0x3e,
  0x3a, 0x02, 0xb4, 0xbc, 0x10, 0x8d, 0x2f, 0xbd, 0x14, 0x8b, 0xb6, 0xbd,
  0x5e, 0x33, 0xa7, 0xbe, 0x73, 0xef, 0x39, 0x3e, 0x4b, 0x31, 0x41, 0x3e,
  0xc5, 0x64, 0x07, 0xbd, 0xc7, 0x7d, 0xa9, 0xbe, 0x6f, 0x90, 0xe9, 0x3d,
  0x84, 0x74, 0x0e, 0x3e, 0x02, 0xea, 0xc1, 0xbd, 0x22, 0xa1, 0x0e, 0xbe,
  0x3b, 0x36, 0x51, 0xbe, 0xc6, 0x7d, 0x15, 0x3a, 0x87, 0x9a, 0x1a, 0x3d,
  0xd8, 0xad, 0xa2, 0x3e, 0xd8, 0x55, 0x92, 0xbd, 0x7d, 0xef, 0xd8, 0xbd,
  0x4e, 0xd2, 0x85, 0xbd, 0x7d, 0xa0, 0xac, 0xbd, 0x0d, 0x5a, 0x39, 0xbe,
  0x70, 0xd7, 0xa6, 0x3e, 0x45, 0xc9, 0xc4, 0xbb, 0x28, 0xa9, 0x1f, 0xbe,
  0x77, 0x5c, 0x4c, 0xbe, 0xca, 0x78, 0x16, 0xbd, 0x05, 0x4a, 0x6f, 0xbc,
  0xeb, 0xc7, 0x00, 0x3d, 0x4c, 0xe4, 0x93, 0xbe, 0x57, 0x2a, 0x86, 0xbe,
  0xd0, 0xb2, 0x68, 0x3e, 0xc6, 0xb9, 0x8c, 0x3d, 0x84, 0xbe, 0x28, 0x3e,
  0xfe, 0xe4, 0x06, 0x3d, 0xeb, 0xcb, 0xa3, 0x3d, 0xd1, 0xcc, 0xc9, 0xbb,
  0xff, 0xe3, 0x47, 0xbe, 0x1b, 0xbf, 0xc2, 0x3e, 0x55, 0x65, 0xca, 0x3d,
  0xf9, 0x70, 0x45, 0x3e, 0x57, 0x1c, 0x08, 0xbd, 0x5e, 0xf8, 0xe2, 0x3d,
  0x98, 0x1d, 0x89, 0xbe, 0x76, 0x2a, 0x00, 0x3e, 0x7a, 0x63, 0xe9, 0xbd,
  0xaf, 0xad, 0x77, 0xbe, 0x7c, 0x14, 0xef, 0x3d, 0xe2, 0x5d, 0x1c, 0x3e,
  0xdb, 0x94, 0x1e, 0x3e, 0x3c, 0x28, 0x99, 0x3e, 0xf7, 0x5b, 0x7f, 0x3e,
  0xa2, 0x04, 0x01, 0xbe, 0xcf, 0x0f, 0x0e, 0xbe, 0xb8, 0x16, 0x27, 0x3e,
  0x21, 0x1d, 0xee, 0xbc, 0x65, 0x46, 0x4b, 0x3e, 0x4e, 0xe2, 0x55, 0xbe,
  0x74, 0x1d, 0x38, 0x3d, 0x49, 0x0d, 0xa4, 0xbb, 0xe5, 0x03, 0x4f, 0x3e,
  0xa3, 0xdb, 0xc5, 0xbd, 0xf3, 0xf6, 0x94, 0xbe, 0xae, 0x42, 0x2a, 0xbe,
  0x9c, 0x48, 0x49, 0xbc, 0xa2, 0x33, 0x99, 0x3e, 0x3b, 0xd5, 0x39, 0xbd,
  0xf3, 0xac, 0x2d, 0x3c, 0xc6, 0xb0, 0xe1, 0xbd, 0x29, 0xaf, 0x51, 0x3d,
  0x98, 0xa7, 0xb6, 0xbd, 0x1a, 0x6f, 0x05, 0x3d, 0x5b, 0x0b, 0xae, 0x3e,
  0x9c, 0xac, 0xa1, 0x3d, 0x01, 0x7a, 0xac, 0x3d, 0x36, 0x65, 0xb5, 0xbb,
  0xa3, 0x3e, 0x88, 0xbc, 0xc9, 0x46, 0x03, 0x3e, 0x38, 0x48, 0x22, 0xbe,
  0x28, 0xd5, 0x2b, 0xbe, 0x35, 0xb3, 0x2d, 0xbd, 0xf3, 0xd0, 0x05, 0xbe,
  0x25, 0x85, 0x3f, 0x3e, 0xdc, 0xf9, 0x9f, 0xbd, 0x54, 0x9a, 0xa0, 0xbe,
  0xbd, 0x3b, 0x02, 0xbe, 0x1f, 0x7c, 0xaa, 0x3d, 0x6e, 0x59, 0x8d, 0x3d,
  0x05, 0x2b, 0x3e, 0x3e, 0x4e, 0x29, 0x32, 0xbe, 0x9e, 0x1e, 0x24, 0x3e,
  0xe2, 0x95, 0x04, 0xbd, 0xb0, 0x0c, 0x30, 0xbe, 0x1e, 0x7d, 0x54, 0xbb,
  0x86, 0x3f, 0x39, 0x3d, 0x41, 0xa1, 0xa6, 0xbe, 0x00, 0x97, 0x17, 0x3e,
  0x36, 0x48, 0x24, 0xbe, 0x07, 0x0e, 0x80, 0xbd, 0xf7, 0x17, 0x7e, 0xbe,
  0xb6, 0x84, 0x7a, 0x3d, 0x8d, 0x3b, 0x24, 0xbd, 0x42, 0xa0, 0xab, 0x3d,
  0x8f, 0x97, 0x90, 0xbc, 0x71, 0x45, 0x41, 0xbe, 0x44, 0xf4, 0x5f, 0x3e,
  0xd6, 0xae, 0x9e, 0x3e, 0xc3, 0x7e, 0x42, 0xbe, 0x94, 0x18, 0x6d, 0xbe,
  0x60, 0xdd, 0x1a, 0x3d, 0x7e, 0x63, 0x4e, 0xbd, 0x2e, 0x34, 0x8f, 0xbd,
  0x33, 0x28, 0xc3, 0x3d, 0x90, 0xd9, 0xde, 0xbc, 0xe3, 0xda, 0x15, 0xbb,
  0xda, 0x26, 0x7c, 0x3e, 0x71, 0x30, 0x90, 0xbe, 0x94, 0x05, 0x65, 0x3d,
  0xc5, 0x49, 0x05, 0xbe, 0x40, 0x5e, 0xa8, 0xbd, 0xd4, 0x3a, 0x48, 0xbd,
  0xe2, 0x59, 0xa8, 0x3d, 0x98, 0xb6, 0x7b, 0xbd, 0xd7, 0xd5, 0x79, 0x3e,
  0x77, 0x15, 0x07, 0xbe, 0xf8, 0x77, 0x79, 0xbd, 0xaf, 0x29, 0xe7, 0x3d,
  0xf8, 0x36, 0xd9, 0x3d, 0x5f, 0xf0, 0x0b, 0x3e, 0xe1, 0x27, 0x8c, 0x3e,
