unsigned char model_tflite[] = {
  0x18, 0x00, 0x00, 0x00, 0x54, 0x46, 0x4c, 0x33, 0x00, 0x00, 0x0e, 0x00,
  0x18, 0x00, 0x04, 0x00, 0x08, 0x00, 0x0c, 0x00, 0x10, 0x00, 0x14, 0x00,
  0x0e, 0x00, 0x00, 0x00, 0x03, 0x00, 0x00, 0x00, 0xe0, 0x4b, 0x00, 0x00,
  0x0c, 0x00, 0x00, 0x00, 0x10, 0x00, 0x00, 0x00, 0x20, 0x00, 0x00, 0x00,
  0x01, 0x00, 0x00, 0x00, 0x20, 0x44, 0x00, 0x00, 0x0f, 0x00, 0x00, 0x00,
  0x54, 0x4f, 0x43, 0x4f, 0x20, 0x43, 0x6f, 0x6e, 0x76, 0x65, 0x72, 0x74,
  0x65, 0x64, 0x2e, 0x00, 0x11, 0x00, 0x00, 0x00, 0xf4, 0x43, 0x00, 0x00,
  0xa4, 0x43, 0x00, 0x00, 0x84, 0x43, 0x00, 0x00, 0x74, 0x42, 0x00, 0x00,
  0x64, 0x0a, 0x00, 0x00, 0x5c, 0x0a, 0x00, 0x00, 0x54, 0x0a, 0x00, 0x00,
  0x04, 0x0a, 0x00, 0x00, 0xfc, 0x09, 0x00, 0x00, 0xcc, 0x09, 0x00, 0x00,
  0xc4, 0x09, 0x00, 0x00, 0xbc, 0x09, 0x00, 0x00, 0xac, 0x01, 0x00, 0x00,
  0xa4, 0x01, 0x00, 0x00, 0x14, 0x00, 0x00, 0x00, 0x0c, 0x00, 0x00, 0x00,
  0x04, 0x00, 0x00, 0x00, 0x5c, 0xb6, 0xff, 0xff, 0x60, 0xb6, 0xff, 0xff,
  0xaa, 0xb6, 0xff, 0xff, 0x04, 0x00, 0x00, 0x00, 0x80, 0x01, 0x00, 0x00,
  0x68, 0x23, 0x79, 0xbd, 0x22, 0xf1, 0xc2, 0x3e, 0xe8, 0xd4, 0x09, 0x3e,
  0xfa, 0xfe, 0x80, 0xbc, 0xfd, 0x00, 0x30, 0x3d, 0xba, 0xa3, 0x46, 0x3e,
  0x6f, 0xa0, 0xd9, 0x3d, 0x54, 0x19, 0x1f, 0x3e, 0xfa, 0x60, 0x8f, 0xbe,
  0x0c, 0x48, 0xfb, 0xbd, 0x49, 0x75, 0x87, 0xbe, 0x3d, 0x6c, 0x1a, 0x3e,
  0xaf, 0x0b, 0x6a, 0x3c, 0xec, 0x63, 0x32, 0xbe, 0xf7, 0x07, 0xfb, 0x3d,
  0x49, 0x9a, 0x52, 0x3d, 0xfa, 0x1e, 0x00, 0x3f, 0x11, 0xe0, 0xc8, 0xbe,
  0xb1, 0x5e, 0x07, 0xbe, 0x6f, 0xd1, 0x13, 0x3d, 0x4e, 0xa0, 0xa3, 0x3d,
  0x24, 0xa3, 0x47, 0xbe, 0x4f, 0xb7, 0xde, 0xbd, 0x4c, 0xae, 0x39, 0xbe,
  0x0e, 0x9e, 0xbe, 0x3d, 0x55, 0x1e, 0x59, 0x3e, 0x61, 0x5d, 0x8f, 0x3e,
  0x65, 0x46, 0x62, 0x3e, 0x3d, 0x17, 0xbb, 0x3c, 0x6e, 0xfe, 0xc1, 0xbd,
  0x19, 0x7b, 0xa7, 0x3d, 0x95, 0xb6, 0xd6, 0xbc, 0xdf, 0x1d, 0x70, 0xbe,
  0x42, 0xf8, 0xbc, 0xbd, 0x23, 0x1e, 0x5d, 0xbd, 0x4f, 0x8a, 0x38, 0xbe,
  0x19, 0x4c, 0xa3, 0x3d, 0xaa, 0xc5, 0x45, 0xbd, 0x1b, 0x41, 0xe5, 0x3c,
  0xf2, 0x8d, 0xad, 0xbc, 0xa2, 0x9c, 0x49, 0x3d, 0x3b, 0xd2, 0x28, 0xbd,
  0x18, 0xda, 0x2d, 0xbd, 0x92, 0x5a, 0xbd, 0xbe, 0xa0, 0x57, 0xd7, 0x3d,
  0x61, 0x89, 0xc5, 0x3d, 0x42, 0x44, 0xb6, 0xbd, 0x22, 0xe0, 0x1d, 0x3e,
  0xf7, 0x05, 0x0a, 0xbe, 0x90, 0x98, 0x18, 0xbe, 0x54, 0x89, 0x90, 0x3e,
  0x06, 0xa2, 0xf5, 0x3d, 0xbb, 0x53, 0x21, 0x3e, 0xad, 0xe6, 0x8a, 0x3d,
  0x8d, 0x83, 0xd9, 0x3d, 0x6c, 0x46, 0x17, 0xbd, 0x12, 0x4e, 0xfe, 0x3d,
  0x2b, 0xde, 0x0d, 0x3e, 0x8d, 0x0b, 0xb6, 0xbd, 0xd8, 0x8b, 0x4e, 0xbe,
  0xaf, 0x9f, 0x80, 0xbd, 0xc4, 0x94, 0x64, 0xbe, 0x33, 0xb3, 0x96, 0xbd,
  0x54, 0x49, 0x8e, 0x3c, 0xdc, 0x1b, 0xcf, 0xbe, 0xae, 0x11, 0x71, 0x3d,
  0x9c, 0xa0, 0x4f, 0x3d, 0x6e, 0xba, 0x7f, 0xbe, 0xab, 0xe5, 0x11, 0x3b,
  0xeb, 0xaa, 0xa2, 0xbe, 0xc4, 0xfc, 0x84, 0xbe, 0x06, 0x16, 0x19, 0x3e,
  0xdd, 0xf9, 0xed, 0xbd, 0x84, 0x2b, 0x9a, 0xbe, 0xc1, 0x25, 0xac, 0x3e,
  0xe8, 0x89, 0xb4, 0x3d, 0x69, 0xec, 0xad, 0x3d, 0xef, 0x59, 0x3e, 0x3e,
  0xae, 0x19, 0xb6, 0x3d, 0xa8, 0x29, 0xcd, 0x3b, 0xe7, 0x7d, 0xb7, 0x3e,
  0x58, 0x39, 0xbe, 0xbd, 0x4f, 0x31, 0x66, 0x3e, 0x81, 0xce, 0xd5, 0xbc,
  0x97, 0xa4, 0xfa, 0xbc, 0xc7, 0x1c, 0x8b, 0xbe, 0x74, 0x1c, 0x46, 0xbe,
  0xf3, 0x3f, 0x83, 0xbb, 0x59, 0x34, 0xe3, 0xbe, 0x0f, 0xd3, 0xb9, 0xbe,
  0x11, 0x20, 0xe3, 0x3c, 0x7e, 0x22, 0x04, 0xbe, 0x2d, 0x9d, 0x04, 0xbd,
  0x66, 0xab, 0xde, 0x3d, 0x9b, 0x05, 0x4b, 0xbe, 0x90, 0xc8, 0x4b, 0x3e,
  0xf0, 0xb7, 0xff, 0xff, 0x3a, 0xb8, 0xff, 0xff, 0x04, 0x00, 0x00, 0x00,
  0x00, 0x08, 0x00, 0x00, 0xbf, 0x21, 0x92, 0xbd, 0x83, 0x26, 0x66, 0x3e,
  0xa8, 0x20, 0x01, 0xbe, 0xef, 0x84, 0x33, 0xbc, 0xab, 0x3f, 0xc8, 0xbe,
  0x2c, 0x08, 0x38, 0x3e, 0x48, 0xec, 0x5f, 0x3d, 0x72, 0x93, 0x26, 0xbe,
  0xb3, 0xb7, 0xf7, 0x3d, 0x32, 0x64, 0xb9, 0x3d, 0xb0, 0xf5, 0x14, 0xbe,
  0xfb, 0x93, 0xaf, 0x3d, 0xb4, 0xed, 0x52, 0xbd, 0x9d, 0xbb, 0x3a, 0xbd,
  0x1d, 0x8e, 0x7f, 0xbe, 0x03, 0x65, 0xc6, 0x3e, 0xd1, 0x88, 0xdb, 0xbe,
  0x39, 0x53, 0xe7, 0xbd, 0xb2, 0xe8, 0x46, 0xbe, 0xcc, 0xd7, 0x84, 0xbd,
  0xc3, 0x8d, 0xd7, 0xbd, 0xd5, 0xc9, 0x07, 0xbd, 0x49, 0x63, 0x62, 0xbe,
  0xc5, 0x1e, 0xbc, 0xbd, 0xac, 0x35, 0x09, 0xbf, 0x70, 0x35, 0x2f, 0xbe,
  0xa5, 0x86, 0x81, 0xbd, 0xa7, 0x06, 0xb4, 0xbd, 0x8b, 0xec, 0xbb, 0xbd,
  0xee, 0x56, 0xd8, 0x3e, 0x82, 0x39, 0x79, 0xbe, 0x14, 0xcc, 0x87, 0xbd,
  0x65, 0xa3, 0xf3, 0x3e, 0x14, 0x33, 0xe6, 0x3e, 0x1c, 0x05, 0x8f, 0xbe,
  0x39, 0x7b, 0x94, 0x3d, 0x34, 0x2d, 0x83, 0xbe, 0xfe, 0xdb, 0x17, 0xbe,
  0x0f, 0xf5, 0x80, 0xbe, 0xb9, 0x2b, 0x80, 0xbc, 0xd6, 0xfa, 0x3a, 0x3e,
  0x69, 0x23, 0x66, 0x3e, 0x34, 0x94, 0x57, 0xbe, 0x8d, 0x2d, 0x50, 0x3d,
  0xef, 0x2e, 0xba, 0x3d, 0xef, 0xe4, 0x2a, 0xbe, 0x4a, 0x7f, 0xce, 0xbd,
  0x68, 0x42, 0xdf, 0xbb, 0xfb, 0x7c, 0x49, 0x3d, 0x2c, 0xb3, 0xa7, 0x3e,
  0x95, 0x58, 0xf5, 0xbd, 0xf1, 0xcc, 0x5b, 0xbe, 0xd9, 0x2d, 0x10, 0x3c,
  0x7e, 0xa4, 0x66, 0xbe, 0xd9, 0x54, 0xe9, 0xbc, 0xa0, 0x50, 0x56, 0x3e,
  0xcd, 0x17, 0xa9, 0xbe, 0xcd, 0x1b, 0x17, 0xbf, 0x1c, 0x4a, 0xbf, 0x3e,
  0xf0, 0xfa, 0x6c, 0xbe, 0xf9, 0x8e, 0xb4, 0x3d, 0xa4, 0x56, 0x37, 0xbf,
  0x6e, 0xd9, 0x15, 0xbe, 0x6a, 0xa7, 0x9b, 0xbd, 0xf7, 0x06, 0x1c, 0xbf,
  0x37, 0x34, 0xac, 0xbe, 0x0c, 0x32, 0x1e, 0xbd, 0x1a, 0x41, 0xb0, 0xbe,
  0x07, 0x62, 0x9f, 0x3d, 0x34, 0x7e, 0xa6, 0x3e, 0xce, 0x6f, 0x46, 0xbe,
  0xf5, 0x9a, 0x43, 0xbd, 0xe2, 0xb0, 0xc9, 0xbe, 0x17, 0x74, 0x94, 0xbe,
  0x8d, 0x79, 0xd5, 0xbc, 0x88, 0xc7, 0x11, 0xbf, 0xd6, 0x24, 0x40, 0xbd,
  0xe3, 0x47, 0xbf, 0x3c, 0x71, 0x61, 0x33, 0x3d, 0x1f, 0x3f, 0xea, 0x3c,
  0x7b, 0xeb, 0xe4, 0xbe, 0x0d, 0xee, 0x15, 0xbf, 0x92, 0x5a, 0x72, 0xbd,
  0x25, 0x50, 0x09, 0xbf, 0xe7, 0xc3, 0x47, 0x3c, 0xb6, 0xca, 0xa6, 0xbd,
  0x6c, 0x2a, 0x83, 0xbe, 0x01, 0x33, 0xa6, 0xbd, 0x60, 0x30, 0x00, 0xbf,
  0x5a, 0x25, 0x4b, 0xbf, 0xbd, 0xd8, 0xc7, 0x3d, 0xf1, 0xcc, 0x1b, 0xbf,
  0x52, 0xea, 0x5c, 0xbd, 0xd6, 0x46, 0x90, 0x3e, 0x55, 0x8d, 0x15, 0x3e,
  0xa1, 0x35, 0x51, 0xbd, 0x8a, 0x12, 0x5e, 0xbe, 0x08, 0xd8, 0x58, 0xbd,
  0xa6, 0xb0, 0xf6, 0xbc, 0x15, 0x41, 0x89, 0x3d, 0x0b, 0xd7, 0xd9, 0xbd,
  0x73, 0xae, 0xc9, 0xbd, 0x9b, 0xa0, 0xdb, 0xbd, 0xe6, 0xa4, 0x33, 0x3d,
  0xea, 0x55, 0x24, 0xbe, 0x5f, 0x08, 0xbf, 0x3d, 0x52, 0xc7, 0x7a, 0xbe,
  0xa3, 0x4c, 0x3d, 0xbd, 0xd6, 0x58, 0x71, 0xbc, 0x31, 0xcc, 0xf6, 0x3e,
  0x6d, 0x65, 0x9e, 0xbe, 0x10, 0x3e, 0xd9, 0x3d, 0x87, 0x56, 0x0d, 0xbe,
  0x9d, 0xe9, 0x66, 0x3e, 0xd2, 0x88, 0xed, 0xbd, 0x91, 0xde, 0x1e, 0x3e,
  0xf8, 0x52, 0xc5, 0x3d, 0x50, 0x1b, 0x7b, 0xbf, 0x72, 0x46, 0x4a, 0xbe,
  0xdc, 0xb0, 0x0f, 0x3e, 0x42, 0xbe, 0x6e, 0x3d, 0xff, 0x2e, 0x00, 0xbf,
  0x0e, 0x93, 0xa3, 0xbe, 0xfd, 0x47, 0x9c, 0x3c, 0xcc, 0xaf, 0x9d, 0xbd,
  0x10, 0x06, 0xf5, 0xbe, 0x3b, 0x5b, 0x13, 0xbf, 0x63, 0x86, 0xd4, 0xbe,
  0x4e, 0x06, 0xc1, 0xbd, 0xfa, 0x9a, 0x2d, 0xbe, 0x92, 0x54, 0xa3, 0x3e,
  0xaa, 0x73, 0x1d, 0xbe, 0x73, 0xb6, 0x73, 0x3d, 0xe1, 0xfb, 0x4d, 0x3d,
  0xbd, 0x36, 0x0b, 0xbe, 0xd7, 0xd6, 0x96, 0xbd, 0x9e, 0x79, 0x78, 0xbd,
  0x3d, 0xa4, 0x66, 0xbe, 0x90, 0xbd, 0x6a, 0xbd, 0x67, 0x22, 0x9b, 0xbd,
  0x2d, 0xaa, 0x44, 0x3d, 0xa3, 0x95, 0x1a, 0x3d, 0x2b, 0x74, 0x0f, 0x3e,
  0xc4, 0x9d, 0xea, 0xbd, 0xfb, 0x4c, 0xe6, 0xbd, 0x0b, 0x4f, 0x0f, 0xbe,
  0xdd, 0xeb, 0xbd, 0x3d, 0x58, 0x2b, 0x27, 0xbe, 0xcf, 0xa1, 0xbb, 0xbd,
  0x20, 0x15, 0x79, 0xbd, 0x7f, 0x1d, 0xe1, 0xbd, 0x5c, 0x73, 0x8c, 0xbd,
  0xa1, 0xe5, 0x67, 0xbd, 0x75, 0x33, 0xd1, 0xbe, 0x9b, 0x31, 0x84, 0x3e,
  0x55, 0x13, 0x18, 0xbe, 0x9b, 0x4d, 0x15, 0xbe, 0x96, 0x0b, 0xce, 0xbd,
  0x68, 0xa3, 0xa7, 0xbd, 0x85, 0x94, 0xae, 0xbd, 0xe8, 0xda, 0x7d, 0x3e,
  0x5e, 0x28, 0x4c, 0x3e, 0x0b, 0x51, 0xf7, 0x3c, 0x50, 0x57, 0x84, 0xbe,
  0x6c, 0x53, 0x44, 0x3d, 0x2f, 0xb5, 0xcf, 0xbe, 0x32, 0xfd, 0x36, 0xbd,
  0x8f, 0xdc, 0xbb, 0xbc, 0x76, 0x19, 0x1e, 0x3d, 0x5d, 0x62, 0x60, 0xbe,
  0xd0, 0x23, 0x3f, 0x3e, 0xc8, 0xc2, 0xce, 0x3d, 0x91, 0x02, 0x0b, 0x3e,
  0x7e, 0x2d, 0x34, 0xbf, 0x67, 0x37, 0xcf, 0x3c, 0x66, 0xc4, 0x7c, 0x3e,
  0x72, 0x43, 0xb9, 0xbe, 0x92, 0xe1, 0x28, 0xbe, 0x64, 0x11, 0xd2, 0x3b,
  0x98, 0x9d, 0x32, 0xbe, 0x43, 0x60, 0x4f, 0xbc, 0xb3, 0x48, 0x40, 0xbf,
  0xd6, 0x55, 0xe2, 0xbb, 0x8b, 0xa7, 0x8f, 0x3b, 0xb9, 0x1b, 0xb2, 0x3c,
  0x0a, 0x4b, 0xaf, 0xbc, 0x56, 0xe4, 0xbd, 0xbd, 0x0a, 0x7a, 0xd4, 0x3d,
  0x9e, 0xf0, 0x00, 0xbe, 0x96, 0x39, 0xef, 0x3c, 0x3d, 0x19, 0x93, 0x3d,
  0x7f, 0x8f, 0x72, 0x3c, 0x41, 0xd5, 0x05, 0xbe, 0xdc, 0x46, 0x19, 0xbe,
  0xa6, 0x6c, 0xa1, 0xbc, 0x9e, 0x64, 0x3a, 0x3e, 0x92, 0x7d, 0xf7, 0x3d,
  0x11, 0x24, 0x29, 0xbe, 0xbf, 0x97, 0x9c, 0x3e, 0x3c, 0x03, 0x11, 0x3f,
  0x1e, 0xff, 0xb8, 0x3e, 0xc4, 0x38, 0x14, 0xbd, 0x95, 0xfd, 0xd1, 0xbc,
  0x54, 0x9c, 0xd3, 0x3b, 0x1c, 0x4d, 0x97, 0x3d, 0xc6, 0xf1, 0x82, 0xbe,
  0x9a, 0x94, 0x7b, 0x3e, 0xf7, 0xac, 0x1f, 0xbe, 0x18, 0x4a, 0xa2, 0x3d,
  0x14, 0x6a, 0x46, 0xbe, 0x89, 0xd6, 0x1d, 0xbe, 0x66, 0xbb, 0xd2, 0xbd,
  0x50, 0xf5, 0x45, 0xbd, 0xb7, 0x4a, 0x9a, 0xbe, 0x5d, 0xb8, 0xe6, 0x3d,
  0x1a, 0x7b, 0xad, 0xbe, 0x26, 0x37, 0xbd, 0xbc, 0x87, 0xa7, 0x33, 0xbd,
  0x89, 0xc0, 0x00, 0xbe, 0xdc, 0xd1, 0x8e, 0x3d, 0x5c, 0x94, 0x02, 0xbf,
  0x60, 0x43, 0x87, 0xbd, 0x8a, 0xc8, 0x62, 0xbe, 0xb7, 0x76, 0xc3, 0xbe,
  0xf0, 0x81, 0x0e, 0x3d, 0xdb, 0xf1, 0x4b, 0x3e, 0xcf, 0xc5, 0xab, 0xbe,
  0x99, 0xb3, 0xab, 0x3d, 0xf7, 0xb3, 0xa9, 0xbe, 0x63, 0xb9, 0x7c, 0x3c,
  0xac, 0xa2, 0x13, 0x3e, 0xdb, 0xf2, 0xec, 0xbc, 0x8d, 0xb0, 0xba, 0x3d,
  0x66, 0x32, 0x94, 0x3e, 0x42, 0x53, 0xdc, 0xbc, 0x8c, 0x2e, 0xad, 0xbc,
  0xf4, 0xef, 0x6d, 0xbe, 0x1e, 0x46, 0x07, 0x3e, 0x1f, 0x56, 0x40, 0xbe,
  0x4f, 0x5e, 0xd6, 0x3d, 0x8a, 0xae, 0x85, 0x3e, 0xb1, 0x9a, 0xe3, 0x3e,
  0xfe, 0x3a, 0x95, 0xbe, 0xea, 0x66, 0x29, 0x3e, 0x12, 0xb1, 0x9b, 0xbd,
  0x9b, 0x1e, 0xb6, 0x3d, 0xef, 0x85, 0xba, 0xbd, 0x47, 0xc1, 0x87, 0xbd,
  0x56, 0x40, 0xcc, 0x3d, 0x3c, 0x0b, 0xa9, 0xbb, 0xc4, 0xc0, 0x7f, 0x3d,
  0x63, 0x5a, 0xcf, 0xbd, 0x25, 0x72, 0x47, 0xbe, 0x03, 0x19, 0x70, 0xbd,
  0xfd, 0x05, 0x1f, 0x3d, 0x6e, 0x48, 0x24, 0xbd, 0x66, 0xab, 0x1e, 0x3d,
  0x56, 0x5f, 0x2d, 0xbe, 0x44, 0x4f, 0x0c, 0xbe, 0x25, 0x15, 0x0f, 0xbd,
  0x46, 0xf0, 0xb9, 0x3c, 0x31, 0x8a, 0x01, 0x3e, 0x15, 0xd2, 0x01, 0x3e,
  0x06, 0xa1, 0x00, 0xbe, 0xf6, 0x63, 0xb5, 0x3e, 0x0c, 0x04, 0x74, 0xbe,
  0xa0, 0xf5, 0xb7, 0xbd, 0xbc, 0xad, 0x22, 0x3d, 0x1f, 0x0e, 0xc0, 0xbe,
  0xa3, 0x02, 0xe7, 0x3d, 0x63, 0x22, 0x37, 0x3e, 0xbb, 0x90, 0x59, 0xbe,
  0xfe, 0x7d, 0x10, 0x3e, 0x50, 0x6d, 0xbc, 0xbe, 0x7a, 0xcc, 0xde, 0x3d,
  0x98, 0xfd, 0xe3, 0x3c, 0xe9, 0xa3, 0xff, 0xbe, 0xab, 0xb1, 0xe0, 0xbd,
  0x5b, 0x05, 0x6d, 0xbe, 0xee, 0x40, 0x01, 0xbe, 0xf3, 0x53, 0xa3, 0x3e,
  0xd8, 0xd9, 0xfe, 0xbe, 0x1f, 0x51, 0x52, 0x3e, 0x06, 0x61, 0xf5, 0xbe,
  0xa8, 0x50, 0x59, 0xbe, 0x3c, 0xc8, 0x94, 0xbe, 0xcc, 0x40, 0xcd, 0xbe,
  0xd1, 0x6a, 0xb1, 0x3e, 0x25, 0xd8, 0x3c, 0xbe, 0x70, 0x10, 0xb5, 0xbd,
  0x40, 0xa8, 0x5b, 0xbe, 0x28, 0xdb, 0x07, 0xbe, 0xea, 0xba, 0xcb, 0xbe,
  0x7f, 0x72, 0xdb, 0x3d, 0x58, 0xf2, 0x9b, 0xbd, 0xe0, 0x03, 0xe8, 0xbe,
  0x9f, 0xf1, 0x3c, 0x3e, 0x2b, 0xbc, 0xc4, 0x3e, 0xd1, 0xbe, 0x65, 0xbd,
  0x94, 0x3f, 0x91, 0x3e, 0xd3, 0x6f, 0xce, 0xbe, 0xe8, 0x72, 0x7b, 0xbd,
  0xb5, 0xad, 0x83, 0x3e, 0x48, 0x2f, 0xbd, 0xbe, 0x86, 0xba, 0x1c, 0x3e,
  0xfd, 0x5e, 0x21, 0x3e, 0xbf, 0xec, 0x5d, 0x3e, 0x44, 0xf5, 0xc6, 0xbd,
  0xaa, 0x1c, 0xd1, 0xbe, 0xcb, 0xa4, 0x7d, 0x3a, 0x8c, 0xde, 0x04, 0xbe,
  0xe1, 0x00, 0x82, 0xbe, 0x84, 0x7d, 0xd2, 0xb9, 0xdc, 0xce, 0x53, 0xbe,
  0xec, 0x71, 0x1c, 0x3e, 0xfd, 0xd7, 0xc5, 0xbb, 0x9c, 0xbb, 0xc7, 0xbd,
  0x47, 0x4f, 0x8f, 0xbc, 0xfb, 0x6d, 0x95, 0xbd, 0xb9, 0xa0, 0xc9, 0x3d,
  0x9a, 0x95, 0xf8, 0xbe, 0xc0, 0x68, 0x77, 0xbe, 0x91, 0xd6, 0x8c, 0xbc,
  0xb0, 0xe7, 0x8d, 0xbe, 0x84, 0x1c, 0x00, 0xbd, 0x02, 0x98, 0x94, 0x3e,
  0xec, 0xf1, 0x96, 0xbe, 0xf2, 0x78, 0xcb, 0xbc, 0x9e, 0x7f, 0x0b, 0xbf,
  0x92, 0xcc, 0x0d, 0xbe, 0xf8, 0x57, 0xab, 0xbc, 0x3c, 0x93, 0x90, 0xbe,
  0x62, 0x73, 0xb8, 0xbd, 0x4c, 0xac, 0x0f, 0x3f, 0xa9, 0xc6, 0x1d, 0xbe,
  0x77, 0x07, 0xbb, 0xbc, 0xbb, 0xa7, 0x30, 0xbf, 0x0e, 0x1b, 0xe6, 0x3d,
  0x93, 0xa1, 0x02, 0xbd, 0x0d, 0x06, 0x71, 0xbe, 0xa6, 0xa6, 0x05, 0xbe,
  0x20, 0x66, 0x4d, 0x3e, 0x31, 0xf9, 0x02, 0xbd, 0x87, 0x09, 0xc0, 0x3d,
  0xcf, 0x97, 0x42, 0xbf, 0x6f, 0xef, 0x9e, 0x3d, 0x71, 0x76, 0xd9, 0x3c,
  0x33, 0x0d, 0xc3, 0xbe, 0xef, 0x7d, 0x00, 0xbe, 0x38, 0xd8, 0x05, 0x3e,
  0x83, 0x63, 0x8a, 0xbd, 0x0e, 0x77, 0xc8, 0xbb, 0x82, 0x00, 0xb3, 0xbf,
  0xb3, 0x6c, 0x53, 0xbf, 0x3f, 0x3e, 0xc8, 0xbc, 0xa2, 0x58, 0x1c, 0xbf,
  0x4c, 0x7d, 0x8b, 0x3b, 0xed, 0xf7, 0xe2, 0xbe, 0x80, 0x39, 0x9c, 0xbe,
  0x2d, 0xbe, 0x95, 0xbd, 0xc5, 0xe9, 0x21, 0xbe, 0xdc, 0xc5, 0x92, 0x3d,
  0x43, 0x62, 0x9d, 0xbd, 0x3f, 0x0f, 0xac, 0x3e, 0xd8, 0xfa, 0x0c, 0x3d,
  0x8c, 0xa5, 0x40, 0xbe, 0xc7, 0xf4, 0x9b, 0x3d, 0x89, 0xbd, 0xed, 0x3d,
  0x6f, 0xf0, 0x94, 0xbe, 0x80, 0x0f, 0xcf, 0x3d, 0x74, 0xf5, 0x1f, 0xbd,
  0xe7, 0x1a, 0xf3, 0x3e, 0x73, 0x75, 0xbf, 0xbd, 0x8f, 0x93, 0x80, 0xbd,
  0x78, 0x52, 0x7d, 0x3e, 0x2b, 0xe2, 0x12, 0x3e, 0xd3, 0xc4, 0xc3, 0xbd,
  0x22, 0x91, 0x80, 0x3e, 0xc9, 0x51, 0x65, 0x3c, 0x65, 0xab, 0x15, 0x3e,
  0x32, 0x42, 0xf1, 0xbd, 0x18, 0xe8, 0x6a, 0x3d, 0x41, 0xe8, 0x1b, 0x3e,
  0xed, 0x2b, 0x85, 0x3d, 0x55, 0x44, 0xcd, 0x3d, 0xdb, 0x5a, 0xa6, 0x3d,
  0x96, 0x24, 0x84, 0x3e, 0x48, 0x1d, 0xe3, 0x3d, 0xbd, 0x42, 0xa6, 0xbe,
  0xf5, 0x31, 0xf5, 0x3c, 0xb6, 0xe3, 0xb8, 0xbd, 0x55, 0x9d, 0xf8, 0xbe,
  0xb6, 0xcd, 0x89, 0xbe, 0xb9, 0x8e, 0x4e, 0xbe, 0x5a, 0x5c, 0x69, 0xbe,
  0xbd, 0x9e, 0xdf, 0x3d, 0x16, 0x75, 0xb2, 0xbe, 0x80, 0xa0, 0x51, 0x3e,
  0x75, 0x92, 0x1b, 0x3e, 0x60, 0xfe, 0xfb, 0xbe, 0x42, 0x36, 0x8e, 0xbd,
  0x27, 0xbc, 0xaa, 0x3d, 0x8d, 0xb9, 0x78, 0x3e, 0x09, 0x8a, 0xa3, 0x3d,
  0x90, 0xba, 0x76, 0xbe, 0x92, 0x8c, 0x8a, 0x3c, 0xba, 0x58, 0xe5, 0xbd,
  0x03, 0x91, 0x46, 0xbe, 0x10, 0x1d, 0xaa, 0xba, 0xd3, 0xa9, 0x4e, 0xbe,
  0xbf, 0x00, 0xc3, 0xbd, 0xf8, 0x27, 0xcf, 0xbe, 0xdf, 0xad, 0xea, 0x3d,
  0xd5, 0x5d, 0x5f, 0xbe, 0xb4, 0x73, 0xb0, 0x3c, 0x79, 0x1e, 0xad, 0xbe,
  0x04, 0x41, 0x2c, 0x3e, 0x00, 0xad, 0xa0, 0x3d, 0x2c, 0x5b, 0x52, 0xbe,
  0x88, 0x82, 0x79, 0xbe, 0x59, 0x6c, 0x4d, 0x3e, 0xb9, 0xee, 0xb3, 0xbd,
  0xae, 0x58, 0x32, 0xbd, 0x9c, 0x96, 0x04, 0x3f, 0x14, 0xaa, 0x3c, 0x3e,
  0x94, 0xe9, 0x88, 0x3d, 0xbe, 0x91, 0xc4, 0xbe, 0x91, 0xd5, 0xbe, 0xbd,
  0x61, 0x3b, 0x36, 0x3d, 0x52, 0x9f, 0x90, 0xbc, 0x67, 0x21, 0x2e, 0x3d,
  0xad, 0x5a, 0x35, 0xbe, 0x1e, 0xde, 0xb9, 0x3e, 0x7e, 0xe5, 0x62, 0xbe,
  0x56, 0x41, 0xb8, 0xbd, 0x51, 0xc2, 0x45, 0x3e, 0x11, 0x70, 0xe0, 0xbe,
  0xd8, 0x93, 0x18, 0x3e, 0x37, 0xfd, 0x0e, 0x3d, 0x62, 0x3f, 0x89, 0xbe,
  0x74, 0x1a, 0x98, 0x3e, 0x21, 0x4e, 0x5a, 0xbe, 0x99, 0x79, 0x44, 0x3e,
  0xe1, 0xa1, 0x51, 0xbe, 0x53, 0x0d, 0xdd, 0xbe, 0x3d, 0x09, 0xce, 0x3c,
  0xcd, 0x7d, 0xa0, 0xbe, 0xc6, 0xb0, 0x80, 0xbe, 0x8d, 0x3e, 0x89, 0xbc,
  0x10, 0xa3, 0x37, 0xbe, 0x83, 0xfb, 0x99, 0xbe, 0x5c, 0x26, 0x54, 0xbd,
  0x9a, 0x94, 0x03, 0x3d, 0xda, 0x49, 0x95, 0x3e, 0x0c, 0xbd, 0xc8, 0xbe,
  0x37, 0x1f, 0x0b, 0x3e, 0x6f, 0x88, 0x93, 0xbe, 0x01, 0xbd, 0x4e, 0xbd,
  0x43, 0x41, 0xb9, 0xbe, 0xfa, 0xcd, 0x97, 0xbd, 0x8a, 0x06, 0x00, 0xbd,
  0x7e, 0xcf, 0x4e, 0x3c, 0x3a, 0xcb, 0xa0, 0xbe, 0x15, 0x3f, 0xe3, 0x3d,
  0xa3, 0xcd, 0xd1, 0xbe, 0x6a, 0xfb, 0xa2, 0xbe, 0x68, 0x5c, 0xa4, 0xbe,
  0xa3, 0xd0, 0x75, 0x3c, 0x0c, 0x40, 0xc1, 0x3d, 0x86, 0x8a, 0x1a, 0x3d,
  0x32, 0xb0, 0xc2, 0xbe, 0xca, 0x8d, 0x32, 0x3e, 0x9d, 0xf3, 0x72, 0xbe,
  0x13, 0x60, 0x81, 0xbe, 0xcd, 0x89, 0x51, 0xbe, 0x7d, 0xdc, 0x8c, 0xbb,
  0xfc, 0x00, 0xbc, 0x3d, 0xe1, 0xeb, 0x75, 0xbe, 0x19, 0x10, 0x2f, 0xbe,
  0x58, 0x53, 0xa9, 0x3d, 0x7f, 0xca, 0x09, 0x3e, 0xed, 0x0b, 0xef, 0xbd,
  0x47, 0xbf, 0x8a, 0xbe, 0x4f, 0x90, 0x03, 0xbe, 0x2d, 0xf4, 0xf9, 0xbc,
  0xef, 0x58, 0x51, 0xbe, 0x1e, 0xb4, 0x90, 0xbe, 0x73, 0xa3, 0xfc, 0x3e,
  0xba, 0x1a, 0x38, 0x3d, 0xed, 0xaf, 0x38, 0x3d, 0x66, 0xa7, 0x01, 0xbf,
  0x45, 0x87, 0xb2, 0x3d, 0x70, 0x5e, 0xc1, 0x3d, 0xf1, 0x2d, 0xfd, 0xbd,
  0xd1, 0xf8, 0x56, 0xbe, 0xd4, 0xbc, 0x22, 0x3d, 0x42, 0xcb, 0xd6, 0x3e,
  0x3f, 0xbd, 0x72, 0x3d, 0x47, 0x6a, 0x4d, 0xbf, 0x9d, 0x23, 0x07, 0x3d,
  0x1e, 0xe1, 0x14, 0x3d, 0xbc, 0xec, 0x39, 0xbd, 0xef, 0x28, 0x8f, 0xbd,
  0x64, 0xf6, 0xf2, 0xbc, 0x28, 0x1b, 0x16, 0x3e, 0x45, 0xf3, 0x68, 0xbd,
  0x8b, 0xf3, 0x22, 0xbf, 0x43, 0xa9, 0xb1, 0x3d, 0xf6, 0x6a, 0xfb, 0xbd,
  0x00, 0xc9, 0x84, 0xbd, 0xfb, 0x3d, 0xe9, 0x3d, 0x9e, 0x00, 0x39, 0xbe,
  0x00, 0xc0, 0xff, 0xff, 0x04, 0xc0, 0xff, 0xff, 0x4e, 0xc0, 0xff, 0xff,
  0x04, 0x00, 0x00, 0x00, 0x20, 0x00, 0x00, 0x00, 0xf0, 0xf5, 0x11, 0x3d,
  0x66, 0x26, 0xd2, 0xbd, 0x1a, 0x9a, 0x52, 0xbf, 0x0a, 0xce, 0x3b, 0x3e,
  0xd7, 0xa2, 0x1d, 0xc0, 0xa0, 0x39, 0x4d, 0xbe, 0xcf, 0x77, 0xfd, 0xbe,
  0xa9, 0x47, 0x45, 0xc0, 0x34, 0xc0, 0xff, 0xff, 0x7e, 0xc0, 0xff, 0xff,
  0x04, 0x00, 0x00, 0x00, 0x40, 0x00, 0x00, 0x00, 0x96, 0xfb, 0x9f, 0xbc,
  0xc5, 0x80, 0x6d, 0xbe, 0xc1, 0xc4, 0x72, 0xbe, 0x3b, 0x85, 0x8b, 0x3e,
  0x30, 0x81, 0x6d, 0xbe, 0x48, 0x1a, 0xbd, 0xbe, 0x0c, 0xc6, 0x34, 0xbe,
  0xd9, 0x77, 0x6f, 0xbe, 0x00, 0xc6, 0xe5, 0x3d, 0xe1, 0xbd, 0x8e, 0x3e,
  0xe7, 0x5c, 0x4c, 0xbe, 0xbf, 0x48, 0x48, 0x3e, 0xdf, 0x6a, 0xdd, 0x3d,
  0x3b, 0xba, 0x35, 0xbe, 0xda, 0x27, 0xb5, 0x3d, 0xc6, 0x29, 0x28, 0xbe,
  0x84, 0xc0, 0xff, 0xff, 0x88, 0xc0, 0xff, 0xff, 0xd2, 0xc0, 0xff, 0xff,
  0x04, 0x00, 0x00, 0x00, 0x00, 0x38, 0x00, 0x00, 0x21, 0x5d, 0x55, 0xbd,
  0x5f, 0x75, 0x15, 0x3e, 0x9f, 0x29, 0xc1, 0xbe, 0x3e, 0xde, 0x33, 0x3e,
  0x17, 0xff, 0x73, 0xbc, 0x2e, 0x7e, 0x82, 0x3e, 0xd2, 0x68, 0xbf, 0x3d,
  0x79, 0x72, 0xaa, 0xbc, 0xe9, 0x0e, 0x8c, 0xbe, 0x59, 0x1b, 0x8c, 0x3e,
  0xfd, 0xd6, 0xa3, 0xbe, 0x83, 0x5d, 0xd4, 0xbc, 0x03, 0x4c, 0x03, 0x3f,
  0x01, 0x30, 0x2e, 0x3e, 0x83, 0x07, 0x0b, 0xbd, 0x42, 0x01, 0xe8, 0xbd,
  0x91, 0x70, 0x84, 0x3e, 0x99, 0x82, 0xff, 0xbe, 0x57, 0x81, 0xbe, 0xbe,
  0x21, 0x0c, 0xe6, 0x3d, 0xe3, 0xc8, 0xe8, 0x3d, 0x74, 0xb1, 0xeb, 0xbd,
  0xba, 0x08, 0x5c, 0xbe, 0x5f, 0xce, 0x30, 0xbe, 0x7a, 0x03, 0x95, 0xbd,
  0xc4, 0x79, 0x87, 0x3e, 0xbc, 0x9e, 0x80, 0xbe, 0x62, 0xa9, 0xc5, 0x3c,
  0x8a, 0xd9, 0xfd, 0xbc, 0x30, 0xbb, 0x02, 0x3e, 0x8d, 0xe9, 0x46, 0xbe,
  0xae, 0xa3, 0xcf, 0xbe, 0x6f, 0x44, 0xc8, 0xbc, 0x04, 0xf9, 0xba, 0xbe,
  0x27, 0xa9, 0xdf, 0xbe, 0x6f, 0xe2, 0xbc, 0xbd, 0x81, 0x1a, 0x1b, 0x3d,
  0xca, 0x04, 0x49, 0xbe, 0x0d, 0x4d, 0x6f, 0xbe, 0xae, 0x9e, 0x03, 0xbe,
  0x95, 0xe6, 0x28, 0x3e, 0xd5, 0x7a, 0x9f, 0x3e, 0xda, 0x6d, 0x59, 0xbd,
  0x62, 0x79, 0x66, 0xbc, 0xfa, 0x50, 0x7b, 0x3e, 0xd6, 0xe8, 0xfb, 0x3d,
  0x95, 0x86, 0x0b, 0xbf, 0xac, 0x3a, 0x6b, 0xbe, 0x8d, 0x24, 0x37, 0xbe,
  0xe3, 0xba, 0xcc, 0xbe, 0x8f, 0xba, 0xa9, 0x3d, 0xac, 0xb0, 0xac, 0xbb,
  0x7c, 0xf0, 0xaa, 0x3b, 0xec, 0xa8, 0x94, 0x3d, 0x7d, 0x3a, 0x04, 0xbe,
  0x91, 0xca, 0x41, 0xbc, 0xa8, 0x7c, 0x58, 0x3e, 0xb0, 0xe3, 0x4e, 0x3d,
  0x23, 0x26, 0x47, 0xbd, 0x18, 0xa6, 0xb4, 0xbb, 0x10, 0xea, 0x90, 0x3d,
  0x95, 0x88, 0x9d, 0x3e, 0xab, 0x4f, 0x3a, 0xbe, 0x10, 0x31, 0xb0, 0xbd,
  0xfd, 0x23, 0xda, 0xbd, 0x66, 0xb0, 0xcf, 0xbc, 0x69, 0xb0, 0xf5, 0xbd,
  0xa5, 0xb2, 0x09, 0x3a, 0x9e, 0x78, 0xd9, 0xbc, 0xf6, 0x81, 0xe4, 0x3d,
  0x06, 0x35, 0x44, 0xbe, 0x3b, 0xdb, 0xa7, 0xbe, 0x8e, 0xe2, 0xbe, 0xbd,
  0xe5, 0xa2, 0x58, 0x3e, 0xc3, 0xea, 0xf3, 0xbd, 0x6c, 0xa3, 0x53, 0x3d,
  0x45, 0x68, 0xd1, 0x3e, 0xc5, 0x9d, 0xed, 0xbd, 0x2e, 0x56, 0x46, 0xbe,
  0x4b, 0x98, 0x97, 0xbe, 0x87, 0x28, 0x16, 0xbe, 0x9b, 0xde, 0x22, 0xbe,
  0x84, 0xc3, 0x7c, 0x3e, 0x1a, 0x42, 0x4f, 0x3e, 0x5d, 0x13, 0x3d, 0x3b,
  0xc1, 0x30, 0x19, 0x3d, 0x41, 0x50, 0x3f, 0x3c, 0x51, 0xb1, 0x80, 0xbe,
  0x2b, 0xcb, 0xea, 0xbd, 0x39, 0x2d, 0x9e, 0x3d, 0xea, 0xac, 0x75, 0xbe,
  0xa3, 0x7a, 0x06, 0xbd, 0xb0, 0xb4, 0x2f, 0x3e, 0x58, 0xad, 0x46, 0xbe,
  0xd5, 0xa4, 0xaa, 0xbd, 0xb6, 0x23, 0x83, 0xbe, 0xba, 0x75, 0x0a, 0x3d,
  0xa3, 0x0a, 0x11, 0x3d, 0x45, 0x0c, 0x5f, 0x3e, 0x6c, 0xc2, 0x88, 0x3d,
  0x21, 0xee, 0x8f, 0xbd, 0x9f, 0x15, 0x46, 0x3e, 0x10, 0xc6, 0x51, 0x3d,
  0x06, 0x21, 0x92, 0x3d, 0xc1, 0x03, 0xe2, 0x3d, 0x32, 0x5b, 0x88, 0x3d,
  0xa2, 0x78, 0x01, 0xbd, 0x21, 0x9d, 0x65, 0xbd, 0xd7, 0x91, 0x90, 0x3e,
  0x31, 0x00, 0xa9, 0xbe, 0x67, 0x5a, 0x4a, 0xbb, 0xe5, 0xcb, 0xd6, 0xbe,
  0xb4, 0xe1, 0x4b, 0xbd, 0x43, 0x75, 0xd7, 0xbc, 0x69, 0xe8, 0x74, 0x3e,
  0x18, 0x14, 0xf6, 0x3c, 0x73, 0xcc, 0xe8, 0xbd, 0x1a, 0x02, 0xc0, 0x3d,
  0x22, 0x16, 0x75, 0xbe, 0xf2, 0x37, 0xb9, 0x3d, 0xa9, 0x21, 0x1c, 0xbd,
  0xf7, 0xc6, 0x8b, 0x3d, 0xdc, 0x19, 0x44, 0xbe, 0x71, 0x4f, 0xeb, 0xbd,
  0xa2, 0x26, 0xbf, 0x3e, 0xec, 0x8f, 0x6e, 0xbe, 0x8c, 0x32, 0x22, 0xbe,
  0x59, 0x5f, 0x46, 0xbc, 0x49, 0x15, 0x3c, 0xbe, 0x29, 0x16, 0x37, 0x3d,
  0xa8, 0x2f, 0x6a, 0xbd, 0x82, 0xce, 0xb4, 0x3e, 0xe5, 0x09, 0xa8, 0xbc,
  0x6a, 0xf9, 0x2a, 0x3d, 0x2e, 0x4f, 0x2a, 0xbe, 0xcd, 0xcb, 0xcf, 0x3d,
  0x45, 0xd8, 0xf8, 0x3c, 0xd5, 0xdb, 0x6e, 0x3e, 0xdf, 0xc4, 0x9e, 0xbe,
  0x17, 0x96, 0x8b, 0xbe, 0x73, 0x58, 0xf7, 0x3e, 0x21, 0xa2, 0x13, 0xbe,
  0x85, 0x59, 0x1f, 0x3e, 0x7e, 0x1e, 0xa3, 0x3d, 0x37, 0x0b, 0x02, 0x3e,
  0x3c, 0xbb, 0x83, 0xbe, 0x9f, 0x04, 0x3a, 0xbd, 0xf6, 0xc2, 0xd7, 0x3e,
  0x49, 0xd2, 0xf5, 0x3c, 0xa4, 0xcc, 0x4e, 0xbd, 0xbf, 0x70, 0x7e, 0xbe,
  0x70, 0x07, 0xac, 0xbe, 0xc0, 0x16, 0x4b, 0x3d, 0x90, 0x7f, 0x94, 0x3e,
  0x2f, 0x01, 0x91, 0xbe, 0xd6, 0xc3, 0x29, 0x3e, 0xb1, 0x4b, 0xdf, 0x3e,
  0x23, 0x3d, 0x4d, 0x3d, 0x1d, 0xff, 0x81, 0xbd, 0xac, 0x59, 0xf9, 0x3e,
  0x02, 0x53, 0xda, 0xbd, 0xf6, 0x14, 0x90, 0xbc, 0xd9, 0x56, 0x78, 0xbe,
  0x30, 0xa5, 0x43, 0x3e, 0x23, 0xd0, 0x00, 0x3e, 0xc7, 0x99, 0x57, 0xbe,
  0x84, 0x36, 0x7e, 0xbe, 0xde, 0xb5, 0x38, 0x3d, 0xc4, 0x54, 0xbe, 0x3d,
  0xa9, 0x73, 0x35, 0x3e, 0xcf, 0x77, 0x35, 0xbe, 0x6e, 0x13, 0x0f, 0x3e,
  0x5d, 0x15, 0x87, 0x3e, 0x62, 0x51, 0x03, 0x3d, 0x82, 0xd1, 0xff, 0xbe,
  0xaa, 0xd7, 0xff, 0xbc, 0x25, 0xe7, 0x63, 0xbe, 0x66, 0x33, 0xd1, 0xbd,
  0x0e, 0x07, 0x90, 0xbe, 0x90, 0x6c, 0xaf, 0x3e, 0xfe, 0x7a, 0x3e, 0x3e,
  0x62, 0xd7, 0x2f, 0xbe, 0x6f, 0x67, 0x25, 0xbe, 0x28, 0xda, 0xa9, 0xbe,
  0xb4, 0xb3, 0x42, 0xbd, 0xc2, 0x9b, 0x95, 0x3c, 0xd9, 0xeb, 0x3e, 0xbe,
  0x81, 0xe9, 0xeb, 0x3d, 0xad, 0x05, 0xb5, 0x3e, 0x98, 0x73, 0xf4, 0xbe,
  0xf3, 0x11, 0x68, 0xbe, 0x3c, 0xf0, 0x49, 0x3e, 0xa7, 0x4c, 0x39, 0xbc,
  0x17, 0x0b, 0xc3, 0x3d, 0x76, 0x91, 0x2c, 0x3c, 0x56, 0xb5, 0xb8, 0x3e,
  0x34, 0x93, 0xc0, 0x3d, 0x5b, 0xd6, 0x02, 0xbc, 0xd9, 0x26, 0xcf, 0xbd,
  0x6d, 0xf1, 0x2d, 0xbe, 0x42, 0x96, 0x80, 0xbe, 0xce, 0x58, 0xde, 0x3d,
  0x85, 0x88, 0x1f, 0xbe, 0x21, 0xd2, 0x36, 0x3e, 0x0b, 0x35, 0xce, 0x3e,
  0xf8, 0x2b, 0x81, 0xbd, 0x37, 0xae, 0x55, 0xbd, 0xd6, 0x9f, 0xcc, 0x39,
  0xfd, 0x6d, 0x09, 0x3e, 0x9a, 0x1f, 0x29, 0x3d, 0x0d, 0xd1, 0x54, 0x3e,
  0x67, 0x04, 0x3e, 0xbd, 0x6e, 0x55, 0xc1, 0x3d, 0xb6, 0xef, 0x2d, 0xbe,
  0xda, 0x5c, 0xcb, 0x3d, 0xeb, 0xb8, 0x39, 0xbe, 0x22, 0x29, 0xbe, 0x3e,
  0x51, 0x88, 0x3b, 0x3e, 0xaa, 0xe9, 0xb4, 0xbc, 0xb3, 0xf1, 0x00, 0x3d,
  0x81, 0x71, 0x83, 0x3e, 0x8b, 0x2f, 0x15, 0xbe, 0x18, 0x96, 0x2f, 0x3e,
  0x70, 0x2d, 0x1b, 0xbe, 0x51, 0xa8, 0x2d, 0xbd, 0xe1, 0x8d, 0xc5, 0xbd,
  0x36, 0xdd, 0xd5, 0xbd, 0x69, 0x36, 0x04, 0xbe, 0x7f, 0xa8, 0xc0, 0xbd,
  0x34, 0x76, 0xb9, 0xbd, 0xa9, 0x7c, 0xdc, 0x3d, 0xc6, 0x42, 0x3a, 0xbe,
  0xd6, 0x25, 0x24, 0xbe, 0x97, 0x7c, 0xed, 0xbc, 0xb1, 0x5a, 0x21, 0xbe,
  0x26, 0x46, 0xcd, 0xbd, 0x92, 0xdd, 0x9d, 0xbd, 0x96, 0xed, 0xd6, 0x3c,
  0xb5, 0x13, 0x3c, 0xbd, 0xd7, 0x42, 0x8c, 0xbd, 0xb3, 0x63, 0x4c, 0xbd,
  0x9c, 0x09, 0x59, 0x3d, 0xd4, 0x64, 0x0e, 0xbe, 0x94, 0xb3, 0x57, 0x3d,
  0xb5, 0xee, 0x17, 0xbe, 0x37, 0x58, 0xaf, 0x3d, 0xa1, 0xe9, 0xbe, 0x3d,
  0xae, 0x49, 0xdd, 0xbd, 0x25, 0xa0, 0x75, 0x3b, 0xb7, 0xb9, 0x72, 0xbd,
  0xc6, 0x7e, 0x42, 0xbe, 0xdb, 0xcb, 0xc9, 0xbc, 0x68, 0x22, 0xdd, 0x3d,
  0x17, 0x79, 0xc5, 0xbd, 0x39, 0x8c, 0x53, 0xbe, 0x08, 0x4e, 0xa7, 0xbd,
  0xf8, 0xc2, 0x22, 0x3c, 0xb8, 0x08, 0xf0, 0x3c, 0x7f, 0x50, 0x51, 0xbe,
  0xd5, 0x4a, 0xed, 0xbd, 0xa0, 0xf7, 0x46, 0xbe, 0xcc, 0x35, 0x2b, 0xbe,
  0xbb, 0x3d, 0x1d, 0x3e, 0x63, 0xa1, 0x07, 0x3e, 0x53, 0x56, 0x3e, 0x3e,
  0x83, 0xa0, 0x04, 0xbe, 0xf5, 0xae, 0xbe, 0xbd, 0x5f, 0x75, 0x21, 0x3c,
  0x20, 0x5d, 0xe2, 0x3d, 0xd8, 0xaa, 0x15, 0xbe, 0x44, 0x29, 0x4c, 0xbd,
  0xa5, 0x65, 0x84, 0x3d, 0x87, 0xff, 0xd6, 0xbd, 0xd4, 0x87, 0x64, 0xbd,
  0x1e, 0xad, 0xcb, 0x3c, 0x1d, 0x3a, 0x1c, 0xbe, 0x12, 0x0b, 0x9b, 0xbd,
  0x54, 0x78, 0xb2, 0x3d, 0xb4, 0x5e, 0x0a, 0x3e, 0x68, 0x8c, 0x00, 0x3e,
  0xce, 0x34, 0xa7, 0xbd, 0x64, 0xc9, 0x00, 0xbe, 0x54, 0xf1, 0x85, 0xbe,
  0xe6, 0x9b, 0x54, 0xbe, 0xc0, 0xf0, 0x9c, 0x3b, 0x19, 0x60, 0xd9, 0xba,
  0xb8, 0xaf, 0x25, 0x3e, 0x27, 0xe2, 0xdf, 0xbc, 0x92, 0x20, 0xa5, 0x3c,
  0xe6, 0x53, 0xb7, 0xbd, 0x4c, 0xc7, 0x74, 0x3d, 0xd1, 0xf2, 0x0d, 0x3e,
  0xd4, 0xbe, 0x8a, 0xbd, 0x7a, 0x19, 0x1d, 0x3d, 0x61, 0x7d, 0x67, 0xbb,
  0x9d, 0x7a, 0xcd, 0xbd, 0x0e, 0x6c, 0xe4, 0x3d, 0xf6, 0xdf, 0xc8, 0x3c,
  0x69, 0xf2, 0x98, 0xbd, 0x2a, 0x8b, 0x11, 0xbe, 0xe5, 0x69, 0x80, 0x3c,
  0x25, 0xeb, 0xb9, 0x3d, 0x95, 0xc6, 0xab, 0xbd, 0x7d, 0x62, 0xb6, 0xbc,
  0x56, 0x01, 0x4f, 0xbe, 0x9f, 0xa3, 0x71, 0x3c, 0xa0, 0x36, 0x02, 0xbe,
  0x24, 0x0d, 0x1a, 0xbe, 0xf8, 0xe0, 0xb3, 0xbd, 0x6a, 0x1e, 0x59, 0xbd,
  0x9a, 0x6b, 0x46, 0xbd, 0x82, 0xd9, 0x10, 0xbb, 0xfc, 0x1a, 0x6c, 0x3e,
  0x5b, 0x4c, 0x85, 0x3d, 0xc4, 0xa7, 0xac, 0xbd, 0x37, 0x72, 0x99, 0xbd,
  0x31, 0xce, 0x11, 0xbe, 0x83, 0x11, 0x60, 0x3d, 0xa7, 0x0a, 0x64, 0xbe,
  0xbc, 0x1a, 0x3d, 0xbe, 0x02, 0x62, 0xb5, 0xbd, 0x5f, 0xaf, 0x6d, 0x3c,
  0x8a, 0x75, 0xf7, 0xbc, 0x84, 0x35, 0x61, 0x3d, 0x85, 0xd6, 0x71, 0xbe,
  0xcf, 0xf1, 0x2e, 0x3d, 0xf2, 0x69, 0xc0, 0xbd, 0x90, 0xf1, 0xfd, 0xbd,
  0xb7, 0xdf, 0x30, 0x3d, 0xea, 0x7d, 0xcd, 0xbd, 0x9b, 0x0d, 0xff, 0xbd,
  0x22, 0x3c, 0x25, 0xbe, 0xc9, 0xed, 0xb2, 0x3d, 0xe7, 0xf3, 0x55, 0x3d,
  0x56, 0xeb, 0xa1, 0x3d, 0x66, 0xbb, 0xee, 0xbd, 0xa8, 0x2b, 0x95, 0x3b,
  0x6b, 0xb0, 0x0c, 0xbe, 0xbe, 0x02, 0x80, 0xbe, 0xef, 0x2d, 0x44, 0xbd,
  0xaf, 0xea, 0xdc, 0xbd, 0x38, 0xf5, 0x2d, 0xbd, 0xa3, 0x32, 0x1f, 0xbe,
  0x6f, 0x96, 0x9d, 0xbd, 0x88, 0xd4, 0x36, 0xbe, 0xce, 0x12, 0xe6, 0x3d,
  0x56, 0x37, 0x9f, 0xbd, 0xca, 0x1c, 0x6d, 0xbe, 0x11, 0x52, 0xa0, 0xbd,
  0x64, 0xe8, 0xe5, 0x3d, 0x33, 0x89, 0x92, 0xbd, 0x69, 0xc6, 0x3a, 0x3c,
  0x67, 0xa8, 0xb6, 0xbc, 0x54, 0x3d, 0x3a, 0xbe, 0x21, 0x5f, 0xbf, 0xbd,
  0xc7, 0xf7, 0xdd, 0xbd, 0xdf, 0x82, 0x3a, 0xbd, 0xa3, 0xaa, 0xa3, 0x3d,
  0xbe, 0xc3, 0x8e, 0xbd, 0x54, 0x42, 0xdb, 0xbd, 0x20, 0xcd, 0x68, 0xbc,
  0x5f, 0x3d, 0xd6, 0xbc, 0xa1, 0xa2, 0x71, 0xbd, 0x51, 0x3b, 0xf2, 0x3c,
  0x20, 0x92, 0xe6, 0xbd, 0xcd, 0xed, 0x85, 0x3d, 0xb9, 0x22, 0x0e, 0xbe,
  0x27, 0x65, 0x19, 0xbe, 0x02, 0xd1, 0x01, 0xbe, 0x8a, 0xd6, 0x81, 0x3e,
  0x3d, 0xbf, 0xd8, 0x3b, 0x8c, 0x8b, 0xde, 0x3d, 0xcc, 0xb8, 0x56, 0xbe,
  0x5c, 0xa2, 0xe2, 0x3c, 0xc6, 0x09, 0x8b, 0x3d, 0xb8, 0x93, 0x3b, 0xbe,
  0x79, 0xd3, 0x9d, 0xbd, 0xde, 0xb9, 0x1a, 0xbe, 0x8d, 0xef, 0xb0, 0xbd,
  0xdd, 0x59, 0x43, 0x3d, 0x66, 0xcd, 0x21, 0xbe, 0x2e, 0x37, 0x21, 0xbe,
  0x10, 0x0e, 0xb6, 0x3d, 0x34, 0x45, 0x39, 0xbc, 0x29, 0xc0, 0xf9, 0xbd,
  0x95, 0x83, 0x6b, 0x3e, 0x28, 0xd0, 0x95, 0xbe, 0x70, 0x56, 0x03, 0x3c,
  0x56, 0x68, 0xe1, 0xbc, 0x41, 0x85, 0x2a, 0xbe, 0x50, 0x3a, 0xbb, 0x3d,
  0x95, 0xb5, 0x9c, 0xbd, 0xf1, 0xef, 0xb1, 0xbd, 0x35, 0x14, 0x74, 0x3d,
  0xd1, 0x84, 0x67, 0x3d, 0x12, 0x68, 0x5d, 0xbd, 0x82, 0x73, 0xa9, 0x3c,
  0x4d, 0x82, 0x6c, 0xbd, 0x43, 0x5c, 0xf7, 0xbd, 0x9d, 0x4a, 0xc1, 0xbd,
  0xd8, 0xbc, 0x40, 0xbe, 0x39, 0x1f, 0x02, 0xbe, 0x6a, 0x6c, 0xd4, 0xbb,
  0xc5, 0xfe, 0xb1, 0xbd, 0x9a, 0x94, 0x6f, 0xbd, 0x70, 0xac, 0xdf, 0xbd,
  0x93, 0x74, 0xf7, 0x3d, 0x39, 0xca, 0x51, 0xbe, 0x0c, 0x89, 0xba, 0x3d,
  0x3a, 0xc9, 0xc0, 0x3c, 0x49, 0x65, 0x74, 0xbe, 0x1f, 0x71, 0x62, 0xbd,
  0xe1, 0x5a, 0x5c, 0x3c, 0x75, 0x21, 0xee, 0x3d, 0x1d, 0x67, 0x33, 0xbe,
  0xd2, 0xf2, 0x97, 0x3d, 0x75, 0x58, 0x0e, 0xbe, 0x6b, 0x45, 0x89, 0x3d,
  0x8f, 0x0b, 0xe8, 0xbd, 0x5b, 0xf0, 0x0d, 0x3e, 0xaf, 0xa4, 0x4e, 0xbd,
  0xfe, 0x44, 0x82, 0xbd, 0xb8, 0x6f, 0xbe, 0xbd, 0x20, 0x84, 0x99, 0xbd,
  0x77, 0x0c, 0x3b, 0xbc, 0x18, 0x06, 0x86, 0xbc, 0x61, 0x23, 0x17, 0xbe,
  0xaf, 0xc7, 0xaa, 0x3d, 0xd7, 0x6d, 0x21, 0xbe, 0xb8, 0xc0, 0xb3, 0x3d,
  0x43, 0xde, 0xb1, 0xbd, 0x1f, 0x2c, 0x38, 0x3c, 0x5c, 0xcf, 0x63, 0xbe,
  0xb0, 0x56, 0x0d, 0x3e, 0x78, 0xf6, 0x61, 0xbd, 0xa5, 0xf3, 0xb1, 0xbd,
  0xab, 0xf0, 0x3b, 0xbd, 0xae, 0xf3, 0x7a, 0xbd, 0x6b, 0x11, 0xee, 0x3b,
  0x13, 0x19, 0xe8, 0x3c, 0xf2, 0x4d, 0x13, 0xbe, 0xab, 0x99, 0x54, 0x3d,
  0x93, 0xed, 0x40, 0xbd, 0x3a, 0x25, 0x25, 0xbe, 0x2a, 0x21, 0x5c, 0x3e,
  0x04, 0xbf, 0x9e, 0xbe, 0xc6, 0xdf, 0x2a, 0xbe, 0x1e, 0xbc, 0x63, 0xbe,
  0x94, 0xec, 0x43, 0xbe, 0x2f, 0x92, 0x50, 0x3d, 0x5b, 0x66, 0xb3, 0xbd,
  0x35, 0xc9, 0x9e, 0xbc, 0x29, 0x13, 0x31, 0xbd, 0x8f, 0x64, 0x8c, 0xbe,
  0xc6, 0xd9, 0xd3, 0xbd, 0xfb, 0x32, 0xd2, 0xbd, 0x1a, 0xaf, 0xb5, 0x3e,
  0xd7, 0x0d, 0x34, 0x3e, 0xfe, 0x63, 0xc1, 0x3b, 0x4a, 0xfc, 0x27, 0xbe,
  0x6e, 0x7e, 0x0c, 0xbd, 0x47, 0x11, 0xe7, 0x3d, 0xbd, 0xec, 0x05, 0xbe,
  0xea, 0xc9, 0xb7, 0xbd, 0x9f, 0x16, 0x08, 0x3d, 0x60, 0xf4, 0x6e, 0x3d,
  0x6f, 0xd9, 0xea, 0xbd, 0x9c, 0x9f, 0x00, 0xbe, 0x7d, 0x86, 0x55, 0xbd,
  0x6b, 0x0f, 0x4e, 0xbe, 0x41, 0x94, 0xc0, 0x3e, 0x10, 0x05, 0xfb, 0xbd,
  0x52, 0x0e, 0x57, 0x3e, 0xfc, 0xff, 0x63, 0x3e, 0xe5, 0x08, 0x53, 0x3c,
  0x9d, 0x4e, 0x93, 0xbe, 0x06, 0x4e, 0x4c, 0x3e, 0x98, 0xb5, 0xb0, 0x3e,
  0xb4, 0x46, 0x96, 0xbe, 0xa9, 0xd5, 0x03, 0x3e, 0xbe, 0x88, 0xc1, 0xbe,
  0x3c, 0x18, 0x61, 0x3d, 0x2a, 0x94, 0x58, 0xbd, 0x1a, 0x64, 0x0a, 0xbd,
  0x0f, 0xc5, 0x90, 0x3d, 0x44, 0x5a, 0xff, 0xbd, 0x7b, 0xc3, 0x90, 0x3e,
  0xd9, 0x35, 0x04, 0xbe, 0x96, 0x4e, 0x55, 0x3e, 0x18, 0x59, 0x8a, 0xbd,
  0xfc, 0x22, 0xa3, 0xbd, 0xd2, 0x42, 0x4b, 0xbe, 0x9f, 0x6f, 0x54, 0x3d,
  0x64, 0xe1, 0xa5, 0x3e, 0xe6, 0x8e, 0x54, 0x3c, 0xe6, 0x1e, 0xb0, 0x3d,
  0xfa, 0xf1, 0x01, 0xbe, 0x05, 0xa8, 0x2e, 0x3d, 0x01, 0x71, 0x9b, 0xbd,
  0x80, 0x90, 0x14, 0x3e, 0x1f, 0x99, 0x4b, 0xbd, 0xff, 0x25, 0x2b, 0xbe,
  0x7e, 0xa1, 0xc1, 0x3e, 0xfb, 0x00, 0xa8, 0xbd, 0x93, 0x62, 0x37, 0x3c,
  0xc2, 0xdc, 0x83, 0x3d, 0xde, 0xb5, 0xaa, 0xbd, 0xaf, 0x59, 0xcc, 0xbe,
  0x85, 0x56, 0x57, 0xbd, 0x44, 0x98, 0xe5, 0xbc, 0x06, 0xc3, 0xc4, 0x3c,
  0x5c, 0xe8, 0xfd, 0x3d, 0x29, 0xdd, 0xde, 0x3c, 0x50, 0x82, 0xfc, 0xbd,
  0xb4, 0x32, 0x00, 0x3d, 0xfe, 0x30, 0xf1, 0xbc, 0x5b, 0x88, 0x23, 0xbc,
  0x9d, 0xeb, 0xd1, 0xbe, 0xb9, 0x37, 0x8e, 0x3e, 0xe0, 0x1b, 0x76, 0xbc,
  0x0d, 0xa0, 0xd9, 0xbd, 0x0b, 0xb4, 0x3c, 0x3d, 0x1a, 0xff, 0x08, 0x3d,
  0x2f, 0x83, 0xdd, 0xbe, 0x32, 0xcc, 0xd6, 0xbd, 0x31, 0x48, 0x4b, 0x3d,
  0x78, 0x70, 0x65, 0x3d, 0xad, 0x4d, 0x58, 0x3e, 0x42, 0x1b, 0xec, 0xbc,
  0xef, 0x65, 0xd2, 0xbe, 0x61, 0xcf, 0xa5, 0x3d, 0x52, 0x57, 0xc0, 0x3d,
  0x93, 0xcb, 0xda, 0x3c, 0xc7, 0x4a, 0xdc, 0xbe, 0x11, 0x10, 0xa1, 0xbd,
  0x57, 0x3f, 0x20, 0xbe, 0xe4, 0xd0, 0xe7, 0xbe, 0xa1, 0xf3, 0x91, 0xbd,
  0x20, 0x9b, 0x8d, 0x3a, 0xf0, 0x2c, 0x21, 0xbe, 0x62, 0x07, 0xae, 0xbd,
  0xa6, 0x7e, 0x8e, 0xbe, 0x0f, 0x13, 0x81, 0x3d, 0xac, 0x4c, 0x8a, 0xbd,
  0xe2, 0x4a, 0xb4, 0xbc, 0x91, 0x98, 0xde, 0xbd, 0xb5, 0xbb, 0x61, 0xbd,
  0xdb, 0x45, 0x85, 0x3d, 0xbc, 0x32, 0xb3, 0x3d, 0x0c, 0x61, 0x7b, 0xbe,
  0xe8, 0xcd, 0x18, 0xbf, 0xc9, 0xe7, 0x81, 0xbe, 0xcc, 0x41, 0x05, 0xbd,
  0x14, 0xd5, 0xa3, 0xbd, 0x82, 0xc8, 0x31, 0xbd, 0x36, 0xe5, 0x9b, 0xbe,
  0xa9, 0x59, 0x2e, 0xbe, 0x2d, 0xc3, 0x0f, 0xbf, 0xb6, 0x6e, 0x93, 0x3b,
  0x8c, 0xfc, 0x4e, 0xbe, 0x39, 0xca, 0xbc, 0x3d, 0x9b, 0xf7, 0x09, 0x3e,
  0x94, 0x86, 0xa3, 0x3c, 0x48, 0xce, 0x5a, 0x3d, 0xaf, 0xce, 0xc0, 0x3b,
  0xf3, 0x6c, 0x63, 0x3c, 0x00, 0x8c, 0xc9, 0xbd, 0x45, 0x38, 0x44, 0xbe,
  0x2d, 0x99, 0x36, 0xbe, 0x13, 0x56, 0x23, 0xbb, 0x10, 0x84, 0x28, 0xbd,
  0x59, 0x22, 0xfb, 0x3c, 0x97, 0x47, 0xca, 0x3d, 0xed, 0x15, 0x33, 0xbf,
  0x89, 0xe5, 0xb3, 0x3c, 0x44, 0x4c, 0xea, 0x3c, 0xe1, 0xcf, 0x33, 0x3d,
  0x46, 0x6c, 0x00, 0x3e, 0x1d, 0x71, 0xdf, 0x3d, 0xef, 0xdb, 0x53, 0xbe,
  0x84, 0x7f, 0x21, 0x3d, 0x54, 0x9a, 0x00, 0xbe, 0x4c, 0x97, 0xab, 0x3e,
  0x3d, 0x68, 0xaa, 0xbc, 0x47, 0x54, 0x3f, 0xbe, 0xc9, 0x5e, 0xa0, 0xbc,
  0x29, 0xdc, 0x19, 0xbd, 0xac, 0x25, 0x18, 0xbe, 0x37, 0xa6, 0x23, 0x3d,
  0x5d, 0x33, 0x83, 0x3c, 0x73, 0x39, 0xca, 0xbc, 0x43, 0xa7, 0xb1, 0x3e,
  0x96, 0xfe, 0xa0, 0x3d, 0x88, 0xcb, 0xd4, 0xbd, 0xb1, 0x56, 0x96, 0x3d,
  0xc5, 0x8d, 0x9e, 0x3c, 0x71, 0xa2, 0x82, 0x3d, 0x06, 0x75, 0x37, 0xbe,
  0x17, 0x1b, 0x46, 0x3c, 0x0e, 0x8e, 0x31, 0xbe, 0xae, 0x78, 0x65, 0x3e,
  0x95, 0x79, 0x10, 0x3e, 0x17, 0x00, 0xe4, 0x3c, 0x81, 0x32, 0x8c, 0xbd,
  0x55, 0x83, 0xe6, 0x3c, 0xcb, 0xf6, 0x24, 0xbd, 0x56, 0xd7, 0x17, 0xbe,
  0x05, 0x0f, 0xc4, 0xbc, 0xc0, 0xcf, 0x37, 0x3d, 0x41, 0x52, 0x71, 0x3d,
  0xd0, 0x76, 0x54, 0xbd, 0xfb, 0x71, 0xfd, 0xbd, 0x9f, 0x77, 0x90, 0x3d,
  0x19, 0xa9, 0x23, 0x3e, 0x4c, 0xa8, 0xa1, 0x3e, 0x8c, 0xd7, 0x81, 0xbd,
  0xd5, 0x81, 0x4f, 0x3e, 0x3b, 0x5d, 0xed, 0x3d, 0xe3, 0xc4, 0xe3, 0xbc,
  0xed, 0x31, 0xd2, 0xbd, 0x76, 0xc3, 0xf9, 0x3d, 0x59, 0x02, 0x7e, 0x3c,
  0x71, 0xa2, 0xdf, 0xbd, 0x5b, 0x4e, 0x6f, 0x3e, 0x4a, 0x00, 0x37, 0xbd,
  0x8d, 0xb8, 0x28, 0xbd, 0xcc, 0x8b, 0x67, 0x3e, 0x11, 0xf1, 0x46, 0xbe,
  0xef, 0x80, 0x6c, 0xbc, 0xd2, 0xed, 0xc7, 0x39, 0x25, 0x77, 0x9c, 0x3e,
  0xe1, 0xf4, 0xc1, 0xbd, 0xc7, 0xc3, 0xf0, 0x3d, 0x6d, 0xd3, 0x4e, 0x3e,
  0x77, 0xbb, 0xba, 0xbd, 0xaa, 0x53, 0x4e, 0xbe, 0xe6, 0xcc, 0x8d, 0xbd,
  0xcd, 0x11, 0x8b, 0x3e, 0xe4, 0xa6, 0x31, 0xbe, 0x4e, 0x98, 0x46, 0x3e,
  0x08, 0x8f, 0x82, 0xbd, 0xb3, 0xc1, 0xaf, 0x3d, 0x75, 0x65, 0xb7, 0x3d,
  0x0a, 0x7b, 0x4d, 0xbe, 0x27, 0x27, 0xe0, 0xbc, 0xa6, 0x89, 0x96, 0xbd,
  0x32, 0x79, 0xa1, 0x3e, 0x65, 0xfd, 0x90, 0xbd, 0xbc, 0x56, 0xab, 0x3e,
  0x1c, 0xe8, 0xba, 0xbd, 0x69, 0xd3, 0x9f, 0xbd, 0xc8, 0x86, 0xf7, 0xbd,
  0xeb, 0x13, 0xc4, 0x3d, 0x51, 0xa0, 0x99, 0x3e, 0xba, 0x4b, 0x65, 0xbe,
  0x06, 0x77, 0x0c, 0x3e, 0xd0, 0xfc, 0xa0, 0xbe, 0x9c, 0xa1, 0xab, 0x3c,
  0x10, 0x14, 0xff, 0x3d, 0x75, 0xc8, 0x61, 0xbe, 0x96, 0xb2, 0x81, 0xbd,
  0x75, 0xe6, 0x1d, 0xbe, 0x8b, 0xee, 0xe9, 0xbd, 0xdd, 0x25, 0xab, 0xbd,
  0x24, 0x64, 0x2d, 0xbd, 0x0c, 0xf0, 0x96, 0xbb, 0xd9, 0xbe, 0x3f, 0xbd,
  0x86, 0xf9, 0x9f, 0xbe, 0xa7, 0x72, 0xdb, 0x3d, 0xc9, 0xc4, 0x80, 0x3d,
  0x79, 0x4b, 0x7c, 0xbe, 0xae, 0xc9, 0x4d, 0x3d, 0xf7, 0xbb, 0x1e, 0xbd,
  0xec, 0x11, 0xf9, 0xbc, 0xaf, 0x85, 0x08, 0xbd, 0x30, 0x08, 0xc8, 0x3e,
  0x47, 0x35, 0x15, 0xbd, 0x8a, 0xe9, 0x75, 0xbe, 0x4c, 0xae, 0xe4, 0x3d,
  0x62, 0x33, 0x2a, 0xbe, 0x53, 0x01, 0x08, 0xbf, 0xf5, 0x9f, 0xbf, 0xbe,
  0xe7, 0xbe, 0x7d, 0x3d, 0x4c, 0xd6, 0x12, 0xbe, 0x2d, 0x9e, 0x72, 0xbc,
  0x91, 0xcc, 0x0b, 0xbf, 0xe8, 0x48, 0x9f, 0xbd, 0x39, 0x71, 0x55, 0xbd,
  0xe4, 0xe4, 0x92, 0xbd, 0x85, 0xc8, 0xa2, 0x3e, 0xb6, 0x81, 0x19, 0x3e,
  0x9c, 0x48, 0x17, 0x3e, 0xc4, 0x9f, 0xab, 0xbd, 0x86, 0x34, 0xa4, 0xbe,
  0x3c, 0xe7, 0xa0, 0xbb, 0xff, 0x69, 0x11, 0x3d, 0xcc, 0x60, 0x2b, 0xbe,
  0x16, 0xbd, 0x39, 0x3d, 0x96, 0x3e, 0x56, 0x3c, 0x8a, 0xcf, 0x94, 0xbe,
  0xc7, 0x89, 0x11, 0x3d, 0xe4, 0x92, 0xfb, 0xbe, 0xef, 0x7c, 0xa0, 0xbd,
  0x10, 0xfe, 0x0f, 0xbf, 0x74, 0x29, 0xab, 0xbc, 0x1d, 0x54, 0xea, 0x3e,
  0x2a, 0x6a, 0x90, 0x3d, 0xe3, 0xb3, 0xf2, 0x3e, 0x17, 0x3d, 0x6e, 0xbd,
  0x7a, 0xfc, 0x5a, 0xbc, 0x2a, 0xb1, 0x6f, 0xbd, 0x8c, 0x5c, 0x04, 0x3c,
  0x05, 0xe1, 0xc2, 0xbe, 0xfe, 0x10, 0x6f, 0xbe, 0x35, 0x18, 0x9d, 0x3d,
  0xed, 0x81, 0xcf, 0xbd, 0x88, 0x49, 0x44, 0x3c, 0x54, 0xad, 0x6e, 0xbe,
  0xe1, 0x05, 0x07, 0xbd, 0x74, 0x80, 0x94, 0xbe, 0xb8, 0x15, 0x51, 0x3c,
  0x1c, 0xfd, 0x28, 0x3e, 0x4c, 0x10, 0x6e, 0x3d, 0xc0, 0x39, 0x99, 0x3e,
  0xc9, 0x90, 0x9f, 0x3c, 0xf1, 0x4e, 0xf5, 0x3b, 0x9a, 0x31, 0xcc, 0x3d,
  0x1b, 0x65, 0x6c, 0xbd, 0x04, 0xce, 0x13, 0xbf, 0xda, 0x96, 0xe4, 0xbe,
  0x83, 0x0f, 0xc9, 0x3d, 0x63, 0x59, 0xf9, 0xbc, 0x6a, 0x64, 0x83, 0xbd,
  0x58, 0x35, 0x9a, 0xbe, 0xcf, 0x57, 0x21, 0x3d, 0x2a, 0x13, 0x0a, 0xbc,
  0x01, 0x75, 0x5d, 0xbc, 0x74, 0x42, 0xd6, 0x3d, 0xd3, 0x33, 0x56, 0xbc,
  0xf1, 0x63, 0xc4, 0x3e, 0x54, 0xc3, 0x12, 0x3c, 0x25, 0x5a, 0xcc, 0x3c,
  0x14, 0xc5, 0x8b, 0x3e, 0x4d, 0xa0, 0x36, 0xbd, 0xf3, 0x38, 0xc3, 0xbe,
  0xfe, 0x20, 0x59, 0x3e, 0xc1, 0xb2, 0xdd, 0x3c, 0x6a, 0x94, 0x2b, 0x3d,
  0xea, 0xf8, 0xa4, 0xbc, 0xa9, 0xca, 0x59, 0xbe, 0x96, 0x3f, 0x26, 0x3e,
  0xdb, 0xa5, 0x21, 0xbe, 0x06, 0x19, 0x84, 0x3d, 0x47, 0xaf, 0x79, 0x3e,
  0xde, 0x80, 0xb4, 0x3d, 0x5a, 0xf8, 0x1c, 0x3f, 0x38, 0x31, 0x0e, 0xbe,
  0x3d, 0xa1, 0x84, 0xbe, 0xb6, 0x73, 0xe8, 0x3d, 0xbb, 0x2d, 0x3c, 0x3b,
  0x0c, 0x1d, 0x00, 0xbf, 0xc4, 0xaf, 0x10, 0xbe, 0xa0, 0xb5, 0x81, 0x3d,
  0xfc, 0xf4, 0x10, 0x3e, 0xcb, 0xb9, 0x0b, 0xbd, 0x98, 0x9c, 0x09, 0xbf,
  0x6b, 0xd1, 0x55, 0x3e, 0x76, 0x66, 0x76, 0xbe, 0x8a, 0x8f, 0x02, 0xbd,
  0xbe, 0x61, 0x2c, 0x3e, 0x97, 0xd6, 0x33, 0x3e, 0x32, 0x07, 0xc7, 0x3e,
  0x63, 0x5a, 0x61, 0xbd, 0xe9, 0xd1, 0x33, 0xbe, 0x8b, 0x81, 0x15, 0x3e,
  0x2e, 0x84, 0xb5, 0xbd, 0x69, 0x1e, 0xb8, 0xbe, 0x18, 0x1f, 0x9d, 0xbd,
  0x3a, 0x75, 0x03, 0x3d, 0x7f, 0x4a, 0x3b, 0x3e, 0x7a, 0xdc, 0x0c, 0x3b,
  0x29, 0x52, 0xf5, 0xbe, 0xc1, 0x83, 0xd8, 0x3d, 0xde, 0xd7, 0x79, 0xbe,
  0xa0, 0x2c, 0x20, 0x3e, 0x2e, 0x30, 0xc7, 0x3e, 0x35, 0x01, 0x1c, 0x3e,
  0x25, 0xff, 0x1a, 0x3f, 0x57, 0x06, 0x25, 0xbe, 0x08, 0x65, 0xb6, 0xbd,
  0x81, 0xdf, 0x82, 0x3d, 0x85, 0x15, 0x05, 0xbe, 0x40, 0x26, 0xb1, 0xbe,
  0xea, 0x75, 0x80, 0x3d, 0x4f, 0xdb, 0x87, 0x3b, 0x39, 0xaa, 0x28, 0xbc,
  0x14, 0x21, 0xb2, 0x3c, 0x1f, 0xd3, 0x04, 0xbf, 0xe9, 0xf9, 0xca, 0x3d,
  0xa9, 0xad, 0xb8, 0xbe, 0x7a, 0xa5, 0xaa, 0xbd, 0x31, 0x2e, 0xb6, 0x3e,
  0xb7, 0x89, 0x98, 0x3e, 0x36, 0xb3, 0x13, 0x3f, 0x4e, 0x49, 0x6a, 0xbe,
  0x1c, 0xb8, 0x3a, 0x3d, 0xc1, 0xa8, 0xa3, 0xbd, 0x6f, 0x7c, 0x17, 0xbe,
  0x20, 0x9b, 0xef, 0xbd, 0x8a, 0x4d, 0xdf, 0xbe, 0xd9, 0x7d, 0x0f, 0x3d,
  0xee, 0x3d, 0x8c, 0xbc, 0x01, 0x93, 0x52, 0xbc, 0xce, 0x63, 0x76, 0xbe,
  0x1b, 0xf3, 0x5d, 0x3c, 0xd0, 0x38, 0x64, 0xbe, 0xc6, 0xf9, 0xea, 0x3d,
  0x15, 0xba, 0x65, 0x3e, 0xfb, 0x0b, 0x66, 0x3e, 0x3d, 0x13, 0x09, 0x3f,
  0x0e, 0xfe, 0x20, 0xb9, 0x40, 0x5e, 0x43, 0x3e, 0xda, 0x19, 0xd4, 0x3c,
  0x29, 0xd5, 0xaf, 0x3b, 0x69, 0x60, 0xc0, 0xbe, 0x48, 0x08, 0x48, 0xbe,
  0xb9, 0xd4, 0x48, 0x3d, 0x2d, 0x5f, 0xda, 0x3d, 0x58, 0x49, 0x28, 0x3e,
  0x0c, 0x44, 0xc1, 0xbe, 0x70, 0xc1, 0xab, 0x3b, 0x77, 0x49, 0xc7, 0xbe,
  0x39, 0xa6, 0x34, 0x3e, 0x40, 0x3b, 0x32, 0x3e, 0xa9, 0xcb, 0x40, 0x3e,
  0xc8, 0x76, 0xc2, 0xbd, 0x8d, 0xb1, 0x2e, 0xbd, 0xc8, 0xcb, 0x33, 0x3e,
  0xb4, 0x8c, 0xeb, 0x3d, 0x9d, 0x1d, 0x32, 0x3c, 0x17, 0xf6, 0xc4, 0xbe,
  0x5b, 0x30, 0x31, 0xbe, 0xf6, 0x72, 0x40, 0x3d, 0x9e, 0x26, 0x33, 0x3e,
  0xc6, 0x6b, 0xc6, 0x3d, 0x4a, 0xe2, 0x8b, 0xbe, 0x1c, 0xba, 0x80, 0x3c,
  0x24, 0xdf, 0xe5, 0xbe, 0x6b, 0xef, 0x82, 0x3e, 0xc3, 0x40, 0x83, 0x3e,
  0xb6, 0xbf, 0x2f, 0x3e, 0x47, 0xcc, 0xa6, 0xbd, 0x0f, 0xbf, 0x23, 0xbe,
  0x33, 0xba, 0x66, 0x3c, 0x48, 0xe0, 0x51, 0x3e, 0xf1, 0xda, 0x7b, 0xbd,
  0xb3, 0x42, 0x8e, 0xbe, 0x41, 0x23, 0xae, 0x3c, 0x46, 0x46, 0x85, 0x3d,
  0x28, 0x09, 0x24, 0x3e, 0x8e, 0x3e, 0x4e, 0x3d, 0xa1, 0x0b, 0x64, 0xbe,
  0xa1, 0xd4, 0xb3, 0x3d, 0x8f, 0x73, 0x39, 0xbf, 0x3a, 0x62, 0x60, 0x3e,
  0x39, 0x43, 0x04, 0x3e, 0xef, 0x62, 0x50, 0xbd, 0x57, 0xc9, 0x8e, 0x3e,
  0x66, 0x44, 0x7d, 0xbe, 0xc0, 0x51, 0x48, 0xbe, 0x6d, 0x68, 0xcd, 0x3d,
  0x5a, 0x54, 0xad, 0xbc, 0xb1, 0x11, 0x03, 0x3e, 0x29, 0xc4, 0xb1, 0x3d,
  0xbe, 0x92, 0x89, 0x3c, 0x8b, 0x4a, 0xc5, 0x3d, 0xf9, 0x21, 0xd4, 0x39,
  0xb5, 0xa0, 0xa0, 0xbd, 0xba, 0xa1, 0xdb, 0xbd, 0x3a, 0xb4, 0x08, 0xbf,
  0xfd, 0xeb, 0xf0, 0x3b, 0x12, 0xfe, 0xe5, 0xbe, 0x02, 0xe1, 0x25, 0xbd,
  0x22, 0x42, 0x12, 0x3e, 0x14, 0xfa, 0x35, 0xbe, 0x16, 0xe0, 0xdf, 0xbe,
  0x90, 0xdf, 0xc6, 0xbe, 0x56, 0xde, 0x09, 0x3e, 0xdd, 0x42, 0x48, 0x3e,
  0xe7, 0x52, 0x5b, 0x3e, 0x14, 0xb6, 0x4b, 0x3c, 0xc4, 0x2d, 0xcb, 0x3d,
  0xd9, 0xae, 0x93, 0xbd, 0x2e, 0x6e, 0x82, 0xbe, 0x91, 0x58, 0x84, 0x3d,
  0x09, 0x26, 0xc9, 0xbe, 0x97, 0xa4, 0x07, 0xbe, 0xc8, 0xe6, 0x1f, 0xbd,
  0x07, 0xd6, 0xf9, 0x3c, 0x05, 0x95, 0x33, 0xbe, 0x29, 0x8c, 0x1b, 0x3e,
  0x18, 0x3f, 0x04, 0xbe, 0x50, 0xc4, 0xa8, 0xbd, 0x11, 0xcb, 0xbe, 0xbe,
  0xa8, 0x71, 0xff, 0x3d, 0xa9, 0x50, 0xe9, 0x3d, 0xa3, 0xd4, 0xd5, 0xbc,
  0x3d, 0x27, 0xe1, 0xbe, 0x7f, 0x77, 0xf6, 0x3d, 0x57, 0x1b, 0x3e, 0xbe,
  0x2d, 0x22, 0x49, 0xbd, 0x30, 0x0b, 0xcb, 0x3c, 0xa2, 0x27, 0x5c, 0xbd,
  0x4b, 0x22, 0x3f, 0x3e, 0xb3, 0xda, 0x1e, 0xbd, 0x92, 0x0d, 0x5c, 0xbe,
  0x4b, 0x41, 0x2c, 0xbd, 0x20, 0x62, 0xdb, 0x3d, 0x9b, 0xea, 0xaf, 0x3e,
  0x81, 0x6f, 0x8d, 0xbe, 0x70, 0xd2, 0x99, 0x3e, 0x9e, 0x5c, 0x83, 0x3e,
  0xe1, 0xbf, 0x22, 0xbe, 0x89, 0x11, 0x99, 0xbd, 0x26, 0x85, 0x40, 0x3e,
  0x4d, 0x0e, 0x1e, 0x3e, 0x47, 0x3e, 0xf0, 0xbd, 0xb0, 0x6e, 0x0c, 0x3e,
  0x34, 0xe5, 0x6a, 0xbe, 0xb0, 0x75, 0x03, 0x3d, 0x24, 0xc2, 0x43, 0xbe,
  0xe8, 0x86, 0xeb, 0xbd, 0xf8, 0xf9, 0x84, 0xbe, 0x8d, 0x30, 0xc8, 0x3d,
  0x83, 0x8d, 0xac, 0x3e, 0x21, 0xc5, 0x48, 0xbe, 0xf4, 0x18, 0x81, 0x3e,
  0x77, 0x00, 0xa2, 0x3e, 0x14, 0xa0, 0xd5, 0xbd, 0x00, 0xcc, 0x04, 0x3e,
  0xeb, 0xe5, 0x65, 0x3e, 0xb2, 0x78, 0x5c, 0x3e, 0x0c, 0x38, 0x99, 0xbc,
  0x54, 0x09, 0x7a, 0x3e, 0xa0, 0x6a, 0x4f, 0x3c, 0x67, 0x70, 0xd5, 0xbd,
  0x4e, 0x2a, 0xdc, 0xbd, 0x65, 0xb3, 0xa1, 0x3d, 0x6b, 0x26, 0x33, 0xbe,
  0xb7, 0x81, 0xba, 0xbd, 0x96, 0x64, 0x62, 0x3e, 0xd5, 0xec, 0x43, 0xbd,
  0xe0, 0x41, 0x28, 0x3e, 0x4b, 0x5d, 0xc0, 0x3e, 0xde, 0x90, 0x64, 0xbe,
  0x98, 0xa2, 0x00, 0xbe, 0x7c, 0x8c, 0xb9, 0x3c, 0x11, 0xa3, 0x9b, 0x3e,
  0x33, 0x95, 0x9b, 0x3b, 0x6f, 0xae, 0xb7, 0x3e, 0x0d, 0xdf, 0x3f, 0xbe,
  0x3d, 0x71, 0xf5, 0xbd, 0x28, 0x14, 0x60, 0xbe, 0xf7, 0xd1, 0x02, 0xbd,
  0xe7, 0x9d, 0x1c, 0xbe, 0x0e, 0x71, 0xbb, 0xbd, 0x42, 0x00, 0x6b, 0x3e,
  0x5f, 0x0f, 0xc1, 0xbd, 0x4a, 0xe8, 0x48, 0x3e, 0xcc, 0x05, 0x93, 0x3e,
  0x28, 0xf9, 0x41, 0xbe, 0xd1, 0x20, 0x91, 0xbe, 0x15, 0x90, 0x74, 0x3e,
  0xe0, 0xe6, 0x02, 0x3e, 0x0e, 0x21, 0x92, 0xbd, 0xf1, 0xd9, 0x44, 0x3e,
  0x3d, 0xe7, 0x27, 0xbe, 0xd3, 0x4f, 0x3c, 0x3d, 0x9f, 0x7f, 0x0a, 0xbe,
  0x4c, 0x58, 0x6c, 0x3d, 0x0e, 0x94, 0x2e, 0xbd, 0x83, 0x6b, 0x36, 0xbe,
  0x93, 0xb9, 0x0e, 0x3f, 0xe7, 0x5a, 0x95, 0xbe, 0xd1, 0xd8, 0x45, 0x3e,
  0x40, 0xea, 0xd6, 0xbd, 0x77, 0xe8, 0x8b, 0xbd, 0x02, 0xe3, 0xd4, 0xbd,
  0x92, 0xa3, 0x67, 0x3d, 0xab, 0xe3, 0x1e, 0x3d, 0x86, 0x46, 0x95, 0x3d,
  0xb0, 0xdd, 0xe4, 0x3d, 0x93, 0xcd, 0xea, 0xbd, 0xb8, 0x4e, 0x38, 0xbe,
  0x82, 0x38, 0x71, 0x3e, 0x07, 0xb6, 0x8b, 0x3e, 0xf4, 0xe2, 0xde, 0x3a,
  0x27, 0x71, 0xf6, 0x3c, 0x2d, 0xad, 0xd4, 0x3d, 0x31, 0xe4, 0x9b, 0xbe,
  0x5a, 0x3e, 0x8e, 0xbe, 0xd6, 0xcb, 0x91, 0xbd, 0x6b, 0x88, 0x57, 0x3d,
  0xde, 0xd5, 0x8e, 0xbe, 0xfa, 0xf3, 0x99, 0xbd, 0xfe, 0x7a, 0x6a, 0x3d,
  0x25, 0xb6, 0xb5, 0x3b, 0xaa, 0x39, 0x09, 0x3e, 0x75, 0x82, 0x9e, 0xbe,
  0x3a, 0xb4, 0xbf, 0xba, 0xb7, 0x4f, 0x19, 0xbc, 0x82, 0xfa, 0xb8, 0x3e,
  0x58, 0xd7, 0xc4, 0xbc, 0x59, 0xb8, 0xbb, 0xbd, 0xc2, 0xb3, 0xeb, 0x3e,
  0x9e, 0x8f, 0x8e, 0xbe, 0xa1, 0x59, 0x8b, 0xbe, 0x62, 0x51, 0x42, 0xbe,
  0x4f, 0xb4, 0xea, 0xbc, 0x22, 0x29, 0x80, 0xbe, 0x8d, 0x67, 0xfa, 0x3c,
  0xb5, 0xa4, 0x1c, 0x3e, 0xa8, 0x32, 0xaf, 0xbc, 0xd6, 0x79, 0xe9, 0x3d,
  0x70, 0x56, 0x1d, 0xbe, 0x0f, 0xd8, 0x34, 0xbe, 0x6f, 0x05, 0xff, 0xbc,
  0x93, 0x56, 0xe4, 0x3d, 0x7f, 0xe3, 0x10, 0x3d, 0xc3, 0x30, 0x49, 0xbe,
  0xdd, 0xe2, 0x47, 0x3e, 0x54, 0x57, 0x51, 0xbe, 0x68, 0xe0, 0xfc, 0xbe,
  0x4f, 0x36, 0x37, 0xbc, 0xba, 0x9a, 0x32, 0xbd, 0x7d, 0xa8, 0x10, 0xbe,
  0x0d, 0x31, 0x1c, 0x3c, 0xa9, 0x77, 0x54, 0xbe, 0x77, 0x1e, 0x00, 0xbc,
  0x1b, 0xf9, 0x67, 0x3c, 0x32, 0xb4, 0x1b, 0x3e, 0xa6, 0xba, 0xcc, 0xbd,
  0x89, 0xe6, 0x6f, 0xbd, 0x72, 0x94, 0xbf, 0x3d, 0xa2, 0x6b, 0x28, 0x3d,
  0x93, 0xff, 0x40, 0xbe, 0xa5, 0x38, 0x36, 0x3e, 0x89, 0x1e, 0xbc, 0xbd,
  0xa4, 0xe5, 0x8d, 0xbe, 0xa9, 0xf7, 0xb5, 0x3c, 0xfd, 0x76, 0x75, 0xbd,
  0xaf, 0x3a, 0xd6, 0xbd, 0xbc, 0x96, 0x91, 0x3c, 0x4a, 0xf8, 0x42, 0xbd,
  0x4a, 0x88, 0x99, 0xbd, 0xea, 0x3c, 0x0c, 0xbe, 0x3a, 0x0b, 0xad, 0x3d,
  0x67, 0x3c, 0x53, 0x3d, 0xae, 0x97, 0x49, 0x3c, 0x75, 0x5d, 0x95, 0x3e,
  0xac, 0x77, 0x39, 0xbd, 0xa7, 0x9c, 0x24, 0xbe, 0x11, 0x74, 0x49, 0xbe,
  0x8b, 0xc1, 0x1a, 0xbd, 0x73, 0x85, 0x2e, 0xbe, 0xcd, 0x93, 0x57, 0xbe,
  0xec, 0x21, 0x74, 0xbc, 0xfa, 0xbd, 0x17, 0x3d, 0x31, 0x17, 0x13, 0xbc,
  0xb5, 0xaf, 0x5f, 0xbe, 0xf9, 0x28, 0x38, 0x3c, 0xa1, 0x70, 0x62, 0xbe,
  0x8e, 0xbe, 0x17, 0x3e, 0x0c, 0xc4, 0xf9, 0xbd, 0xac, 0xa4, 0x81, 0xbc,
  0x56, 0x9f, 0xb4, 0x3d, 0xea, 0x15, 0x19, 0x3e, 0x9b, 0xbf, 0x45, 0xbe,
  0x1d, 0xfb, 0x90, 0xbe, 0xf1, 0x0e, 0x45, 0xbe, 0xd1, 0x34, 0x71, 0xbe,
  0xb0, 0x4a, 0x38, 0xbe, 0x02, 0x3c, 0x30, 0x3b, 0xdf, 0x53, 0xef, 0xbd,
  0xb0, 0x01, 0x0f, 0xbe, 0x66, 0x50, 0x7f, 0xbe, 0x3a, 0x4e, 0x28, 0x3d,
  0x12, 0x8b, 0x53, 0xbe, 0x73, 0x27, 0x12, 0x3e, 0xfb, 0xfe, 0xca, 0xbd,
  0x85, 0xb7, 0xa3, 0x3b, 0x0b, 0xb5, 0x33, 0xbc, 0x87, 0x3f, 0x16, 0x3c,
  0xf1, 0x33, 0x45, 0xbe, 0xfb, 0x73, 0xd5, 0xbe, 0x9d, 0x37, 0x30, 0xbc,
  0x93, 0x84, 0x43, 0xbe, 0x3d, 0xc3, 0x33, 0xbe, 0x09, 0xf1, 0xa8, 0xbc,
  0x81, 0xaf, 0xe6, 0xbd, 0xe2, 0x12, 0x37, 0x3e, 0x9f, 0x5e, 0xd5, 0xbe,
  0x14, 0x2f, 0x18, 0xbd, 0xee, 0xa9, 0x3a, 0xbc, 0xab, 0xa9, 0xc0, 0xbd,
  0xed, 0x01, 0xf0, 0xbd, 0x2f, 0x61, 0xec, 0x3d, 0x3b, 0x00, 0xe3, 0xbc,
  0xca, 0xb0, 0x06, 0xbd, 0x1e, 0x52, 0x35, 0xbd, 0xde, 0xd7, 0x0f, 0xbf,
  0xb9, 0x94, 0xbb, 0xbd, 0x08, 0x6b, 0x97, 0xbe, 0x03, 0xc8, 0x24, 0xbe,
  0xf3, 0x30, 0x3c, 0xbd, 0x2f, 0x41, 0x0f, 0x3e, 0x2f, 0x31, 0x5c, 0xbd,
  0x55, 0x93, 0xa4, 0xbe, 0x16, 0x32, 0x16, 0x3d, 0xd9, 0x40, 0x66, 0xbe,
  0x87, 0x0a, 0x88, 0xbe, 0xed, 0x3b, 0x0e, 0x3e, 0x21, 0xe9, 0xbc, 0xbe,
  0xe0, 0xc2, 0xde, 0xbe, 0x05, 0x65, 0x52, 0x3e, 0x17, 0xda, 0x1c, 0x3e,
  0xaf, 0xad, 0xea, 0x3d, 0x21, 0x9f, 0xb5, 0x3e, 0x8d, 0xc6, 0x23, 0xbe,
  0xeb, 0x93, 0x93, 0x3e, 0xe0, 0x28, 0xf7, 0xbe, 0x1e, 0x46, 0x82, 0x3e,
  0x3e, 0xb0, 0x65, 0x3e, 0xde, 0xef, 0xda, 0x3e, 0xf9, 0x92, 0x8e, 0xbe,
  0xc4, 0x3d, 0xc5, 0xbe, 0x1c, 0x08, 0x85, 0x3d, 0x27, 0x4e, 0xd0, 0xbe,
  0x31, 0x35, 0x05, 0xbe, 0x9c, 0x98, 0x88, 0x3e, 0x48, 0x6c, 0x5c, 0xbc,
  0x1b, 0xd7, 0x9c, 0xbd, 0x1d, 0x35, 0x87, 0xbe, 0xfd, 0xe5, 0x6f, 0x3d,
  0xea, 0xe7, 0x8e, 0x3c, 0x0b, 0xda, 0x60, 0x3e, 0x01, 0x00, 0x64, 0xbe,
  0xe5, 0x2e, 0xd9, 0xbd, 0x8a, 0xb4, 0xd4, 0x3e, 0x43, 0x4c, 0x4a, 0x3e,
  0x55, 0x33, 0x95, 0xbe, 0x36, 0x3c, 0x5e, 0xbe, 0x93, 0xbe, 0x50, 0x3e,
  0x07, 0x2c, 0xe7, 0xbd, 0xa5, 0xc3, 0x24, 0xbe, 0x02, 0x62, 0x8d, 0xbe,
  0x4b, 0xd7, 0xdc, 0xbd, 0xc3, 0xeb, 0x2c, 0x3d, 0x5d, 0x07, 0x94, 0xbe,
  0x7b, 0x7a, 0xe4, 0x3c, 0x25, 0x33, 0x93, 0x3c, 0x2a, 0x27, 0x0d, 0xbd,
  0x39, 0x44, 0x7c, 0xbe, 0xcb, 0x28, 0x82, 0x3c, 0x51, 0x31, 0x8d, 0x3e,
  0x1b, 0xca, 0xf2, 0x3d, 0xf6, 0xe8, 0xed, 0xbd, 0x5b, 0x6a, 0x94, 0xbd,
  0x67, 0xa8, 0x2b, 0x3e, 0x4d, 0x9a, 0x6b, 0x3e, 0xd8, 0x75, 0x97, 0xbe,
  0x0a, 0x57, 0x07, 0xbd, 0x5c, 0x22, 0xd4, 0x3d, 0x2a, 0x32, 0x35, 0xbd,
  0x63, 0xbe, 0x22, 0xbe, 0xea, 0x3c, 0xbc, 0xbd, 0x65, 0x14, 0xaa, 0x3e,
  0x5f, 0x23, 0x23, 0x3c, 0x02, 0x54, 0x16, 0xbe, 0x1b, 0xe8, 0xde, 0x3c,
  0x24, 0xa4, 0x1c, 0x3e, 0x87, 0x7a, 0x4b, 0x3e, 0x2c, 0xe4, 0x8e, 0xbd,
  0xb4, 0xfd, 0x0f, 0xbd, 0xb7, 0xf6, 0x60, 0x3c, 0x73, 0x75, 0x85, 0x3e,
  0xa7, 0x4d, 0xbe, 0xbd, 0x7f, 0x1e, 0x84, 0xbe, 0x21, 0x8d, 0x91, 0xbd,
  0x87, 0x5b, 0x03, 0x3d, 0x40, 0xfb, 0x88, 0xbd, 0x51, 0xe8, 0x11, 0xbe,
  0x1e, 0xa7, 0x9a, 0x3e, 0xc8, 0xf5, 0x78, 0xbc, 0xc3, 0x4b, 0x81, 0x3d,
  0x44, 0x81, 0x20, 0x3d, 0x60, 0xf0, 0x26, 0xbd, 0x8a, 0x20, 0x85, 0x3e,
  0x64, 0x3a, 0x20, 0xbe, 0xc4, 0xd0, 0x93, 0x3c, 0xe4, 0x3c, 0xb3, 0x3c,
  0x58, 0x34, 0x7e, 0x3e, 0xb0, 0xd5, 0xa6, 0x3e, 0xcd, 0x9c, 0x33, 0xbe,
  0xfb, 0x52, 0xaf, 0xbc, 0x7b, 0x59, 0xa3, 0x3c, 0x75, 0x7c, 0x7f, 0xbc,
  0x3e, 0x6c, 0x8b, 0x3c, 0x39, 0x40, 0x97, 0x3e, 0x6c, 0x30, 0xa1, 0x3e,
  0xef, 0xfa, 0x66, 0x3e, 0x12, 0xdc, 0xcb, 0x3d, 0x89, 0xa7, 0x40, 0x3e,
  0xcd, 0x8e, 0xa3, 0x3e, 0x93, 0x4e, 0xa6, 0x3c, 0x46, 0x0b, 0xeb, 0x3c,
  0x89, 0xdb, 0xf1, 0xbe, 0xad, 0xfd, 0x4d, 0x3e, 0x1a, 0xa3, 0xc3, 0x3e,
  0x1c, 0x27, 0x62, 0x3e, 0x39, 0xf1, 0x20, 0xbb, 0x24, 0x2e, 0x05, 0x3e,
  0x02, 0x4b, 0xe0, 0x3d, 0xdb, 0xed, 0xd6, 0xbb, 0xc0, 0xd3, 0x08, 0x3e,
  0x48, 0x2a, 0x51, 0x3e, 0x58, 0xfd, 0x2d, 0x3d, 0x6d, 0x41, 0x40, 0x3c,
  0x1c, 0x8d, 0x9c, 0x3e, 0x68, 0x7a, 0x20, 0x3b, 0x0a, 0xde, 0x0c, 0xbe,
  0x6f, 0x69, 0x3c, 0x3c, 0x62, 0x30, 0x9f, 0xbe, 0x4e, 0x67, 0x2e, 0x3d,
  0x8a, 0x2a, 0x7e, 0x3e, 0xc1, 0x42, 0x8e, 0x3e, 0x4e, 0x28, 0x97, 0x3d,
  0x0c, 0x44, 0x16, 0xbe, 0x14, 0xf3, 0x22, 0x3e, 0x2b, 0xad, 0xcd, 0xbd,
  0x4a, 0x3a, 0x3d, 0x3e, 0xb5, 0x6d, 0xf7, 0xbc, 0xc6, 0x3d, 0x88, 0xbc,
  0x81, 0xc6, 0x06, 0xbe, 0xd1, 0xf1, 0x02, 0x3e, 0x40, 0xd0, 0x61, 0x3e,
  0x0b, 0x6c, 0x42, 0xbd, 0x42, 0x47, 0x44, 0xbe, 0xf9, 0x8f, 0xfc, 0xbd,
  0x98, 0xfe, 0xcd, 0xbd, 0xb2, 0x80, 0x0e, 0x3e, 0x12, 0x3d, 0x11, 0x3e,
  0xdd, 0xec, 0x1c, 0xbd, 0xb7, 0xc9, 0xa0, 0x3d, 0xb1, 0x44, 0x48, 0xbd,
  0xc6, 0xbb, 0x2b, 0xbd, 0xfc, 0x69, 0xe9, 0x3d, 0xda, 0xbf, 0x5d, 0x3d,
  0x7e, 0xe6, 0x54, 0x3e, 0x7e, 0x3e, 0x14, 0xbe, 0xb5, 0x35, 0x0f, 0x3e,
  0x97, 0xd1, 0x96, 0x3d, 0xf4, 0x80, 0xf5, 0x3c, 0xdc, 0xe2, 0xa3, 0x3b,
  0x7d, 0x93, 0xd1, 0x3d, 0x5b, 0x50, 0xdf, 0x3d, 0x88, 0xa5, 0x91, 0x3e,
  0x0e, 0x60, 0x23, 0x3e, 0x37, 0x5f, 0x42, 0xbe, 0xbc, 0x39, 0x9a, 0x3d,
  0xc6, 0xb2, 0xf6, 0xbd, 0xde, 0x1a, 0x7d, 0x3d, 0x8e, 0x48, 0x18, 0x3e,
  0xd8, 0x70, 0x16, 0x3e, 0x0d, 0x9d, 0x44, 0xbe, 0x78, 0x8b, 0x6f, 0xbd,
  0x57, 0xcd, 0xb8, 0x3e, 0xb8, 0xff, 0xa1, 0x3d, 0x40, 0x46, 0x61, 0xbd,
  0x0d, 0x79, 0xb7, 0xbe, 0x6e, 0x43, 0x30, 0x3e, 0x1a, 0xe4, 0xee, 0x3d,
  0x88, 0xf5, 0xa6, 0xbd, 0x81, 0x75, 0x16, 0xbe, 0xf0, 0xc0, 0x16, 0xbe,
  0x98, 0x19, 0xa6, 0x3d, 0xa3, 0x73, 0xa6, 0xbe, 0x78, 0x98, 0xe0, 0xbc,
  0x69, 0x9d, 0xa0, 0x3d, 0x91, 0xac, 0x2c, 0x3d, 0x73, 0xeb, 0xee, 0xbe,
  0x07, 0x65, 0x2d, 0x3e, 0x33, 0x28, 0x89, 0x3e, 0x1a, 0x45, 0x5b, 0x3e,
  0xe4, 0x17, 0x82, 0xbe, 0xa0, 0xb6, 0x0d, 0xbe, 0x1a, 0x6d, 0x1b, 0xbe,
  0x84, 0x36, 0x86, 0xbc, 0xc6, 0xf9, 0x10, 0xbf, 0x2e, 0xfe, 0xc2, 0x3d,
  0x6f, 0xf6, 0xd0, 0xba, 0x5d, 0xa5, 0x01, 0xbd, 0xb8, 0x7b, 0x97, 0xbe,
  0x44, 0x01, 0x57, 0x3d, 0x05, 0xa2, 0x30, 0x3d, 0x19, 0x25, 0xc3, 0xbc,
  0xb5, 0xbd, 0x48, 0xbf, 0x7c, 0x47, 0x99, 0x3e, 0xa7, 0xd3, 0x3f, 0x3e,
  0x22, 0x3d, 0xac, 0x3d, 0x07, 0x41, 0xc1, 0xbe, 0xf4, 0x7a, 0x9e, 0xbd,
  0x11, 0x1b, 0x08, 0x3e, 0x62, 0x45, 0x6e, 0x3c, 0x19, 0x4b, 0x01, 0xbf,
  0xee, 0x87, 0xe6, 0x3d, 0xc9, 0xba, 0x90, 0xbe, 0xd4, 0x79, 0x06, 0xba,
  0x18, 0xef, 0x47, 0xbe, 0x61, 0xe2, 0xec, 0x3c, 0xe0, 0x93, 0x0b, 0x3d,
  0x86, 0x54, 0xa8, 0x3c, 0x13, 0x26, 0x51, 0xbf, 0x3c, 0xe6, 0xb6, 0x3d,
  0x41, 0x25, 0xd4, 0x3d, 0x0b, 0x17, 0xa0, 0x3d, 0x29, 0x09, 0xa7, 0x3c,
  0x4e, 0x81, 0x32, 0xbd, 0xd5, 0x5c, 0x73, 0x3e, 0x53, 0x04, 0x40, 0xbd,
  0x40, 0xb4, 0x61, 0x3c, 0x16, 0x10, 0xbd, 0xbd, 0x3b, 0x8b, 0x7f, 0xbe,
  0x8a, 0x91, 0x3d, 0x3e, 0xfa, 0x36, 0x8b, 0x3d, 0xc0, 0xcc, 0x51, 0x3c,
  0x37, 0xf8, 0x75, 0x3e, 0x82, 0x4a, 0x8a, 0xbd, 0x5d, 0xf2, 0xfc, 0xbe,
  0x61, 0xe5, 0x8f, 0xbd, 0x26, 0x30, 0x17, 0x3d, 0xf5, 0x40, 0xbc, 0x3d,
  0xe3, 0xa2, 0xbc, 0x3d, 0x4a, 0x70, 0x1f, 0x3e, 0xb2, 0x4b, 0x29, 0xbf,
  0xa6, 0xae, 0x61, 0x3e, 0xac, 0x66, 0x2c, 0xbd, 0xda, 0x45, 0x0a, 0xbf,
  0xed, 0x89, 0x30, 0xbd, 0x55, 0xb4, 0xcf, 0xbd, 0x64, 0x16, 0x0c, 0xbc,
  0xfe, 0x36, 0x8b, 0x3e, 0xc3, 0x3c, 0x30, 0xbc, 0x66, 0x86, 0x3f, 0x3e,
  0x77, 0xc7, 0x06, 0xbf, 0x37, 0x38, 0xc6, 0x3d, 0xe2, 0x37, 0x99, 0x3e,
  0x09, 0x35, 0x6f, 0x3e, 0x8e, 0x85, 0x16, 0xbf, 0x6c, 0x04, 0xbf, 0xbe,
  0x76, 0x2e, 0x63, 0x3e, 0x96, 0xc6, 0xfd, 0xbd, 0xc8, 0x86, 0x83, 0xbe,
  0x18, 0xb2, 0xb4, 0xbe, 0x86, 0xb7, 0xad, 0x3c, 0x54, 0x1c, 0x37, 0xbc,
  0x95, 0x4f, 0xe6, 0x3d, 0xa2, 0x40, 0xff, 0x3c, 0x51, 0x4a, 0x31, 0x3d,
  0xa3, 0xa5, 0x8c, 0x3e, 0x2a, 0x46, 0x0f, 0xbf, 0x37, 0xb4, 0xf7, 0xbd,
  0x94, 0x2f, 0xad, 0x3e, 0xa1, 0x74, 0x0c, 0xbe, 0x14, 0xdd, 0x10, 0xbf,
  0x88, 0xbd, 0xb3, 0xbe, 0x35, 0xc0, 0x9a, 0x3d, 0x7d, 0x8f, 0xdd, 0x3d,
  0x95, 0x72, 0x33, 0xbe, 0x9b, 0xc2, 0x07, 0xbf, 0x92, 0x5e, 0x2a, 0xbe,
  0x35, 0x49, 0x1a, 0xbe, 0x80, 0x3a, 0x58, 0x3d, 0xd8, 0xe2, 0x0d, 0xbe,
  0x1f, 0xdd, 0xa9, 0x3d, 0x2c, 0x1c, 0x5a, 0x3e, 0x90, 0x55, 0x45, 0xbe,
  0x5d, 0x1e, 0xf0, 0xbd, 0x5f, 0x61, 0x97, 0x3e, 0xa3, 0xa8, 0xca, 0xbc,
  0x0d, 0x3c, 0xf5, 0xbe, 0x92, 0xf5, 0xa1, 0xbd, 0x1f, 0x3b, 0x08, 0xbc,
  0xe7, 0x11, 0x33, 0x3e, 0xba, 0x32, 0xa3, 0xbd, 0xbe, 0xbf, 0x0c, 0xbe,
  0xc8, 0x5d, 0xfc, 0xbc, 0x04, 0xc5, 0xd0, 0xbc, 0xaf, 0xe3, 0x12, 0x3d,
  0x57, 0x4b, 0x11, 0xbd, 0x6d, 0x18, 0x20, 0x3e, 0x62, 0x08, 0x7d, 0xbe,
  0x24, 0xa8, 0x84, 0xbe, 0x45, 0x30, 0x85, 0x3d, 0x86, 0x0b, 0xd3, 0x3d,
  0xe5, 0x15, 0x4c, 0x3e, 0xf1, 0x94, 0xc2, 0xbe, 0x51, 0x4a, 0x6b, 0xbd,
  0xa6, 0x5f, 0xa3, 0xbe, 0xa4, 0x36, 0x9b, 0x3e, 0x40, 0x25, 0x77, 0x3d,
  0x4a, 0x9d, 0xc0, 0x3d, 0x59, 0xbe, 0x97, 0x3d, 0xf7, 0xd7, 0xaf, 0xbc,
  0x96, 0xe9, 0x13, 0x3e, 0xe9, 0x31, 0xf0, 0xbd, 0xd4, 0xc6, 0x86, 0x3e,
  0xa4, 0xfa, 0x45, 0xbd, 0x0a, 0x63, 0x83, 0xbe, 0x3c, 0xaf, 0x60, 0x3d,
  0x0e, 0x04, 0x5f, 0xbd, 0xad, 0x49, 0x75, 0x3e, 0xb9, 0x79, 0xb9, 0xbd,
  0x33, 0x86, 0x27, 0x3c, 0xdd, 0x83, 0xbf, 0xbe, 0xa7, 0x3d, 0x2b, 0x3d,
  0x18, 0x11, 0xfc, 0x3d, 0x23, 0x55, 0xa1, 0x3e, 0xf0, 0xa2, 0x86, 0x3c,
  0x02, 0x40, 0xea, 0x3d, 0x42, 0x80, 0x5c, 0x3d, 0xfe, 0x13, 0xae, 0xbd,
  0xf4, 0x66, 0xcf, 0x3e, 0x61, 0xa6, 0x4d, 0xbd, 0x4d, 0xdb, 0x98, 0xbe,
  0x83, 0xf4, 0xc6, 0x3d, 0xcd, 0x0a, 0xf5, 0xbb, 0x34, 0xb7, 0x54, 0x3e,
  0x1c, 0x8b, 0x35, 0x3e, 0xc7, 0x84, 0x9d, 0x3d, 0xd0, 0xbd, 0x88, 0xbe,
  0xfb, 0x5f, 0x66, 0x3e, 0x40, 0x8b, 0xc9, 0x3d, 0x66, 0x5a, 0x90, 0x3e,
  0xa9, 0x19, 0x01, 0xbe, 0xe3, 0x4e, 0xec, 0x3c, 0x33, 0xe5, 0xa3, 0x3e,
  0x7b, 0xba, 0x8e, 0xbc, 0xb1, 0x8d, 0xfb, 0x3d, 0x2a, 0xc8, 0x58, 0xbd,
  0x56, 0xcd, 0x0c, 0xbf, 0xa6, 0x61, 0xbb, 0x3c, 0x17, 0x9e, 0x32, 0xbc,
  0xad, 0xab, 0xb2, 0x3d, 0x1f, 0xd9, 0x88, 0x3e, 0x87, 0x6e, 0x05, 0x3e,
  0x82, 0x9c, 0x69, 0x3d, 0xf8, 0xc2, 0x3a, 0x3d, 0x56, 0x1b, 0xc5, 0xbd,
  0xe9, 0x4b, 0x10, 0x3f, 0xf7, 0x88, 0xad, 0xbe, 0x0d, 0x6d, 0xae, 0x3d,
  0x34, 0xee, 0xf4, 0x3d, 0x70, 0x40, 0x9b, 0xbc, 0x0c, 0xdb, 0xd0, 0x3d,
  0xa7, 0xb1, 0x11, 0xbe, 0x21, 0x09, 0xfe, 0xbe, 0xc3, 0xce, 0x0d, 0xbd,
  0x2b, 0xbc, 0x23, 0xbe, 0xf2, 0x55, 0xbe, 0x3d, 0xa8, 0x4a, 0x4b, 0x3e,
  0x05, 0x7e, 0x90, 0x3d, 0x4a, 0x30, 0xe4, 0xbd, 0x27, 0x9f, 0xc8, 0x3d,
  0x61, 0x71, 0x1e, 0x3d, 0x0b, 0xe0, 0xfc, 0x3e, 0x32, 0xcc, 0xfa, 0xbe,
  0xf4, 0x14, 0xa5, 0xbd, 0x9b, 0x0b, 0x79, 0x3d, 0xd2, 0xd1, 0x04, 0x3e,
  0x61, 0xc7, 0xc8, 0x3d, 0x68, 0x1f, 0xea, 0x3c, 0x8b, 0x1e, 0x12, 0xbf,
  0xe4, 0xc0, 0xd7, 0x3d, 0x20, 0x81, 0x27, 0xbe, 0x9a, 0xec, 0x3c, 0x3d,
  0xcf, 0xcc, 0xbd, 0x3d, 0x46, 0xea, 0xc3, 0x3d, 0x22, 0x07, 0x90, 0x3e,
  0x09, 0xfa, 0x30, 0xbb, 0x4e, 0xdd, 0x89, 0xbe, 0xef, 0xad, 0x00, 0x3f,
  0x8c, 0x41, 0xe1, 0xbe, 0x3d, 0x5d, 0x9d, 0xbd, 0xb3, 0xe7, 0xef, 0xbd,
  0x55, 0x2a, 0x09, 0x3d, 0xfb, 0xb5, 0x6e, 0x3e, 0xda, 0x03, 0x5e, 0xbc,
  0xca, 0xe1, 0xcb, 0xbe, 0x51, 0xe7, 0x09, 0x3d, 0xea, 0x95, 0xa1, 0x3e,
  0xd7, 0x2d, 0x97, 0x3d, 0xaf, 0xe0, 0x6e, 0x3c, 0x7d, 0x3d, 0xba, 0x3d,
  0xf0, 0x75, 0x90, 0xbd, 0x2c, 0x34, 0xdf, 0x3d, 0xa4, 0x45, 0xc9, 0xbd,
  0xcd, 0x1f, 0x75, 0x3e, 0x61, 0xc3, 0xc5, 0xbe, 0xc2, 0x27, 0x2e, 0xbe,
  0x88, 0x5a, 0x51, 0xbe, 0x72, 0x75, 0x2a, 0xbb, 0x76, 0x87, 0x19, 0x3e,
  0xed, 0x79, 0x8f, 0x3d, 0x50, 0xc0, 0xd2, 0xbe, 0xb5, 0xae, 0x4e, 0x3d,
  0xab, 0xb4, 0xab, 0x3d, 0x1b, 0x9a, 0x5a, 0x3e, 0x44, 0x84, 0x22, 0xbe,
  0x5f, 0x87, 0xce, 0x3d, 0x6e, 0x0c, 0xc0, 0xbc, 0x76, 0x33, 0x39, 0x3e,
  0x69, 0xc9, 0x58, 0xbe, 0xd0, 0xe0, 0xef, 0xbc, 0xe2, 0x57, 0xa9, 0xbe,
  0x1b, 0x9d, 0x71, 0x3b, 0xf8, 0x69, 0x18, 0x3d, 0xb4, 0x1a, 0x94, 0xbd,
  0x22, 0x69, 0x03, 0x3e, 0x8b, 0xe3, 0x80, 0x3c, 0x1a, 0x8f, 0x11, 0xbf,
  0x96, 0x8a, 0x1b, 0x3c, 0xd9, 0x1f, 0xb5, 0xbc, 0xf5, 0xcf, 0xe8, 0x3d,
  0x50, 0x37, 0x6f, 0xbd, 0xf2, 0xdc, 0x97, 0x3d, 0xbe, 0xa7, 0xa3, 0xbd,
  0x5f, 0x3f, 0x22, 0x3e, 0xf0, 0x86, 0xe4, 0xbe, 0xe0, 0xd5, 0x7c, 0x3e,
  0x8f, 0x27, 0x1d, 0xbf, 0x0e, 0x50, 0x88, 0xbd, 0x74, 0x84, 0x6c, 0xbd,
  0x76, 0x08, 0x68, 0xbd, 0xa8, 0xc8, 0x34, 0x3d, 0x1a, 0xb3, 0x58, 0xba,
  0x54, 0x1a, 0x35, 0xbf, 0x72, 0x24, 0x0a, 0x3e, 0x81, 0x47, 0x01, 0x3e,
  0x1b, 0xd4, 0x5e, 0x3e, 0x25, 0xe4, 0x10, 0xbe, 0xd4, 0x05, 0x12, 0x3e,
  0x8e, 0xcb, 0x55, 0x3d, 0x54, 0xcb, 0xc7, 0xbb, 0xb3, 0xe4, 0xc3, 0xbe,
  0xf5, 0xcd, 0xac, 0xbe, 0x90, 0xe0, 0x2a, 0xbf, 0x08, 0x99, 0xa1, 0x3d,
  0x9e, 0x95, 0x4a, 0xbd, 0x33, 0x39, 0x0a, 0xbd, 0x12, 0x79, 0x98, 0x3d,
  0x4c, 0xa4, 0x54, 0x3c, 0x20, 0xc5, 0x0b, 0xbf, 0x7b, 0xc5, 0xfb, 0x3d,
  0xad, 0x46, 0x48, 0xbd, 0x7e, 0xc5, 0x55, 0x3c, 0x77, 0x36, 0x74, 0xbe,
  0x46, 0x56, 0xfd, 0x3d, 0x65, 0xc9, 0xa2, 0x3d, 0xa5, 0x2c, 0x30, 0x3d,
  0x84, 0x13, 0xe9, 0x3c, 0xf5, 0x38, 0x9e, 0x3e, 0x66, 0x61, 0xe1, 0xbd,
  0x25, 0x6c, 0x9a, 0xbe, 0x98, 0x57, 0x5d, 0x3e, 0x3e, 0x06, 0xe0, 0xbd,
  0x1a, 0x35, 0x18, 0xbe, 0x5a, 0xb6, 0xd4, 0xbd, 0x54, 0xac, 0x37, 0xbd,
  0x18, 0xe4, 0x83, 0x3d, 0xff, 0x1e, 0xa2, 0xbc, 0xb0, 0x2d, 0xdb, 0xbe,
  0xa5, 0x02, 0x3d, 0x3c, 0xb5, 0xe1, 0x1a, 0x3e, 0xab, 0x75, 0x98, 0xbd,
  0xb8, 0x81, 0xf6, 0x3e, 0xc9, 0xad, 0x32, 0x3e, 0xde, 0xb7, 0x50, 0x3e,
  0x9d, 0x84, 0x1c, 0xbd, 0x1b, 0x56, 0x9f, 0xbd, 0xe1, 0x32, 0x9a, 0x3e,
  0x6b, 0x91, 0x04, 0x3d, 0x40, 0xf0, 0xef, 0xbd, 0x31, 0x33, 0x5d, 0xbe,
  0x36, 0x0d, 0x93, 0x3c, 0x8b, 0xd3, 0x11, 0x3d, 0x7e, 0xfc, 0x9c, 0x3d,
  0xe9, 0x5f, 0x34, 0xbf, 0x48, 0x74, 0x48, 0x3d, 0x44, 0xca, 0x86, 0xbe,
  0xef, 0x9b, 0x87, 0x3c, 0x52, 0x27, 0x92, 0x3e, 0x8b, 0x44, 0x24, 0x3e,
  0x79, 0x31, 0xa8, 0x3e, 0x68, 0xdb, 0x45, 0xbd, 0xfe, 0xba, 0x6a, 0xbd,
  0xcc, 0xa4, 0x38, 0x3e, 0xbb, 0x51, 0x56, 0xbc, 0x2d, 0x1d, 0x80, 0xbe,
  0x08, 0x63, 0xe7, 0xbe, 0x2f, 0x52, 0x38, 0x3d, 0x2b, 0x07, 0x91, 0x3d,
  0xac, 0x2c, 0x86, 0xbc, 0x9b, 0xa8, 0x84, 0xbe, 0x79, 0xfe, 0x13, 0x3e,
  0xc8, 0x7c, 0x84, 0xbe, 0x42, 0x7d, 0x97, 0x3b, 0xb0, 0xb6, 0x88, 0x3e,
  0x23, 0x18, 0xea, 0x3d, 0x9a, 0x1b, 0x96, 0x3e, 0x7d, 0x9a, 0x14, 0xbd,
  0xc1, 0x9c, 0xa8, 0x3c, 0xb7, 0xa6, 0x19, 0x3e, 0x56, 0x25, 0x1b, 0xbd,
  0x21, 0x5e, 0x04, 0xbf, 0x09, 0x8c, 0x37, 0xbf, 0x7d, 0x8b, 0x9a, 0x3d,
  0x7d, 0x99, 0x1b, 0x3e, 0x70, 0xf8, 0xd1, 0xbc, 0x97, 0xf2, 0xa4, 0xbe,
  0x6c, 0xde, 0x2e, 0x3e, 0x33, 0x37, 0xec, 0xbd, 0xc1, 0x7d, 0xba, 0xbb,
  0x78, 0x6d, 0xfc, 0x3d, 0x88, 0x61, 0x12, 0x3e, 0xac, 0xd1, 0x2c, 0x3e,
  0xbe, 0xe5, 0x27, 0xbc, 0x54, 0x95, 0x02, 0x3d, 0xe7, 0xef, 0x5b, 0x3e,
  0x01, 0x3d, 0x8a, 0xbd, 0xaa, 0x41, 0xf0, 0xbe, 0xea, 0x3a, 0xf3, 0xbd,
  0x7e, 0x12, 0x3a, 0x3d, 0xea, 0xb8, 0x85, 0xbc, 0x78, 0x9a, 0x40, 0xbd,
  0xe0, 0xec, 0x03, 0xbf, 0xf6, 0x2a, 0x0a, 0x3e, 0xa4, 0xfb, 0x33, 0xbe,
  0x6f, 0x91, 0x8d, 0x3d, 0xc0, 0xe7, 0x5d, 0x3e, 0x28, 0xd3, 0x61, 0x3c,
  0xc4, 0xfa, 0xe1, 0x3e, 0xca, 0xac, 0x79, 0xbc, 0x5a, 0xa4, 0xc2, 0xbc,
  0x99, 0xd0, 0x27, 0x3e, 0x5c, 0x0d, 0xe6, 0xbc, 0x80, 0xce, 0x50, 0xbe,
  0x0a, 0x9b, 0xf0, 0xbe, 0x35, 0xe9, 0x8d, 0x3c, 0x59, 0xa8, 0x01, 0x3d,
  0x7e, 0x68, 0xb9, 0xbd, 0xa6, 0x07, 0x1f, 0xbf, 0x0e, 0x0a, 0xe3, 0x3d,
  0x30, 0x2e, 0x44, 0xbe, 0x36, 0x86, 0xd2, 0x3c, 0x9d, 0x0d, 0x45, 0x3e,
  0xd4, 0x9c, 0x1b, 0x3d, 0x83, 0x82, 0xb4, 0x3d, 0x35, 0x73, 0xfc, 0x3c,
  0xf0, 0xf0, 0xad, 0xbd, 0xfd, 0xdb, 0xb6, 0x3e, 0xe4, 0x49, 0xb2, 0xbc,
  0x70, 0x70, 0xa6, 0xbe, 0xf3, 0x50, 0x5b, 0xbe, 0x3c, 0x97, 0x1c, 0xbd,
  0x67, 0xe6, 0x87, 0xbd, 0xc4, 0xea, 0x15, 0x3d, 0x5d, 0x09, 0x22, 0xbf,
  0x16, 0x6e, 0x69, 0x3b, 0x05, 0xa8, 0x8d, 0xbe, 0x6e, 0xa0, 0xb4, 0x3d,
  0xc0, 0x83, 0xac, 0x3e, 0x68, 0xdc, 0xed, 0xbc, 0x38, 0xeb, 0x51, 0x3e,
  0xd1, 0x51, 0x7a, 0xbc, 0xfb, 0xb0, 0xa1, 0xbb, 0x3a, 0x6e, 0x37, 0x3d,
  0x7c, 0xa2, 0x06, 0xbe, 0xe8, 0xe8, 0xb4, 0xbe, 0x2c, 0x08, 0xa5, 0xbe,
  0x7a, 0x0b, 0xa2, 0xbc, 0x07, 0x72, 0x19, 0xbd, 0x12, 0xb3, 0x94, 0xbe,
  0x66, 0xb1, 0x3c, 0xbf, 0xb1, 0x9d, 0xb2, 0x3d, 0xaa, 0x74, 0x3c, 0xbe,
  0x10, 0xb1, 0x37, 0x3d, 0x70, 0x79, 0xb1, 0x3e, 0x0f, 0x79, 0xa4, 0x3d,
  0xf4, 0x31, 0xe3, 0x3d, 0xc8, 0xb7, 0x00, 0xba, 0x0a, 0x88, 0x52, 0xbd,
  0xae, 0x2a, 0x0f, 0x3e, 0xe2, 0x98, 0xbc, 0xbc, 0x33, 0xec, 0x6b, 0xbe,
  0x0d, 0xbd, 0x33, 0xbf, 0xf7, 0x94, 0xc5, 0x3c, 0xe5, 0x51, 0x2e, 0xbb,
  0x98, 0x0b, 0x11, 0x3e, 0x2e, 0x13, 0x29, 0xbf, 0x2b, 0xd9, 0x25, 0x3d,
  0x01, 0xd8, 0x6b, 0xbe, 0x93, 0xc4, 0xf1, 0x3d, 0x77, 0x0a, 0x85, 0x3e,
  0x98, 0x3d, 0x02, 0x3e, 0xe6, 0x74, 0x03, 0xbe, 0x42, 0xd0, 0x7d, 0x3d,
  0xe4, 0xaa, 0xf4, 0xba, 0x8b, 0x0c, 0x40, 0x3e, 0xc9, 0x2a, 0x8d, 0xbd,
  0xe1, 0x07, 0x83, 0xbe, 0xa9, 0x48, 0xef, 0xbe, 0x9f, 0x96, 0xd3, 0xbc,
  0x37, 0x6c, 0x4e, 0xbd, 0x07, 0x44, 0xa6, 0x3d, 0x4b, 0x93, 0xcb, 0xbe,
  0x83, 0x6b, 0x4c, 0xbd, 0x64, 0xbd, 0xbc, 0xbe, 0x04, 0x02, 0xfc, 0x3d,
  0x96, 0xc7, 0x6e, 0x3e, 0xed, 0xd0, 0x7b, 0x3d, 0x66, 0xb1, 0x36, 0xbe,
  0xe7, 0x5d, 0xbd, 0xbc, 0x2f, 0x1c, 0xe1, 0xbd, 0xaa, 0xf1, 0x4d, 0x3e,
  0x7b, 0xff, 0xc4, 0xbd, 0xd9, 0x59, 0x33, 0xbe, 0x6c, 0x94, 0x53, 0xbe,
  0x89, 0x1b, 0xd7, 0x3c, 0x3f, 0xf5, 0xe5, 0x3d, 0x1a, 0xca, 0x62, 0xbd,
  0xe7, 0x67, 0xbe, 0xbe, 0x58, 0xed, 0x9c, 0x3d, 0x68, 0xb6, 0x95, 0xbe,
  0x20, 0xf2, 0x8c, 0x3e, 0x5d, 0x94, 0x98, 0x3e, 0x20, 0xe2, 0x3d, 0x3d,
  0xb5, 0x1b, 0x15, 0xbd, 0x80, 0x7e, 0x4e, 0xbd, 0x2c, 0xda, 0x96, 0x3d,
  0x20, 0x69, 0x7d, 0x3c, 0x5b, 0x2c, 0x0e, 0xbe, 0xcf, 0x46, 0xe2, 0x3c,
  0x93, 0xfd, 0x07, 0xbe, 0xba, 0x4c, 0x0f, 0x3d, 0x0e, 0x0c, 0x6a, 0x3c,
  0xde, 0xbb, 0x23, 0xbe, 0xe5, 0x2d, 0x92, 0xbe, 0x30, 0x5d, 0xba, 0x3c,
  0x03, 0xfc, 0x3e, 0xbf, 0x5a, 0xfb, 0x9c, 0x3e, 0xc8, 0xce, 0x7e, 0x3e,
  0x0d, 0xd1, 0x20, 0xbe, 0x4d, 0xf1, 0xcd, 0xbd, 0xbc, 0x35, 0x25, 0x3b,
  0xb6, 0x41, 0xd4, 0x3d, 0xca, 0xbe, 0xb8, 0xbb, 0x3c, 0x2d, 0x67, 0xbd,
  0xe4, 0x1e, 0x27, 0xbd, 0x80, 0x7e, 0x2a, 0x3e, 0xf8, 0xe2, 0x04, 0x3d,
  0x93, 0x2f, 0x2f, 0x3e, 0x21, 0x9d, 0x59, 0xbc, 0xdc, 0x61, 0x9c, 0xbe,
  0x07, 0xf7, 0x99, 0xbc, 0xc4, 0xe3, 0x0b, 0xbf, 0xd2, 0x09, 0x38, 0x3d,
  0xe1, 0x43, 0x69, 0xbf, 0x6b, 0x39, 0x18, 0xbe, 0x87, 0xb7, 0x65, 0x3e,
  0x59, 0x4e, 0xc0, 0xbd, 0x54, 0x8e, 0x8a, 0xbd, 0x7b, 0x3c, 0xc6, 0xbd,
  0x5a, 0xa2, 0xac, 0x3d, 0x7a, 0x74, 0x95, 0x3c, 0x09, 0x95, 0x13, 0x3e,
  0xd3, 0x97, 0xa1, 0x3d, 0x4e, 0x5f, 0x27, 0x3e, 0x23, 0x30, 0x58, 0x3c,
  0x89, 0xe8, 0x53, 0xbe, 0x9a, 0xea, 0x24, 0x3e, 0xea, 0xbf, 0x8a, 0xbe,
  0x45, 0xba, 0x26, 0xbe, 0x48, 0x9d, 0xa5, 0xbe, 0x90, 0x83, 0x63, 0xbd,
  0xfa, 0x88, 0x11, 0xbe, 0x1b, 0x82, 0x37, 0x3e, 0x7e, 0xf0, 0x9e, 0xbe,
  0x32, 0xf4, 0xad, 0xbe, 0xb4, 0x6b, 0x05, 0xbe, 0x8a, 0x8f, 0x86, 0x3e,
  0x89, 0xab, 0xbc, 0x3c, 0x53, 0x2d, 0xd1, 0xba, 0xb9, 0xb8, 0xbb, 0xbe,
  0x77, 0xfd, 0x10, 0x3e, 0xda, 0x8e, 0x62, 0xbe, 0xa8, 0xa0, 0x1e, 0xbe,
  0xba, 0x44, 0x04, 0xbf, 0x4e, 0x7b, 0x85, 0xbc, 0x20, 0x16, 0x9d, 0x3b,
  0x1b, 0x23, 0x1c, 0x3d, 0xa1, 0x84, 0x14, 0xbe, 0xc6, 0x16, 0xba, 0x3d,
  0xaf, 0x9c, 0x12, 0xbe, 0xbf, 0x1c, 0x5a, 0x3e, 0x4e, 0xc1, 0xeb, 0xbe,
  0x3b, 0x3f, 0x55, 0x3e, 0x31, 0x84, 0xa7, 0x3e, 0x4c, 0x4d, 0x46, 0x3c,
  0xa0, 0x04, 0xd6, 0xbd, 0xb2, 0xc6, 0x19, 0x3e, 0x05, 0x23, 0x80, 0x3d,
  0xd0, 0x08, 0x35, 0xbe, 0x53, 0x3b, 0x50, 0x3e, 0x5d, 0x70, 0xf1, 0xbd,
  0xc8, 0x6d, 0xe5, 0xbd, 0x4a, 0x6c, 0x50, 0xbd, 0x21, 0xd9, 0xa0, 0xbe,
  0xd4, 0xe7, 0xa5, 0xbc, 0xd7, 0xfd, 0x2e, 0xbd, 0x2a, 0xce, 0x78, 0x3e,
  0x81, 0x8a, 0xa7, 0xbe, 0x74, 0x1d, 0xfe, 0x3d, 0x11, 0x84, 0x55, 0x3e,
  0x4d, 0x12, 0xf1, 0x3c, 0x85, 0x69, 0x8c, 0xbe, 0x1e, 0xc3, 0x44, 0xbd,
  0x61, 0xba, 0x54, 0x3e, 0x18, 0x8a, 0x9c, 0x3c, 0x53, 0x4a, 0x2d, 0x3e,
  0xb5, 0xff, 0xbf, 0xbc, 0xb3, 0x98, 0x0c, 0xbe, 0x41, 0x52, 0xaa, 0x3d,
  0xac, 0xad, 0xd0, 0xbd, 0x4a, 0xa6, 0xb7, 0xbd, 0xb0, 0x33, 0x8a, 0x3d,
  0x10, 0x87, 0x75, 0x3e, 0x5e, 0x03, 0x8f, 0xbe, 0x88, 0x9d, 0x4a, 0x3e,
  0xaa, 0xcf, 0xb2, 0x3e, 0x4c, 0x2d, 0xba, 0xbb, 0x26, 0x37, 0xb5, 0xbe,
  0x13, 0xc8, 0x24, 0x3e, 0x47, 0x98, 0x48, 0x3e, 0xfd, 0xa5, 0x1b, 0xbd,
  0x8f, 0x3f, 0x9c, 0x3d, 0x61, 0xb6, 0x4d, 0x3d, 0xfe, 0xb6, 0xc5, 0xbd,
  0x92, 0xa3, 0xcd, 0xbd, 0x02, 0x54, 0x27, 0xbe, 0x07, 0xf6, 0xca, 0xbd,
  0x44, 0xbc, 0x2c, 0x3d, 0x18, 0x79, 0xaa, 0x3e, 0xed, 0xbc, 0x04, 0xbe,
  0x82, 0x09, 0xab, 0x3d, 0xb6, 0x53, 0xa3, 0x3e, 0xd0, 0x6e, 0xf3, 0x3c,
  0xfb, 0x5c, 0x32, 0xbe, 0x55, 0x73, 0x1f, 0x3e, 0x4f, 0x33, 0xdf, 0x3d,
  0x28, 0x65, 0x8e, 0x3d, 0x79, 0xed, 0x8d, 0x3e, 0xe4, 0xce, 0xc5, 0x3c,
  0xbb, 0x5e, 0x25, 0x3e, 0xe6, 0x3c, 0xf1, 0xbc, 0x63, 0xec, 0x91, 0xbe,
  0x60, 0xd0, 0xb6, 0xbd, 0x69, 0x71, 0x4b, 0xbd, 0x4f, 0x12, 0x9a, 0x3e,
  0x39, 0x50, 0x88, 0xbe, 0x2d, 0x7b, 0x49, 0x3e, 0x9e, 0xfd, 0x14, 0x3e,
  0xa6, 0xae, 0x8c, 0xbd, 0x8e, 0xea, 0x08, 0xbe, 0xfd, 0xf6, 0xff, 0x3c,
  0xa0, 0xba, 0x7b, 0x3e, 0xce, 0xa1, 0x53, 0xbc, 0xad, 0x08, 0x9e, 0x3e,
  0xaf, 0x40, 0x2b, 0xbd, 0x62, 0xd2, 0x14, 0xbe, 0xed, 0xc6, 0x16, 0xbe,
  0xfd, 0xd3, 0x8f, 0xbe, 0x06, 0x97, 0x0e, 0xbd, 0x3a, 0x01, 0x46, 0xbd,
  0x84, 0x2b, 0x01, 0x3e, 0x16, 0xaa, 0x7f, 0xbe, 0x3d, 0xfd, 0xc1, 0x3d,
  0x8f, 0x78, 0xbe, 0x3e, 0x3b, 0x9e, 0x21, 0xbd, 0xdb, 0xf7, 0xa6, 0xbe,
  0x71, 0x66, 0x36, 0x3e, 0xf3, 0x16, 0x3e, 0x3e, 0xda, 0x64, 0x22, 0xbc,
  0xa6, 0xad, 0x57, 0x3e, 0x5f, 0xc2, 0x34, 0xbe, 0x94, 0x8c, 0x3f, 0xbd,
  0x3b, 0xa7, 0x2c, 0x3d, 0x43, 0x74, 0x86, 0xbe, 0x2d, 0x21, 0x1d, 0x3d,
  0x16, 0x45, 0x3e, 0xbd, 0x02, 0x01, 0x76, 0x3e, 0x6c, 0xa1, 0xc8, 0xbd,
  0xc2, 0x4f, 0x11, 0x3e, 0x87, 0xa0, 0xf6, 0x3d, 0x0b, 0x07, 0xfe, 0xbc,
  0x80, 0x54, 0x68, 0xbd, 0xb6, 0x40, 0x85, 0x3e, 0xd1, 0x67, 0x90, 0x3e,
  0xc9, 0xec, 0x6d, 0xbd, 0xec, 0x10, 0x08, 0x3e, 0x21, 0x7d, 0x8a, 0xbd,
  0xb8, 0x82, 0x0a, 0xbe, 0xf1, 0x08, 0x0b, 0x3d, 0x68, 0x55, 0xb8, 0xbe,
  0x3d, 0x76, 0xbe, 0xbd, 0xbf, 0x23, 0xf6, 0x3b, 0x04, 0x52, 0xc8, 0x3d,
  0x38, 0x9f, 0xea, 0xbd, 0xda, 0xcc, 0x35, 0x3e, 0x0b, 0x86, 0x4c, 0x3e,
  0xe7, 0xe5, 0x51, 0x3c, 0xb3, 0xd5, 0xae, 0xbe, 0x0c, 0x9f, 0x17, 0x3e,
  0x1c, 0x2a, 0xe0, 0x3d, 0x06, 0xfd, 0x4f, 0x3c, 0xe6, 0xb5, 0x57, 0x3e,
  0x4c, 0x4e, 0x94, 0xbd, 0x62, 0x65, 0xf5, 0xbc, 0x63, 0x82, 0xa0, 0x3d,
  0x08, 0xe1, 0x30, 0xbd, 0xbd, 0x91, 0x91, 0xbc, 0xab, 0x2c, 0x4c, 0xbe,
  0x11, 0xe6, 0x8c, 0x3e, 0xab, 0xee, 0x24, 0xbd, 0x4b, 0x69, 0x81, 0x3e,
  0xe8, 0x5d, 0x13, 0x3e, 0xbf, 0xe5, 0x9c, 0xbc, 0xd7, 0x58, 0xa1, 0xbe,
  0x77, 0x09, 0x6f, 0x3d, 0x36, 0x12, 0xa5, 0x3e, 0x5e, 0x22, 0x39, 0xbd,
  0xb1, 0xe5, 0xf7, 0x3d, 0x7c, 0x58, 0xad, 0xbb, 0xe7, 0xbf, 0xa0, 0xbd,
  0xb1, 0x78, 0x7f, 0xbb, 0xdf, 0xfc, 0x3c, 0xbe, 0x89, 0xac, 0x6b, 0xbd,
  0x59, 0x18, 0xf4, 0xbd, 0xe3, 0x2e, 0x73, 0x3e, 0xb3, 0x34, 0x2c, 0xbe,
  0xcc, 0x98, 0xba, 0x3b, 0x3d, 0x55, 0xc9, 0xbe, 0xb4, 0xb0, 0x04, 0xbc,
  0x97, 0xcd, 0xdd, 0xbe, 0x67, 0x3c, 0xce, 0x3d, 0x33, 0x96, 0xf7, 0x3d,
  0xeb, 0x6c, 0x32, 0x3d, 0x2f, 0x82, 0xa0, 0x3e, 0xd6, 0x2c, 0x8e, 0x3c,
  0x4a, 0xd5, 0x9d, 0xbe, 0x6e, 0xbd, 0x93, 0x3d, 0x11, 0x39, 0x8e, 0xbd,
  0x0d, 0x71, 0x37, 0x3d, 0xdd, 0x27, 0xec, 0xbd, 0x01, 0x4f, 0xb8, 0x3e,
  0x13, 0xf7, 0x8c, 0xbe, 0x76, 0xb9, 0xb3, 0xbe, 0xf2, 0xbb, 0x03, 0xbf,
  0x8d, 0x7c, 0x85, 0x3c, 0x69, 0xaa, 0x9c, 0xbe, 0x89, 0x85, 0xbf, 0x3d,
  0xee, 0x9f, 0x37, 0x3e, 0xf6, 0x22, 0xc5, 0xbd, 0xe4, 0xde, 0x51, 0x3e,
  0xc6, 0x81, 0x6c, 0xbd, 0x08, 0x76, 0xec, 0xbe, 0x11, 0xee, 0xa6, 0x3d,
  0x59, 0xc8, 0x87, 0x3d, 0xfc, 0x0a, 0x6b, 0x3e, 0x84, 0xad, 0x3d, 0xbf,
  0x6c, 0x8b, 0xab, 0xbe, 0x77, 0xe4, 0x60, 0xbe, 0xc3, 0x5e, 0x2e, 0xbf,
  0xd1, 0xc4, 0x9a, 0xbd, 0xa1, 0x34, 0xcf, 0xbc, 0x89, 0xdb, 0x19, 0xbe,
  0x1d, 0x9a, 0x25, 0x3e, 0xc3, 0x48, 0x9c, 0xbe, 0xc5, 0xb5, 0x45, 0xbd,
  0xa7, 0xf9, 0x9c, 0xbe, 0xc3, 0xc9, 0x54, 0xbd, 0xa6, 0x57, 0xe2, 0xbe,
  0xd7, 0x85, 0x40, 0xbd, 0x96, 0xea, 0xab, 0x3d, 0xe8, 0x0e, 0x2c, 0x3d,
  0x27, 0x11, 0x39, 0xbe, 0xc7, 0x10, 0xa5, 0xbe, 0x6f, 0x75, 0x13, 0x3e,
  0xd8, 0xc9, 0x4b, 0xbf, 0x78, 0x32, 0xe0, 0xbe, 0xc5, 0xf4, 0xac, 0xbc,
  0xe1, 0x90, 0x83, 0xbe, 0x53, 0x47, 0x42, 0xbb, 0xa9, 0x89, 0xcd, 0xbe,
  0x79, 0x12, 0x2d, 0xbd, 0x83, 0x0d, 0x0e, 0xbf, 0xa4, 0x0a, 0xae, 0x3e,
  0x9a, 0xd2, 0x40, 0x3e, 0x4a, 0xaa, 0xb3, 0xbc, 0x1a, 0xa1, 0x1f, 0x3f,
  0x6e, 0xb0, 0x70, 0xbe, 0x8d, 0x89, 0x00, 0x3e, 0x76, 0x24, 0x66, 0xbe,
  0x0a, 0x24, 0x32, 0xbe, 0x7f, 0xb6, 0x49, 0xbd, 0x86, 0x67, 0x2f, 0xbf,
  0x00, 0x69, 0x11, 0xbf, 0xbc, 0x1c, 0xa2, 0xbd, 0x08, 0x71, 0xc9, 0xbb,
  0xff, 0x4f, 0x02, 0x3e, 0xd7, 0xfe, 0xeb, 0x3e, 0x2b, 0xa7, 0xbc, 0x3e,
  0x62, 0x61, 0x7f, 0xbd, 0x6c, 0xc7, 0x95, 0xbe, 0xf7, 0x48, 0x4b, 0xbd,
  0x66, 0xfc, 0x4e, 0x3f, 0xf9, 0xcc, 0x8b, 0xbe, 0x81, 0x6c, 0x04, 0xbd,
  0xb1, 0x68, 0xa7, 0xbe, 0x50, 0x52, 0xf2, 0x3d, 0xbb, 0x27, 0x19, 0xbf,
  0x0a, 0x97, 0x1c, 0xbe, 0xe7, 0x55, 0x02, 0xbf, 0x1a, 0x2e, 0x40, 0x3e,
  0x47, 0xdd, 0x93, 0xbe, 0xac, 0xd8, 0xe4, 0xbc, 0x6e, 0x1f, 0xa3, 0x3e,
  0x52, 0x0c, 0x98, 0x3e, 0xb2, 0x39, 0x05, 0xbf, 0xa5, 0x5d, 0x89, 0xbe,
  0x01, 0xa4, 0xa2, 0xbe, 0x94, 0x1d, 0x23, 0x3f, 0x0b, 0x8b, 0x0a, 0xbd,
  0x14, 0xad, 0x0a, 0xbd, 0xeb, 0x77, 0x34, 0xbe, 0xd6, 0xbe, 0x93, 0x3d,
  0x53, 0xc2, 0x72, 0xbe, 0x1a, 0x16, 0x91, 0x3d, 0x30, 0x86, 0x00, 0xbf,
  0xc5, 0xaf, 0x1d, 0x3d, 0x0f, 0x86, 0x4d, 0xbd, 0xa1, 0x02, 0x09, 0xbc,
  0xcd, 0xf1, 0x4a, 0x3e, 0x91, 0xad, 0x49, 0x3e, 0xa2, 0x8d, 0x5d, 0xbe,
  0xeb, 0x8c, 0x15, 0xbe, 0xac, 0xb2, 0xa5, 0xbe, 0x1e, 0xe1, 0xe3, 0x3e,
  0x3e, 0x42, 0x8e, 0xbd, 0xd0, 0x1e, 0x3c, 0xbb, 0x59, 0xef, 0x64, 0x3c,
  0x01, 0xbe, 0xc4, 0x3d, 0xce, 0x27, 0xcf, 0xbc, 0xd3, 0x79, 0x67, 0x3d,
  0x83, 0xd3, 0x4a, 0xbf, 0x4c, 0x25, 0xae, 0xbd, 0x34, 0xf4, 0xba, 0x3b,
  0x3e, 0xb2, 0xe6, 0xbd, 0xb7, 0x6f, 0xd0, 0x3d, 0x7e, 0x12, 0x8b, 0x3d,
  0xf1, 0xbc, 0x97, 0xbd, 0xd1, 0x89, 0x90, 0xbd, 0x9c, 0xed, 0xea, 0xbc,
  0x10, 0x10, 0x55, 0x3e, 0x50, 0xdf, 0x31, 0xbe, 0x27, 0x4a, 0x55, 0xbd,
  0xa4, 0x5e, 0xcf, 0xbd, 0x3b, 0xf9, 0x64, 0xbb, 0xf4, 0xf3, 0x71, 0xbe,
  0xc4, 0xf4, 0x76, 0xbe, 0x69, 0x05, 0xd9, 0xbe, 0x5b, 0xd6, 0x0d, 0xbd,
  0x32, 0x37, 0x4a, 0x3e, 0xeb, 0x73, 0xae, 0xbd, 0x91, 0xd5, 0x72, 0xbd,
  0xe1, 0xc1, 0x66, 0xbc, 0x68, 0x8d, 0x4d, 0xbe, 0x77, 0x67, 0xc5, 0xbd,
  0x1c, 0x68, 0x06, 0xbe, 0x5d, 0xdf, 0x5a, 0x3e, 0x8e, 0xc5, 0xa0, 0xbe,
  0x65, 0xb7, 0xde, 0xbc, 0x32, 0xed, 0xcc, 0x3c, 0xdf, 0x6a, 0x23, 0x3d,
  0x78, 0x76, 0x5c, 0xbe, 0x21, 0xb3, 0x0b, 0xbe, 0x35, 0x67, 0xf6, 0xbe,
  0x01, 0x51, 0x83, 0x3c, 0x23, 0xf1, 0x02, 0x3e, 0x8d, 0x45, 0x15, 0xbe,
  0xeb, 0x22, 0x57, 0xbd, 0x7b, 0x2e, 0x7b, 0xbd, 0x90, 0x98, 0x0e, 0xbe,
  0x01, 0x71, 0x1c, 0xbe, 0x68, 0x39, 0x91, 0xbe, 0x7c, 0x6c, 0x19, 0x3e,
  0x33, 0x92, 0xab, 0xbe, 0x1d, 0x11, 0x0a, 0xbd, 0xe4, 0x40, 0x28, 0x3d,
  0x32, 0x23, 0xd1, 0x3c, 0x10, 0x15, 0x8f, 0xbe, 0x19, 0x37, 0x55, 0xbe,
  0x58, 0xdb, 0xb0, 0xbe, 0xea, 0x4b, 0x60, 0xbd, 0x3c, 0xac, 0x45, 0xbd,
  0x18, 0x44, 0x83, 0xbe, 0x74, 0xa4, 0xe1, 0xbd, 0xba, 0xca, 0x94, 0xbc,
  0x5e, 0xff, 0x97, 0xbe, 0xbd, 0x8c, 0xc8, 0xbd, 0x6e, 0xfe, 0xce, 0xbd,
  0xba, 0x44, 0x42, 0x3e, 0x94, 0xb6, 0x2c, 0xbf, 0x50, 0x28, 0xe7, 0xbd,
  0xc7, 0xe8, 0xbb, 0x3d, 0x6d, 0xf8, 0x89, 0x3c, 0x20, 0x80, 0xf9, 0xbe,
  0xfe, 0x87, 0x88, 0xbd, 0x33, 0xba, 0xe8, 0xbe, 0xc7, 0x96, 0x98, 0xbd,
  0x6b, 0x4e, 0xf5, 0x3b, 0x57, 0x13, 0x7a, 0xbe, 0x9d, 0x9e, 0xae, 0xbd,
  0xd2, 0xcc, 0x87, 0xbd, 0xca, 0x4b, 0x94, 0xbe, 0x18, 0xfc, 0x05, 0xbe,
  0x60, 0xd5, 0xd7, 0xbd, 0x6b, 0x59, 0x53, 0x3e, 0x9b, 0x6e, 0xc5, 0xbe,
  0x23, 0x68, 0x82, 0xbe, 0x4a, 0x68, 0x7b, 0x3e, 0x67, 0x08, 0x56, 0xbd,
  0xd0, 0x0e, 0xdc, 0xbe, 0xf0, 0xdd, 0xe2, 0xbd, 0xc9, 0xaa, 0xf5, 0xbe,
  0x01, 0x63, 0x48, 0xbe, 0xdb, 0xc0, 0xba, 0x3b, 0xd9, 0x73, 0xbb, 0xbc,
  0x1d, 0x75, 0xf0, 0xbc, 0xf4, 0xcb, 0x70, 0x3c, 0x5b, 0xaa, 0xaa, 0xbe,
  0x08, 0x27, 0x8d, 0x3b, 0x3d, 0xdb, 0x7f, 0xbd, 0xcb, 0x14, 0x83, 0x3e,
  0x57, 0xf7, 0x16, 0xbf, 0xe3, 0x37, 0x47, 0xbe, 0x05, 0x47, 0xb5, 0xbd,
  0x2a, 0x07, 0x9b, 0x3c, 0x0c, 0x68, 0xdb, 0xbe, 0x78, 0x39, 0x01, 0xbe,
  0x4e, 0x15, 0x76, 0xbe, 0x2b, 0xb8, 0xaa, 0xbd, 0xd7, 0x8c, 0xb9, 0xbb,
  0xa8, 0xae, 0x1c, 0xbe, 0x36, 0x31, 0x8b, 0xbd, 0x8b, 0xdc, 0x60, 0x3d,
  0x6f, 0xaf, 0xc0, 0xbe, 0xca, 0xe7, 0x8b, 0x3d, 0x26, 0x4e, 0x50, 0xbc,
  0x9a, 0xea, 0x15, 0x3e, 0x2e, 0x86, 0x06, 0xbf, 0x94, 0xe5, 0x9b, 0xbc,
  0x3a, 0x4b, 0x2b, 0xbd, 0x14, 0xb0, 0x0a, 0xbd, 0x07, 0xd8, 0xd3, 0xbe,
  0xc0, 0x80, 0xf6, 0xbd, 0xe1, 0xbf, 0xa9, 0xbd, 0x11, 0xde, 0x20, 0xbd,
  0x24, 0xd7, 0x73, 0x3e, 0x73, 0x1a, 0x65, 0xbd, 0xfb, 0xa9, 0x1f, 0x3d,
  0x9f, 0x4a, 0x2f, 0x3e, 0x7b, 0x27, 0x04, 0xbf, 0xc6, 0x6d, 0x53, 0xbc,
  0x3d, 0xda, 0xff, 0x3c, 0x47, 0x58, 0x51, 0x3e, 0x9f, 0x7e, 0x0c, 0xbf,
  0x3f, 0x9e, 0x0e, 0xbd, 0x23, 0xe6, 0xa1, 0xbd, 0x4f, 0xb4, 0x95, 0xbc,
  0xfe, 0x4e, 0x92, 0xbe, 0x66, 0x5a, 0x84, 0xbe, 0x3f, 0x57, 0x82, 0xbe,
  0x4f, 0xd6, 0x81, 0xbd, 0x61, 0x22, 0x26, 0x3c, 0x69, 0x7f, 0x41, 0xbd,
  0xdb, 0xfb, 0x7b, 0x3d, 0x57, 0xaa, 0x4a, 0x3e, 0x7f, 0x0f, 0xed, 0xbe,
  0x0e, 0x7e, 0x27, 0xbe, 0x1c, 0x7e, 0x93, 0x3d, 0xf5, 0x71, 0xaa, 0x3d,
  0x82, 0x28, 0xc3, 0xbd, 0x33, 0x34, 0x04, 0xbd, 0x92, 0x4d, 0x44, 0x3c,
  0x4c, 0x0f, 0x1a, 0xbd, 0xe9, 0xb8, 0x93, 0xbe, 0xeb, 0x89, 0xa1, 0xbd,
  0xe3, 0xeb, 0xed, 0xbe, 0xfa, 0x86, 0x83, 0xbe, 0xe2, 0x80, 0x0d, 0x3c,
  0x3d, 0x41, 0x03, 0xbe, 0x4c, 0x61, 0xf5, 0x3d, 0x1f, 0xa8, 0x49, 0x3e,
  0x7c, 0x9b, 0xad, 0xbd, 0xda, 0x3b, 0x24, 0x3e, 0x58, 0x59, 0xa5, 0x3e,
  0x42, 0x61, 0xbb, 0xbe, 0x7b, 0xf2, 0x89, 0xbe, 0x8d, 0x90, 0x32, 0x3d,
  0x3d, 0xe8, 0xcd, 0xbb, 0x85, 0xed, 0x23, 0xbd, 0x20, 0x9d, 0x92, 0xbd,
  0x56, 0x54, 0x5d, 0xbc, 0xa2, 0x79, 0x9f, 0xbe, 0x20, 0x79, 0x8e, 0x3d,
  0xac, 0x24, 0x51, 0xbe, 0x63, 0x00, 0x48, 0xbb, 0xa6, 0x16, 0x4b, 0xbd,
  0x93, 0x82, 0x04, 0xbc, 0x58, 0x00, 0xb5, 0x3e, 0x00, 0x27, 0x80, 0x3e,
  0xa3, 0xdf, 0xb0, 0x3c, 0x38, 0xf5, 0x35, 0x3f, 0xe4, 0x1f, 0x53, 0xbe,
  0x7d, 0x03, 0xa5, 0x3d, 0xb2, 0xee, 0x25, 0x3e, 0x6d, 0xfd, 0x9e, 0xbe,
  0x8b, 0x7f, 0xff, 0xbd, 0xd1, 0xbd, 0xae, 0xbd, 0x39, 0xc4, 0x20, 0xbf,
  0x92, 0x3b, 0x37, 0xbe, 0xd2, 0x0d, 0xd1, 0x3d, 0x2a, 0x3a, 0x50, 0x3e,
  0xea, 0x99, 0xc1, 0x3e, 0xc1, 0x6a, 0x83, 0x3e, 0xaa, 0xab, 0x3f, 0xbe,
  0x77, 0x3d, 0x3e, 0xbe, 0x85, 0xd4, 0x51, 0xbc, 0x1f, 0x19, 0x31, 0x3f,
  0x31, 0x3f, 0xda, 0xbe, 0xf7, 0x84, 0xdc, 0x3d, 0xb0, 0xcd, 0x4c, 0xbd,
  0x21, 0xdf, 0x1b, 0xbf, 0x6a, 0xa3, 0xfb, 0xbe, 0xd9, 0x30, 0x0e, 0x3d,
  0xa7, 0xc8, 0x12, 0xbf, 0xba, 0xf4, 0x59, 0x3e, 0xc9, 0x45, 0x15, 0x3e,
  0xcb, 0x87, 0x0b, 0xbe, 0x8d, 0x4f, 0xa7, 0x3e, 0x3b, 0xc9, 0x6c, 0x3e,
  0x07, 0x33, 0x37, 0xbe, 0xa2, 0x8a, 0x6c, 0xbe, 0x47, 0xfd, 0x20, 0xbe,
  0x4d, 0x3a, 0xfe, 0x3e, 0xb8, 0x22, 0x6e, 0xbe, 0x5c, 0xf4, 0xcd, 0x3c,
  0x3c, 0x7c, 0x29, 0xbd, 0x58, 0xc6, 0xa3, 0xbe, 0x96, 0x89, 0x48, 0xbe,
  0xfe, 0xda, 0x37, 0xbe, 0x08, 0x34, 0x10, 0xbf, 0x2f, 0xa1, 0x01, 0x3e,
  0x12, 0xce, 0xa3, 0x3c, 0x1f, 0x65, 0x74, 0xbe, 0xb2, 0x6f, 0x8b, 0x3e,
  0x97, 0x90, 0xee, 0x3d, 0xec, 0xb3, 0x97, 0x3b, 0x2a, 0x8b, 0x1d, 0x3e,
  0x5f, 0x45, 0x6b, 0xbe, 0xa6, 0x83, 0xb2, 0x3e, 0xd7, 0x44, 0xbd, 0xbe,
  0xa6, 0x2f, 0xc8, 0x3c, 0x20, 0x51, 0x63, 0x3d, 0x0d, 0x1a, 0xc5, 0xbe,
  0x66, 0x27, 0x1c, 0xbd, 0x3b, 0xee, 0xf4, 0x3c, 0x76, 0x76, 0xf6, 0xbe,
  0xeb, 0xb3, 0x50, 0x3e, 0xd8, 0x12, 0xd4, 0x3d, 0x3f, 0xfc, 0x13, 0xbe,
  0xde, 0x8b, 0x8a, 0x3d, 0xa6, 0x66, 0x6a, 0x3d, 0xd7, 0x07, 0xa5, 0xbd,
  0x42, 0x6e, 0x18, 0x3e, 0xe1, 0x02, 0x30, 0xbe, 0x95, 0xce, 0x98, 0x3e,
  0xcb, 0xf6, 0x10, 0xbf, 0xf4, 0x19, 0x9f, 0x3d, 0xfa, 0x00, 0x48, 0x3d,
  0x79, 0xd4, 0xbb, 0xbe, 0x01, 0xf3, 0xac, 0xbe, 0x6e, 0x12, 0x03, 0xbd,
  0xc3, 0xda, 0xcf, 0xbe, 0x94, 0xe5, 0x16, 0x3e, 0xa0, 0xbf, 0xc5, 0x3d,
  0x2b, 0x55, 0x10, 0xbe, 0x35, 0x20, 0x1a, 0xbd, 0xd3, 0xa7, 0x94, 0x3d,
  0x03, 0x70, 0x17, 0xbe, 0x19, 0xe9, 0xad, 0xbd, 0x57, 0x15, 0x25, 0xbe,
  0xf9, 0xf3, 0xf5, 0x3d, 0x78, 0x02, 0x05, 0xbf, 0x45, 0x3b, 0x55, 0x3d,
  0xa7, 0xe4, 0x87, 0x3d, 0x31, 0x1a, 0x76, 0xbe, 0x1f, 0x81, 0xa6, 0xbe,
  0xf4, 0x84, 0xcf, 0x3d, 0x22, 0x95, 0xbb, 0xbe, 0xe8, 0xac, 0x2f, 0x3e,
  0x5f, 0x51, 0xe3, 0x3d, 0xc0, 0x5c, 0x79, 0xbd, 0x9a, 0x2a, 0x2d, 0xbe,
  0x87, 0xaa, 0x30, 0x3b, 0x59, 0x71, 0x73, 0xbe, 0x28, 0xd5, 0x76, 0x3b,
  0x32, 0x4c, 0x8b, 0xbd, 0x33, 0x85, 0x71, 0x3d, 0x40, 0xf7, 0xd8, 0xbe,
  0x3c, 0x1a, 0x24, 0x3d, 0x9a, 0xd6, 0xfc, 0x3d, 0xd9, 0x4e, 0x16, 0xbd,
  0xa1, 0x75, 0x99, 0xbe, 0xd9, 0x0c, 0xc1, 0x3d, 0xa8, 0xe9, 0xe4, 0xbe,
  0xe0, 0x71, 0xcd, 0x3c, 0x6d, 0xc7, 0xd0, 0xbd, 0x72, 0x66, 0x49, 0xbe,
  0x6c, 0x8a, 0x19, 0xbe, 0x37, 0xd7, 0xa8, 0xbb, 0xa3, 0xbe, 0x9c, 0xbe,
  0xd4, 0x1a, 0x35, 0xbd, 0x97, 0x00, 0x03, 0xbd, 0xc7, 0x24, 0xd4, 0x3d,
  0xb3, 0x95, 0x36, 0xbf, 0x79, 0x52, 0x7b, 0xbd, 0x48, 0x90, 0x0b, 0x3e,
  0x63, 0xaa, 0xde, 0xbc, 0x93, 0x1a, 0x04, 0xbf, 0xf2, 0xa0, 0xc3, 0xbd,
  0xce, 0x9a, 0xa2, 0xbe, 0x32, 0x80, 0x66, 0x3d, 0x86, 0x8e, 0x80, 0x3e,
  0x2b, 0xfd, 0x7f, 0xbe, 0x62, 0x8b, 0x4c, 0xbe, 0x50, 0xad, 0x39, 0x3c,
  0x5a, 0x81, 0x85, 0xbc, 0xf9, 0xd3, 0x1c, 0xbe, 0x48, 0x0d, 0x23, 0xbb,
  0x87, 0xa4, 0x2e, 0x3d, 0x8b, 0xe1, 0x1b, 0xbf, 0x2b, 0x97, 0x95, 0xbd,
  0x6c, 0xa8, 0x17, 0x3e, 0xbe, 0x9a, 0xb7, 0xbd, 0xa8, 0x08, 0x03, 0xbf,
  0xde, 0xe7, 0x42, 0x3d, 0xd4, 0x61, 0x5d, 0xbe, 0x1e, 0xa7, 0xd8, 0xbd,
  0xde, 0xe0, 0xba, 0xbd, 0x70, 0xf5, 0x30, 0xbe, 0x21, 0xbf, 0x30, 0xbe,
  0xea, 0x4b, 0xc9, 0xbb, 0x1d, 0x21, 0x45, 0xbe, 0x86, 0xab, 0xc6, 0xbc,
  0x0d, 0xbb, 0x90, 0xbc, 0xec, 0x98, 0x4e, 0xbd, 0x73, 0x9b, 0x40, 0xbf,
  0x8b, 0x55, 0x97, 0xbd, 0xca, 0x50, 0x07, 0x3e, 0x6c, 0x08, 0x0c, 0x3c,
  0x66, 0xec, 0xfc, 0xbe, 0x22, 0x98, 0xa0, 0x3d, 0xe2, 0x67, 0xa8, 0xbe,
  0x0b, 0x2a, 0x05, 0xbe, 0x8e, 0x6f, 0x95, 0xbb, 0xed, 0x65, 0x9c, 0xbe,
  0xad, 0xd3, 0xd8, 0xbd, 0x7f, 0x06, 0x94, 0xbd, 0x06, 0x38, 0x54, 0xbe,
  0x96, 0x8d, 0x29, 0x3d, 0xc7, 0x00, 0x98, 0x3c, 0xa6, 0x06, 0xb0, 0x3d,
  0x74, 0xe0, 0x0a, 0xbf, 0xf0, 0x32, 0x87, 0xbc, 0xbf, 0x5d, 0xe2, 0x3d,
  0xbe, 0x19, 0xb5, 0xbd, 0x35, 0x8b, 0xf8, 0xbe, 0xa6, 0xa3, 0xd7, 0x3c,
  0x66, 0x86, 0x59, 0xbe, 0x9c, 0xf9, 0xa2, 0x3d, 0x2e, 0xdc, 0xf1, 0x3d,
  0xba, 0xed, 0xe1, 0xbd, 0xcf, 0x96, 0xfa, 0x3c, 0x42, 0xd0, 0x46, 0x3d,
  0x26, 0x2e, 0xbd, 0xbe, 0x3a, 0xd3, 0xed, 0xba, 0x6f, 0x9d, 0xd1, 0x3c,
  0xbd, 0xa1, 0xa2, 0x3c, 0x20, 0x3f, 0x26, 0xbf, 0x15, 0x0f, 0xb0, 0xbd,
  0x22, 0x55, 0x01, 0x3e, 0x30, 0x76, 0x78, 0xbb, 0x57, 0xf7, 0x17, 0xbf,
  0x91, 0x14, 0x80, 0x3d, 0x0b, 0x24, 0x88, 0xbe, 0x17, 0x18, 0xfd, 0x3c,
  0xe8, 0x70, 0x93, 0x3c, 0x32, 0x11, 0x50, 0xbe, 0x55, 0x10, 0x3a, 0x3c,
  0x0c, 0xb9, 0x0a, 0x3e, 0xab, 0x03, 0xef, 0xbe, 0xee, 0x2e, 0xa2, 0xbc,
  0x94, 0x40, 0x97, 0xbd, 0xfd, 0x29, 0x68, 0x3d, 0x60, 0x3c, 0xdf, 0xbe,
  0x11, 0xd3, 0xf5, 0xbc, 0x6c, 0xe4, 0x31, 0xbd, 0xa5, 0x14, 0x94, 0xbd,
  0xd3, 0x0e, 0xa0, 0xbd, 0xaf, 0x82, 0xbb, 0x3d, 0x42, 0x16, 0xca, 0xbe,
  0x30, 0xd2, 0x88, 0xbc, 0xc6, 0xb4, 0x2a, 0xbd, 0xb5, 0x5c, 0x8e, 0xbd,
  0x12, 0xc4, 0x65, 0x3c, 0x88, 0x1f, 0x01, 0x3e, 0x3c, 0xb7, 0x25, 0xbd,
  0x41, 0x0b, 0x95, 0x3d, 0xb6, 0xd5, 0xa1, 0xbe, 0x42, 0x3a, 0x69, 0xbe,
  0xbb, 0xeb, 0x37, 0xbf, 0xd6, 0xee, 0xf0, 0x3c, 0x68, 0xc6, 0x37, 0xbd,
  0x61, 0x69, 0x59, 0x3d, 0x73, 0x7d, 0x91, 0x3d, 0xdd, 0xae, 0xb0, 0x3e,
  0x2f, 0x6f, 0x1c, 0xbf, 0xd8, 0xa8, 0x08, 0x3e, 0x92, 0x5d, 0x8e, 0x3d,
  0x70, 0x8a, 0xe4, 0x3d, 0x34, 0x7c, 0x42, 0xbd, 0xa1, 0x00, 0x4a, 0x3d,
  0x3a, 0x15, 0x7b, 0xbe, 0x11, 0x5e, 0x1f, 0x3e, 0xb4, 0x1b, 0xbe, 0xbe,
  0xd4, 0x99, 0x1e, 0xbe, 0x6e, 0xbf, 0x98, 0xbe, 0x50, 0xec, 0x45, 0xbe,
  0x28, 0xc2, 0xcd, 0x3c, 0x4b, 0x1b, 0x8b, 0x3e, 0x36, 0x7b, 0x1e, 0x3b,
  0x58, 0xbb, 0xb1, 0x3e, 0xee, 0x7d, 0x2c, 0xbf, 0x4d, 0x75, 0x0c, 0xbe,
  0xed, 0x1c, 0xac, 0x3e, 0x0a, 0x59, 0xb5, 0x3e, 0x97, 0xf0, 0x5f, 0xbe,
  0xba, 0x6f, 0x95, 0xbd, 0xfa, 0x6a, 0x9b, 0x3d, 0x63, 0x74, 0x83, 0x3d,
  0xcd, 0xdf, 0xa8, 0xbe, 0x4c, 0x2a, 0x50, 0xbe, 0xbb, 0x6c, 0x47, 0xbd,
  0xe9, 0xee, 0xa0, 0xbd, 0x5d, 0x37, 0x25, 0xbe, 0xf7, 0xb8, 0x6f, 0x3e,
  0x61, 0xdb, 0xe8, 0x3d, 0xf3, 0xf0, 0x2f, 0x3e, 0x69, 0x8a, 0xcd, 0xbe,
  0x3a, 0x72, 0x4b, 0x3e, 0x81, 0xc1, 0x89, 0x3e, 0x83, 0x28, 0x9a, 0x3d,
  0x30, 0xda, 0xf6, 0xbe, 0x50, 0x68, 0x7d, 0xbc, 0x94, 0x8e, 0x40, 0x3e,
  0xc9, 0x86, 0x30, 0x3e, 0xe5, 0xc7, 0xbc, 0xbd, 0xa8, 0x14, 0x40, 0x3d,
  0xf9, 0x7f, 0x86, 0x3d, 0x75, 0x5a, 0x5c, 0xbe, 0x12, 0xd7, 0x45, 0xbe,
  0x89, 0xf0, 0xf6, 0x3d, 0xea, 0xf5, 0x80, 0x3d, 0xad, 0xcc, 0xa7, 0x3c,
  0xee, 0x9a, 0x94, 0xbe, 0xe5, 0xb4, 0x43, 0x3d, 0x68, 0xf9, 0x82, 0xbc,
  0xdc, 0x6c, 0xf1, 0x3d, 0xbc, 0xa0, 0x95, 0xbe, 0x7c, 0xb7, 0x0c, 0x3e,
  0x76, 0x49, 0x80, 0x3e, 0x93, 0x8d, 0x14, 0x3e, 0x30, 0x3e, 0x98, 0xbe,
  0x38, 0x36, 0x74, 0xbe, 0xf5, 0x7f, 0x4e, 0xbe, 0x27, 0x15, 0x9f, 0xbd,
  0x72, 0x78, 0x8b, 0xbe, 0xe5, 0xb5, 0x84, 0xbc, 0x1c, 0xf8, 0x70, 0x3e,
  0xa9, 0xc9, 0xcd, 0x3d, 0x0d, 0x19, 0x22, 0xbf, 0xe6, 0xc9, 0x59, 0x3c,
  0x52, 0x9b, 0x8c, 0xbd, 0xa7, 0x56, 0x32, 0x3e, 0x5f, 0x49, 0x8c, 0xbe,
  0xdb, 0x90, 0x10, 0x3e, 0x25, 0x84, 0xdf, 0xbb, 0x11, 0x31, 0xbc, 0x3d,
  0x1e, 0xba, 0xae, 0xbe, 0x84, 0xfb, 0xdb, 0x3d, 0xf1, 0x71, 0xb2, 0xbd,
  0x8d, 0x01, 0x57, 0x3e, 0xb7, 0x17, 0x00, 0x3e, 0x9c, 0xd3, 0x03, 0xbd,
  0x4c, 0xf8, 0x4e, 0x3e, 0x1e, 0x2d, 0xe2, 0x3d, 0xd1, 0x4b, 0xce, 0xbe,
  0xb4, 0xf4, 0xbc, 0x3e, 0xad, 0x38, 0x58, 0x3d, 0xd9, 0x81, 0x9d, 0xbd,
  0xc2, 0x83, 0x0d, 0xbd, 0xaf, 0x95, 0xe1, 0x3d, 0x25, 0xf3, 0x09, 0xbe,
  0x85, 0xbd, 0x9e, 0x3e, 0xbd, 0xf9, 0x22, 0xbe, 0x9b, 0x54, 0x8d, 0xbe,
  0x7b, 0x9d, 0xe6, 0x3d, 0xa1, 0x35, 0xee, 0x3c, 0x0e, 0x0d, 0x22, 0x3e,
  0xc8, 0x91, 0x22, 0xbe, 0x35, 0x76, 0x95, 0x3e, 0x42, 0x30, 0x44, 0xba,
  0x77, 0x33, 0xdb, 0xbe, 0xaf, 0x2c, 0x30, 0x3d, 0x97, 0x17, 0x17, 0x3d,
  0x0f, 0x16, 0xfe, 0x3d, 0x87, 0xc3, 0xa6, 0xbe, 0xdf, 0x85, 0x4b, 0x3d,
  0x81, 0x55, 0x34, 0xbe, 0xbb, 0xd0, 0x3e, 0x3e, 0x2b, 0x8a, 0x14, 0xbe,
  0xe9, 0x5d, 0x77, 0xbc, 0xe1, 0xf5, 0x12, 0x3d, 0x35, 0x59, 0x17, 0x3e,
  0xa7, 0x02, 0x8e, 0x3e, 0xc3, 0x5a, 0xf3, 0xbd, 0x04, 0x9b, 0x3e, 0x3e,
  0x4e, 0x39, 0xf7, 0xbd, 0x69, 0x3b, 0xc1, 0xbe, 0xc4, 0x1f, 0x8e, 0xbd,
  0xc9, 0x44, 0x1f, 0x3c, 0xc2, 0xb4, 0xbb, 0x3c, 0x61, 0x30, 0xd3, 0xbe,
  0xe4, 0xf3, 0x29, 0x3e, 0x53, 0xc3, 0xfd, 0xbd, 0xfc, 0x9f, 0xcf, 0x3d,
  0x38, 0xe4, 0x8f, 0x3d, 0xf9, 0x09, 0xc0, 0xbd, 0x23, 0x4d, 0x9a, 0xbe,
  0xc3, 0xf4, 0x56, 0x3e, 0xc5, 0x8a, 0x11, 0x3d, 0xf9, 0x1b, 0xde, 0xbd,
  0x6a, 0xc9, 0x1d, 0x3e, 0x18, 0x46, 0xee, 0x3b, 0xdc, 0x2f, 0x92, 0xbe,
  0x51, 0x11, 0xf8, 0x3c, 0xeb, 0x69, 0x64, 0x3d, 0x40, 0xd1, 0x0e, 0x3e,
  0x55, 0x4b, 0x95, 0xbe, 0x5a, 0xd2, 0x3f, 0x3e, 0x6f, 0x80, 0x8c, 0x3d,
  0xfd, 0xe7, 0xd7, 0x3d, 0xc9, 0xfc, 0xc3, 0xbc, 0x57, 0x1a, 0x6b, 0x3d,
  0x17, 0xe5, 0x48, 0xbe, 0xee, 0xcb, 0xf5, 0xbc, 0x21, 0x83, 0x88, 0x3d,
  0x36, 0x46, 0x59, 0xbd, 0x7a, 0x41, 0x37, 0x3d, 0xd4, 0xe9, 0x89, 0x3c,
  0x23, 0x17, 0xba, 0xbe, 0xb5, 0xf3, 0x3a, 0x3d, 0xe2, 0xbb, 0x12, 0x3e,
  0x35, 0x7c, 0x9f, 0x3d, 0x4f, 0x85, 0xe6, 0xbd, 0x7a, 0x43, 0x24, 0xbd,
  0xb1, 0x1a, 0x04, 0xbe, 0x56, 0xa4, 0x01, 0x3e, 0x55, 0x10, 0x83, 0xbe,
  0x2e, 0xad, 0xf6, 0xbd, 0x9b, 0x15, 0x87, 0xbe, 0xd2, 0x91, 0xe6, 0xbd,
  0xea, 0xa1, 0x78, 0x3d, 0x71, 0x52, 0x5d, 0xbc, 0xf9, 0x3a, 0x1b, 0x3e,
  0xa4, 0xda, 0xdd, 0xbc, 0x93, 0x92, 0xf1, 0xbe, 0xf9, 0x1d, 0xf3, 0xbb,
  0xb1, 0xc4, 0x6d, 0x3e, 0x07, 0x35, 0x07, 0x3e, 0x75, 0x51, 0x03, 0xbe,
  0x3d, 0x98, 0xd8, 0xbc, 0xbd, 0x08, 0x23, 0x3d, 0x89, 0x06, 0x73, 0x3e,
  0x8b, 0x0b, 0x99, 0xbe, 0x8f, 0xc8, 0xfe, 0xbd, 0x8d, 0xdf, 0x6e, 0xbe,
  0xc2, 0xd2, 0xdf, 0xbd, 0xee, 0x60, 0xf5, 0xbd, 0xc4, 0x75, 0x5e, 0x3c,
  0xfc, 0x93, 0x47, 0xbb, 0xac, 0xc3, 0xb8, 0xbd, 0x79, 0xbe, 0x8c, 0xbe,
  0x34, 0xef, 0x3f, 0xbd, 0xbf, 0x28, 0x11, 0x3e, 0x64, 0x1f, 0x6a, 0x3e,
  0x58, 0x17, 0x1a, 0xbd, 0xce, 0x06, 0xc8, 0xbd, 0x90, 0x20, 0xf7, 0xbd,
  0x88, 0xa7, 0xa1, 0x3c, 0xdc, 0x44, 0xe4, 0xbe, 0x06, 0xd7, 0x2e, 0xbe,
  0xe7, 0xd3, 0x6d, 0xbe, 0x53, 0x85, 0xe2, 0x3c, 0xbc, 0x76, 0xe1, 0xbd,
  0xa7, 0xbb, 0xec, 0xbd, 0x3d, 0x6e, 0x9e, 0x3d, 0x53, 0xe3, 0x41, 0xbc,
  0xe1, 0x09, 0xba, 0xbe, 0xd3, 0x6a, 0x9c, 0x3d, 0xf7, 0x21, 0x8e, 0x3e,
  0x91, 0x74, 0x0f, 0x3e, 0x90, 0x15, 0xe1, 0xbd, 0xc6, 0xed, 0x4e, 0xbe,
  0xcc, 0x8b, 0xfa, 0x3d, 0x52, 0xd3, 0x2d, 0xbc, 0x5b, 0x9f, 0xb9, 0xbe,
  0xaa, 0x21, 0x8e, 0xbe, 0x32, 0x48, 0xe4, 0xbe, 0xc7, 0x73, 0xa9, 0xbd,
  0x40, 0x9f, 0x66, 0xbd, 0x63, 0xc9, 0x02, 0x3e, 0x68, 0xe7, 0x16, 0x3e,
  0xc5, 0x8a, 0x40, 0x3c, 0x06, 0xd1, 0x3a, 0xbf, 0x88, 0x42, 0x12, 0x3d,
  0x61, 0x80, 0x43, 0x3e, 0xbb, 0x86, 0xa0, 0x3e, 0x12, 0xec, 0x65, 0x3d,
  0x3c, 0xfc, 0x97, 0x3d, 0x02, 0x9d, 0x54, 0xbc, 0x3a, 0x6a, 0xb4, 0x3c,
  0x7b, 0x67, 0x43, 0xbf, 0x86, 0x60, 0x89, 0xbe, 0x90, 0xc9, 0x06, 0xbf,
  0x51, 0x9b, 0x4d, 0x3d, 0xf1, 0xcf, 0x68, 0xbe, 0xf2, 0x3a, 0xef, 0x3c,
  0x6a, 0x64, 0x98, 0x3c, 0x00, 0x08, 0xb4, 0x3d, 0x6c, 0xda, 0xe1, 0xbe,
  0xf1, 0x10, 0x10, 0xbe, 0xc4, 0x06, 0x36, 0x3e, 0xb9, 0xdf, 0x83, 0x3d,
  0x22, 0x5c, 0x13, 0xbe, 0x31, 0x4f, 0xc1, 0x3d, 0xf0, 0x60, 0x80, 0xbd,
  0xb6, 0x09, 0x2a, 0xbf, 0x13, 0xc7, 0x87, 0xbd, 0x3c, 0x73, 0xd7, 0xbd,
  0x81, 0x79, 0x1f, 0x3e, 0xea, 0xcd, 0x15, 0xbf, 0x71, 0x19, 0x06, 0xbf,
  0x95, 0xe9, 0x90, 0xbe, 0xb3, 0x33, 0x65, 0x3e, 0xd4, 0x3b, 0xce, 0xbe,
  0x79, 0xec, 0x66, 0x3d, 0xc8, 0xda, 0x2c, 0xbe, 0xf4, 0x46, 0x82, 0x3e,
  0x3b, 0x79, 0xc0, 0xbe, 0xf7, 0x14, 0x9f, 0xbd, 0xe9, 0x03, 0x34, 0xbf,
  0xab, 0x36, 0x58, 0xbd, 0x96, 0x2e, 0x51, 0x3d, 0xac, 0x47, 0x1b, 0x3e,
  0x61, 0x18, 0x6d, 0x3d, 0xb8, 0x17, 0xb1, 0x3c, 0x90, 0x8f, 0xa2, 0xbe,
  0x58, 0xef, 0x63, 0x3b, 0xe3, 0x32, 0xe7, 0xbd, 0x9c, 0x3d, 0xc7, 0x3d,
  0xeb, 0x23, 0x57, 0x3e, 0x60, 0x5b, 0x00, 0x3d, 0xb1, 0x04, 0x1d, 0xbe,
  0x98, 0xcb, 0x0c, 0x3e, 0x62, 0xa6, 0x85, 0xbe, 0xa9, 0x7c, 0x3b, 0x3d,
  0x62, 0x0c, 0x08, 0xbe, 0xfa, 0x65, 0x89, 0xbd, 0x67, 0x8d, 0xb1, 0x3d,
  0x2c, 0x74, 0x9c, 0x3d, 0x1b, 0x29, 0xe6, 0xbd, 0x59, 0xbf, 0xb0, 0xbc,
  0xd1, 0x97, 0x3b, 0xbe, 0xe0, 0x42, 0xb3, 0x3e, 0xab, 0xc7, 0x63, 0xbd,
  0xf6, 0x8a, 0xda, 0xb9, 0xf0, 0x7c, 0x21, 0x3e, 0xe5, 0x59, 0xb2, 0x3d,
  0x02, 0x23, 0x22, 0xbe, 0x0b, 0x03, 0x1e, 0x3e, 0xfd, 0xb9, 0x8b, 0x3d,
  0xad, 0x55, 0x20, 0x3d, 0x00, 0xe6, 0x71, 0x3e, 0x9b, 0x3d, 0x93, 0x3d,
  0xeb, 0xbf, 0xe2, 0x3c, 0xd0, 0xe2, 0x72, 0x3b, 0xf8, 0xb4, 0x0d, 0x3e,
  0x24, 0x21, 0x58, 0xbd, 0xf0, 0x48, 0xb6, 0xbd, 0xf3, 0xb1, 0xc2, 0x3d,
  0xda, 0x6b, 0xc9, 0xbc, 0x53, 0x5c, 0xea, 0x3c, 0x29, 0x1f, 0xc2, 0x3d,
  0x71, 0xe8, 0x51, 0x3c, 0x34, 0x1c, 0xaf, 0xbd, 0x60, 0x9d, 0xc3, 0x3d,
  0xf9, 0xfa, 0xc5, 0x3d, 0x85, 0xfa, 0x3c, 0xbd, 0xff, 0xd5, 0x7e, 0xbd,
  0x2c, 0x1b, 0x8c, 0x3d, 0x44, 0x20, 0xdd, 0x3c, 0x9e, 0x73, 0xc3, 0xbd,
  0xaf, 0x38, 0x5f, 0x3d, 0x84, 0x7d, 0x47, 0xbb, 0x0c, 0xa8, 0x90, 0x3d,
  0x40, 0x5d, 0x8d, 0x3e, 0xd0, 0xdf, 0x87, 0xbc, 0x68, 0x90, 0x08, 0x3d,
  0x1b, 0x66, 0x4f, 0x3e, 0xf5, 0xf9, 0xf7, 0x3c, 0x4b, 0x06, 0x32, 0x3c,
  0xaa, 0x22, 0x4e, 0xbd, 0x78, 0x33, 0xd4, 0xbc, 0x9c, 0x76, 0xbf, 0x3d,
  0x64, 0xf9, 0xfa, 0x3d, 0x92, 0x34, 0xfe, 0x38, 0x60, 0x7c, 0xe5, 0x3d,
  0x66, 0xa9, 0xba, 0xbc, 0xfb, 0xfc, 0xcf, 0x3d, 0xc3, 0x23, 0xca, 0xbd,
  0x50, 0x67, 0x22, 0xbd, 0x07, 0x93, 0xae, 0x3e, 0x2c, 0x7f, 0x62, 0xbb,
  0xc8, 0x09, 0xce, 0x3d, 0x6f, 0x2b, 0x70, 0xbd, 0xe3, 0x27, 0x4a, 0x3d,
  0xa9, 0xab, 0xe6, 0x3c, 0x3f, 0x79, 0x96, 0x3d, 0x21, 0xb0, 0xe7, 0x3d,
  0x98, 0x1d, 0x73, 0x3d, 0x7b, 0x37, 0x30, 0x3d, 0xd8, 0x68, 0x75, 0xbd,
  0x4c, 0xa2, 0xdf, 0xbd, 0x98, 0x93, 0x67, 0x3d, 0x57, 0x2b, 0x00, 0xbe,
  0x26, 0x85, 0xc7, 0xbd, 0x5b, 0x1a, 0x70, 0xbd, 0xcd, 0xe6, 0x31, 0x3e,
  0xc4, 0x9a, 0x54, 0xbd, 0xbe, 0xca, 0x73, 0x3d, 0x57, 0xa9, 0xf1, 0x3c,
  0x7b, 0x97, 0xbd, 0x3d, 0x1c, 0x8d, 0xa8, 0xbc, 0xfb, 0xaa, 0x14, 0xbe,
  0x48, 0x40, 0x06, 0x3d, 0x83, 0x53, 0x6b, 0x39, 0xce, 0x79, 0x3b, 0x3e,
  0x06, 0xa7, 0x3b, 0xbc, 0x2d, 0x6a, 0x35, 0x3d, 0x2b, 0xab, 0x09, 0x3d,
  0xff, 0xe4, 0x1d, 0xbc, 0xe9, 0x2b, 0xb1, 0xbd, 0x06, 0x77, 0x8e, 0xbd,
  0x46, 0xb2, 0x46, 0x3e, 0xd3, 0xc2, 0x22, 0x3d, 0x08, 0x6d, 0x2f, 0x3d,
  0x28, 0xe1, 0xd2, 0x3d, 0x76, 0xff, 0xab, 0x3c, 0xeb, 0x7f, 0x8d, 0xbd,
  0xe1, 0xa3, 0x9c, 0xbc, 0xc3, 0x50, 0x45, 0x3d, 0x3b, 0x85, 0x0f, 0xbd,
  0x72, 0xbd, 0x9c, 0x3c, 0x21, 0x23, 0x0e, 0x3e, 0x3a, 0x41, 0x34, 0xbd,
  0x96, 0x04, 0x11, 0x3e, 0xbd, 0x8f, 0x13, 0xbe, 0x2d, 0x8e, 0x09, 0xbd,
  0x29, 0xb8, 0x0b, 0xbd, 0xb4, 0xa5, 0x1f, 0x3e, 0x2f, 0x7e, 0xee, 0xbd,
  0xd1, 0x6c, 0x3f, 0x3e, 0xa0, 0xd2, 0x2c, 0x3d, 0xea, 0x1e, 0x9e, 0xbc,
  0x3d, 0xce, 0x22, 0xbd, 0x7e, 0x9c, 0xe0, 0x3d, 0x0d, 0xa7, 0x9d, 0x3d,
  0x0d, 0x52, 0x0c, 0x3e, 0xd2, 0xcf, 0x8a, 0x3d, 0xbc, 0x7b, 0x9e, 0x3d,
  0x84, 0x33, 0x8d, 0x3d, 0x07, 0xc6, 0x40, 0xbd, 0x88, 0x1b, 0xc7, 0x3d,
  0x37, 0xc6, 0x24, 0xbe, 0xa9, 0xb4, 0x2a, 0xbd, 0xc3, 0xe3, 0x93, 0x3e,
  0xca, 0x1f, 0x93, 0xbd, 0xbb, 0xd7, 0x9b, 0x3d, 0x47, 0x6a, 0x9f, 0x3c,
  0xd4, 0xbb, 0x31, 0xbd, 0x09, 0x8c, 0x9e, 0xbd, 0x42, 0x8d, 0x74, 0x3d,
  0xc8, 0x4b, 0xc5, 0x3d, 0xcd, 0xe3, 0x8f, 0x3d, 0x94, 0xfe, 0x1f, 0x3d,
  0x60, 0xa1, 0x22, 0x3e, 0x83, 0xff, 0x10, 0xbe, 0x74, 0x0b, 0x82, 0x3b,
  0xce, 0xdc, 0x62, 0xbd, 0x4d, 0xb4, 0x39, 0xbd, 0x67, 0x4d, 0x84, 0x3d,
  0xbf, 0xb0, 0x83, 0x3e, 0xd7, 0x8b, 0xc5, 0xbd, 0x60, 0x0a, 0xea, 0x3d,
  0x86, 0xa8, 0xc5, 0x3b, 0xa3, 0x6e, 0xd6, 0xbc, 0x89, 0x71, 0x03, 0xbe,
  0x9f, 0xa0, 0x02, 0x3e, 0xf8, 0xe3, 0xf0, 0x3d, 0x8a, 0xa3, 0x7e, 0xbd,
  0x80, 0x59, 0x67, 0x3b, 0x43, 0x00, 0x92, 0x3d, 0xbd, 0xb3, 0x06, 0xbd,
  0xc8, 0x0f, 0x12, 0x3e, 0x50, 0xfa, 0x98, 0xbe, 0xae, 0xa7, 0x75, 0xbd,
  0xe5, 0x7f, 0x10, 0xbe, 0x87, 0x91, 0x85, 0x3e, 0x8f, 0x98, 0xc9, 0xbd,
  0x0f, 0x7a, 0x44, 0x3e, 0x90, 0x72, 0xbc, 0xbd, 0x84, 0x0d, 0xb1, 0x3c,
  0x0c, 0x24, 0xbd, 0xbd, 0xc4, 0xd0, 0x74, 0xbd, 0x09, 0xb3, 0x5b, 0x3e,
  0xd2, 0xc9, 0xa2, 0xbd, 0x46, 0x7c, 0x03, 0xbe, 0x5b, 0xb8, 0xba, 0x3d,
  0x2e, 0xaf, 0xa7, 0xbd, 0xe7, 0x7c, 0x72, 0x3d, 0x62, 0x97, 0x44, 0xbd,
  0x2a, 0x14, 0x94, 0x3d, 0xb6, 0x72, 0x9a, 0xbe, 0xb0, 0x22, 0xaa, 0x3e,
  0x86, 0xdc, 0x31, 0xbd, 0x54, 0xf8, 0x79, 0xbe, 0x94, 0xa8, 0x4d, 0xbe,
  0x98, 0xaa, 0x2a, 0x3d, 0xf8, 0xbe, 0xef, 0xbe, 0x63, 0x74, 0x42, 0x3e,
  0x32, 0x01, 0x01, 0xbc, 0x8a, 0xbb, 0xdd, 0xbc, 0x51, 0x98, 0x45, 0xbc,
  0xe9, 0xca, 0x1a, 0xbc, 0xa3, 0x34, 0x13, 0xbf, 0xcd, 0xfa, 0xab, 0xbc,
  0xe4, 0xb8, 0x19, 0x3d, 0x2f, 0x44, 0x86, 0x3c, 0xc6, 0x25, 0x23, 0xbf,
  0x34, 0xa6, 0xf1, 0xbe, 0x1f, 0x68, 0xe8, 0x3d, 0xf2, 0xf9, 0xb0, 0xbd,
  0x66, 0xe1, 0xd5, 0xbe, 0x61, 0xa7, 0xd4, 0x3c, 0xda, 0x05, 0x98, 0xbe,
  0x57, 0x96, 0x22, 0xbd, 0x58, 0xcb, 0x15, 0x3d, 0x1a, 0xc4, 0x05, 0xbd,
  0x9d, 0x58, 0x00, 0xbf, 0x70, 0x69, 0x9d, 0x3d, 0xc7, 0x9e, 0xe1, 0x3d,
  0x4c, 0x45, 0x4d, 0xbe, 0xa0, 0x82, 0x04, 0x3d, 0x84, 0xfb, 0x95, 0x3d,
  0x0f, 0x90, 0xc1, 0x3d, 0x77, 0xb4, 0xad, 0x3d, 0x2d, 0x6a, 0x7b, 0x3e,
  0x92, 0x19, 0x84, 0xbe, 0xc3, 0xa3, 0xdf, 0x3e, 0xba, 0x40, 0xe3, 0xbd,
  0x5c, 0xc1, 0xd3, 0x3d, 0x03, 0x49, 0x9f, 0x3e, 0x98, 0xa5, 0xdc, 0x3d,
  0x55, 0xd5, 0x00, 0x3e, 0x48, 0xf8, 0xf5, 0xbe, 0xd6, 0x57, 0x96, 0x3d,
  0x4f, 0x1c, 0x45, 0xbf, 0x2d, 0xa7, 0x6f, 0xbe, 0xbd, 0x9f, 0xb7, 0xbd,
  0xa9, 0xad, 0x1f, 0x3e, 0x72, 0x3c, 0xa3, 0xbe, 0x38, 0xec, 0xe5, 0xbe,
  0x14, 0x05, 0xf2, 0xbb, 0x8f, 0x11, 0xd7, 0xbe, 0x5d, 0x26, 0x47, 0x3e,
  0x81, 0xfc, 0x21, 0x3c, 0x74, 0x54, 0xe8, 0xbc, 0x99, 0x46, 0xef, 0x3e,
  0x5d, 0xb3, 0xfe, 0x3a, 0xae, 0x95, 0x23, 0xbe, 0x6a, 0x6e, 0xc9, 0xbe,
  0xdc, 0xe4, 0x62, 0x3e, 0x83, 0x33, 0x1d, 0xbf, 0x7e, 0xcc, 0x7d, 0xbe,
  0xe0, 0x7a, 0x21, 0xbe, 0x3b, 0x41, 0x0b, 0x3e, 0xd7, 0x85, 0x38, 0xbf,
  0x3d, 0x2b, 0x5e, 0xbf, 0x06, 0x2b, 0xa1, 0x3d, 0x1d, 0xc9, 0xfd, 0xbd,
  0xe2, 0xad, 0x9d, 0x3e, 0xd3, 0x0d, 0xd4, 0x3b, 0xb4, 0xab, 0x7c, 0xbe,
  0x98, 0xbd, 0x97, 0x3e, 0x91, 0xaf, 0x8e, 0xbe, 0xad, 0xae, 0xfe, 0xbe,
  0xbe, 0xbc, 0xf0, 0xbe, 0x5b, 0x0e, 0x19, 0x3e, 0xb2, 0x53, 0x8e, 0xbe,
  0x1b, 0xf3, 0x2f, 0xbe, 0xb1, 0x3e, 0xf4, 0x3d, 0xd5, 0xf3, 0x04, 0x3d,
  0xda, 0x2a, 0x16, 0xbf, 0xa6, 0x49, 0x04, 0xbf, 0xf5, 0x56, 0x80, 0x3d,
  0xeb, 0x28, 0xc6, 0xbb, 0x5c, 0x20, 0x82, 0x3e, 0xf5, 0x50, 0x7e, 0xbd,
  0x69, 0xf1, 0x5c, 0xbe, 0xd6, 0x97, 0x1a, 0x3e, 0x3c, 0x05, 0x93, 0xbd,
  0x26, 0x62, 0xeb, 0xbe, 0x64, 0x90, 0xe8, 0xbe, 0x87, 0x5b, 0xb3, 0xbd,
  0xde, 0x0b, 0x53, 0xbe, 0xb3, 0x3a, 0x79, 0xbe, 0xc4, 0x03, 0x1b, 0x3e,
  0xa7, 0x07, 0x88, 0x3d, 0x33, 0x07, 0xff, 0xbe, 0xc2, 0xa1, 0x2f, 0xbf,
  0x09, 0xaa, 0xb3, 0xbc, 0xdd, 0xca, 0x9d, 0xbb, 0x04, 0x32, 0xad, 0x3e,
  0x83, 0xa1, 0x1a, 0xbd, 0xb9, 0xcb, 0x45, 0xbe, 0x00, 0x12, 0x2c, 0x3e,
  0x7c, 0x34, 0x96, 0xbc, 0x45, 0xcc, 0x9b, 0xbe, 0x24, 0xf6, 0xf2, 0xbe,
  0x61, 0xf6, 0xd2, 0xbd, 0x8b, 0xc6, 0x33, 0xbd, 0x9b, 0x5c, 0xf1, 0x3b,
  0xcf, 0x0a, 0x40, 0x3d, 0x94, 0xba, 0xb9, 0x3c, 0x95, 0x33, 0xdf, 0xbe,
  0xf7, 0x46, 0x28, 0xbe, 0x74, 0x0f, 0x48, 0xbd, 0x48, 0x2c, 0xa6, 0xb9,
  0x25, 0x0e, 0x86, 0x3e, 0xc6, 0x90, 0x42, 0xbc, 0x45, 0x52, 0x01, 0x3c,
  0xf0, 0x0a, 0x72, 0x3e, 0x65, 0x54, 0x28, 0x3d, 0x39, 0xf3, 0xe9, 0xbd,
  0x64, 0x62, 0x46, 0xbe, 0xf5, 0xf0, 0xbe, 0x3c, 0xf2, 0xe5, 0x0f, 0x3c,
  0xd0, 0xbc, 0x32, 0x3e, 0xe6, 0x6d, 0xaa, 0x3e, 0xb8, 0x7d, 0x69, 0x3b,
  0x66, 0x68, 0xd4, 0xbd, 0xa0, 0xf6, 0xb0, 0xbd, 0x90, 0x50, 0xd1, 0xbd,
  0xe0, 0x1a, 0x27, 0xbd, 0xbf, 0xd1, 0x6b, 0x3d, 0xf6, 0x01, 0x83, 0x3d,
  0x5c, 0x72, 0xb7, 0xbc, 0x06, 0x01, 0x10, 0x3f, 0x0c, 0x20, 0x1e, 0xbc,
  0xce, 0xe5, 0x1a, 0x3e, 0xa0, 0xc5, 0xfd, 0x3d, 0x71, 0x35, 0xb1, 0xbd,
  0x33, 0x6e, 0x5a, 0xbe, 0xc9, 0x5e, 0xa6, 0x3c, 0xf0, 0xfc, 0xf7, 0x3d,
  0x0e, 0x8d, 0xcd, 0x3c, 0xeb, 0x86, 0xab, 0xbe, 0x2d, 0x77, 0x97, 0xbe,
  0x7c, 0xbe, 0x13, 0xbe, 0x6c, 0x21, 0x0a, 0xbe, 0xa4, 0x10, 0x53, 0x3e,
  0xb0, 0xb1, 0x89, 0x3d, 0xd0, 0x42, 0xbe, 0xbd, 0xef, 0xe9, 0x3d, 0x3d,
  0xcd, 0xc8, 0xd2, 0x3d, 0xe5, 0xdc, 0xe2, 0x3d, 0x87, 0x0b, 0x6b, 0x3e,
  0xff, 0xc6, 0x25, 0xbe, 0xc0, 0x9d, 0xce, 0xbe, 0x37, 0x63, 0x19, 0xbd,
  0x39, 0x45, 0xa6, 0x3b, 0x6a, 0x1c, 0xca, 0x3d, 0x40, 0xf9, 0xd5, 0xbe,
  0x8d, 0x86, 0x62, 0xbe, 0x8b, 0x80, 0xea, 0xbd, 0x5a, 0x0f, 0x90, 0xbe,
  0xf9, 0x93, 0xcc, 0xbd, 0x96, 0x6d, 0x55, 0x3d, 0xd3, 0x00, 0xe9, 0xbd,
  0x5a, 0xf6, 0x88, 0x3e, 0xa0, 0x42, 0x8b, 0xbc, 0x79, 0x9d, 0xdc, 0xbc,
  0xd7, 0x36, 0xa6, 0xbe, 0x16, 0x9c, 0x1d, 0xbe, 0xe6, 0x35, 0xaa, 0xbe,
  0xef, 0x51, 0xf1, 0xbd, 0x32, 0xbf, 0x93, 0x3d, 0xb3, 0x82, 0x8a, 0x3d,
  0x1f, 0xf5, 0x0d, 0xbf, 0x10, 0xe3, 0x92, 0xbe, 0x3a, 0x22, 0xcc, 0xbd,
  0x53, 0xa3, 0xdb, 0x3b, 0x5c, 0x1d, 0x0a, 0x3e, 0xc8, 0x0a, 0x6f, 0x3c,
  0xc2, 0x3a, 0x1b, 0xbd, 0x4c, 0xcc, 0xa5, 0x3e, 0xdb, 0x3e, 0xf0, 0x3d,
  0x45, 0x17, 0xfd, 0xbd, 0xa6, 0x04, 0x9e, 0xbe, 0xf3, 0x71, 0x84, 0xbb,
  0x71, 0xb9, 0xf4, 0xbe, 0x8a, 0x62, 0x01, 0xbe, 0xbe, 0x53, 0x8c, 0x3e,
  0xb3, 0x46, 0xd7, 0x3a, 0x42, 0x9e, 0x1d, 0xbf, 0x1a, 0x76, 0x33, 0xbf,
  0x87, 0x08, 0x5b, 0xbd, 0x00, 0x9d, 0x30, 0xbd, 0x6f, 0x3e, 0x26, 0x3e,
  0x1b, 0xaf, 0x81, 0x3d, 0x5b, 0x48, 0xd1, 0x3a, 0xd7, 0x6f, 0x09, 0x3e,
  0xe7, 0xf9, 0x3e, 0x3d, 0x96, 0x58, 0x71, 0xbe, 0x3d, 0x4d, 0xd3, 0xbe,
  0xc1, 0xe1, 0x6d, 0xbd, 0x96, 0xf5, 0xfb, 0xbe, 0x61, 0x5f, 0x47, 0xbe,
  0x31, 0xb1, 0x60, 0xbd, 0xca, 0xae, 0x22, 0x3e, 0x59, 0x2b, 0x21, 0xbf,
  0x49, 0x79, 0xa5, 0xbe, 0xf5, 0xac, 0xa3, 0xbd, 0x58, 0x20, 0xa9, 0xbd,
  0xf5, 0x0b, 0x01, 0x3e, 0x7e, 0xcf, 0x00, 0x3c, 0x13, 0xc6, 0xf1, 0x3c,
  0x15, 0x77, 0xbf, 0x3e, 0x00, 0xde, 0xfe, 0xbd, 0xdb, 0x93, 0x83, 0xbd,
  0xf7, 0x19, 0x63, 0xbe, 0x87, 0x73, 0x41, 0x3c, 0x28, 0x02, 0x08, 0xbf,
  0x5d, 0x3a, 0x33, 0xbd, 0x56, 0x05, 0x0d, 0x3f, 0x6c, 0xc8, 0xa0, 0x3d,
  0x18, 0x79, 0x44, 0xbf, 0x25, 0x75, 0x71, 0xbe, 0x8c, 0xba, 0x56, 0xbd,
  0xe6, 0xcd, 0x03, 0xbe, 0xe0, 0xbf, 0x69, 0xbd, 0x98, 0x7a, 0xcc, 0xbc,
  0xf7, 0xb2, 0x7a, 0xbd, 0x08, 0x99, 0x28, 0x3f, 0xc7, 0xf1, 0x5c, 0xbe,
  0x2d, 0x9b, 0xfb, 0xbd, 0xe0, 0x3e, 0x24, 0x3e, 0xef, 0x5b, 0xa8, 0xbc,
  0xf9, 0x0c, 0x5c, 0xbe, 0x50, 0x6f, 0xf7, 0xbd, 0x47, 0x7d, 0x64, 0x3c,
  0xce, 0x16, 0xc2, 0x3d, 0x33, 0xb5, 0x82, 0xbe, 0x6d, 0x0a, 0x90, 0xbd,
  0x5e, 0x89, 0xfc, 0x3c, 0x2b, 0x29, 0x0c, 0x3e, 0xd0, 0x2a, 0x00, 0x3d,
  0x6e, 0xdf, 0x29, 0xbd, 0x02, 0xf7, 0xc4, 0xbd, 0xae, 0xb3, 0x09, 0x3f,
  0xd3, 0x65, 0xaa, 0xbd, 0x1e, 0x22, 0xf4, 0x3c, 0xee, 0x93, 0x78, 0x3e,
  0x7a, 0x77, 0x11, 0xbe, 0x68, 0xa8, 0x9f, 0xbd, 0x1e, 0xce, 0x5a, 0xbb,
  0xea, 0xc4, 0xb8, 0x3c, 0x70, 0xf5, 0xef, 0x3b, 0x91, 0x41, 0xb8, 0xbe,
  0x97, 0x1c, 0xfd, 0xbe, 0xc3, 0xdc, 0x7e, 0xbd, 0xa7, 0x97, 0xac, 0xbe,
  0xf4, 0x61, 0x90, 0x3e, 0x30, 0x33, 0x0a, 0xbd, 0xd4, 0x8f, 0x8f, 0xbd,
  0xbe, 0x71, 0xb1, 0x3d, 0x3f, 0xdf, 0xcf, 0xbe, 0x17, 0x03, 0x3e, 0xbd,
  0xed, 0x9b, 0x49, 0xbf, 0x8d, 0xbf, 0x48, 0x3d, 0xb6, 0xba, 0x21, 0xbf,
  0x9b, 0xed, 0x22, 0x3d, 0x8f, 0xfa, 0x77, 0x3e, 0xcd, 0x57, 0x08, 0x3c,
  0xfe, 0x01, 0x2a, 0xbf, 0xe6, 0xba, 0x23, 0xbf, 0xf9, 0x4e, 0x44, 0xbe,
  0x84, 0x6d, 0x30, 0xbf, 0x22, 0x67, 0xa5, 0xbd, 0xeb, 0x1f, 0x80, 0xbd,
  0xa3, 0xf9, 0x42, 0xbe, 0x47, 0x92, 0x9b, 0x3d, 0xaa, 0x80, 0x2e, 0xbf,
  0xbd, 0x0f, 0xf3, 0xbc, 0x44, 0x80, 0x52, 0xbf, 0x2c, 0xe6, 0xa6, 0xbc,
  0xf2, 0x32, 0x96, 0xbe, 0x64, 0x53, 0x06, 0x3d, 0x50, 0x73, 0x85, 0x3d,
  0x78, 0x1d, 0xc7, 0x3d, 0xcc, 0x3f, 0x13, 0xbf, 0xb1, 0x47, 0x11, 0xbf,
  0xaa, 0xee, 0xba, 0xbe, 0xf0, 0x43, 0x2a, 0xbf, 0xed, 0x2f, 0x45, 0xbe,
  0x29, 0xc9, 0xb9, 0xbd, 0xa5, 0x6c, 0x8b, 0xbe, 0x75, 0xea, 0x5c, 0xbd,
  0x1c, 0x7b, 0x14, 0xbf, 0x88, 0x6d, 0x3b, 0x3c, 0x8d, 0x1c, 0x64, 0xbf,
  0xae, 0x55, 0x1b, 0x3d, 0xb7, 0x2a, 0x0b, 0x3e, 0xd0, 0x6b, 0x50, 0x3d,
  0x71, 0x68, 0xff, 0x3d, 0x3b, 0x14, 0x20, 0xbd, 0x82, 0x2f, 0x43, 0xbf,
  0xe6, 0xef, 0xf1, 0xbe, 0xe0, 0x9f, 0x2f, 0xbe, 0x71, 0x74, 0xa6, 0xbc,
  0x72, 0x22, 0xa4, 0xbe, 0xec, 0xe5, 0x89, 0xbc, 0x01, 0xcf, 0x8a, 0xbe,
  0x7f, 0xf8, 0xcd, 0x3d, 0xde, 0x82, 0x6a, 0xbe, 0xc9, 0x04, 0x92, 0xbd,
  0x61, 0x63, 0xb4, 0xbe, 0xd2, 0xa4, 0xbb, 0x3d, 0xd2, 0x8f, 0xb3, 0x3e,
  0x5f, 0x17, 0x72, 0xbd, 0x34, 0xfc, 0x6b, 0x3d, 0x89, 0x29, 0xd5, 0xbc,
  0x1f, 0xa9, 0x09, 0xbf, 0xef, 0xb6, 0xa9, 0xbe, 0x68, 0xdb, 0xda, 0xbd,
  0xd4, 0x95, 0x6c, 0x3e, 0xf4, 0x6b, 0x19, 0xbe, 0x09, 0x07, 0xf1, 0x3c,
  0xc6, 0x2d, 0xc6, 0xbe, 0x92, 0xae, 0x54, 0xbc, 0x97, 0x95, 0xe8, 0xbd,
  0x24, 0xf4, 0xe2, 0x3d, 0x2b, 0x63, 0x37, 0xbe, 0xfc, 0x33, 0x4d, 0x3c,
  0xda, 0x7e, 0x31, 0x3e, 0x64, 0x75, 0x12, 0xbe, 0x6f, 0xa3, 0x20, 0xbd,
  0x8f, 0xac, 0x39, 0x3d, 0xee, 0xa8, 0xd8, 0xbd, 0x1f, 0x04, 0x2e, 0xbe,
  0xbd, 0x6c, 0xb7, 0xbe, 0xe7, 0x6f, 0x7b, 0x3e, 0xb4, 0xe9, 0xa5, 0xbb,
  0xbc, 0x33, 0xf8, 0xbc, 0x6d, 0x0e, 0x10, 0xbe, 0xc8, 0xa5, 0xd7, 0x3d,
  0xca, 0x47, 0x1b, 0xbe, 0xd9, 0x07, 0x14, 0xbe, 0xaa, 0x8f, 0x47, 0x3e,
  0xbb, 0x60, 0x61, 0xbd, 0xe6, 0x94, 0xc7, 0x3d, 0x83, 0x0e, 0xcf, 0xbd,
  0x85, 0x5e, 0xb2, 0xbe, 0x6b, 0x80, 0xd2, 0x3b, 0x87, 0xd9, 0xf3, 0xbc,
  0x4a, 0x7a, 0xe7, 0x3d, 0xff, 0xa7, 0xbf, 0xbe, 0xd6, 0xf9, 0x23, 0x3e,
  0x5b, 0xe4, 0x86, 0xbc, 0x5d, 0xf4, 0x66, 0xbd, 0xbd, 0x1e, 0x87, 0xbd,
  0xee, 0x14, 0x45, 0xbd, 0xbd, 0x60, 0x59, 0x3e, 0xc2, 0x27, 0xe1, 0xbd,
  0x73, 0x29, 0x06, 0x3d, 0x88, 0x20, 0x41, 0x3b, 0x87, 0xe2, 0x13, 0xbb,
  0xfd, 0xeb, 0xfb, 0x3d, 0x25, 0x3d, 0x56, 0xbe, 0xae, 0xda, 0x11, 0xbd,
  0x8d, 0x1f, 0x50, 0xbd, 0xb5, 0x9a, 0x31, 0x3e, 0xb2, 0xb8, 0x56, 0xbe,
  0x42, 0x04, 0x28, 0x3e, 0x58, 0xd1, 0xa3, 0x3e, 0x05, 0xf4, 0x81, 0x3d,
  0xaa, 0x32, 0x33, 0x3d, 0xb7, 0xa0, 0x98, 0xbd, 0x43, 0xa9, 0xf2, 0x3d,
  0x5a, 0xfa, 0x85, 0xbc, 0xfb, 0x9e, 0x50, 0x3e, 0x71, 0x30, 0x13, 0x3e,
  0xa3, 0x38, 0x74, 0x3d, 0x69, 0x61, 0xcd, 0x3d, 0x6d, 0x56, 0xa4, 0xbe,
  0x71, 0x1a, 0x29, 0xbc, 0xfa, 0x03, 0x14, 0xbe, 0x59, 0x53, 0x60, 0x3e,
  0x26, 0x2f, 0x5f, 0xbe, 0x19, 0x79, 0x2e, 0x3e, 0x0e, 0x9a, 0xb9, 0x3e,
  0x07, 0xc0, 0xa6, 0x3d, 0xe1, 0xc2, 0x04, 0xbe, 0xbe, 0x85, 0xc8, 0x3d,
  0xc4, 0x5e, 0x9a, 0x3e, 0x90, 0xed, 0x59, 0xbd, 0x47, 0x93, 0x90, 0x3d,
  0x50, 0x0e, 0x2f, 0x3e, 0x0c, 0x91, 0x27, 0x3d, 0xd5, 0x6d, 0x24, 0x3d,
  0x39, 0xaf, 0x83, 0xbe, 0x58, 0xd9, 0x27, 0xbd, 0x31, 0x3c, 0x2d, 0xbe,
  0xfe, 0x2c, 0x58, 0x3e, 0x4c, 0x54, 0xd6, 0xbd, 0x38, 0x7f, 0x43, 0x3e,
  0xaf, 0x49, 0xa6, 0x3e, 0x72, 0x99, 0xe1, 0xbd, 0x61, 0x4a, 0xbb, 0xbd,
  0x0b, 0xd7, 0x50, 0x3e, 0xaf, 0xf0, 0x34, 0x3e, 0x1d, 0xae, 0xfa, 0xbb,
  0xd2, 0xe5, 0xc5, 0x3e, 0xb3, 0xbf, 0xf7, 0x3d, 0xb0, 0xfa, 0x0e, 0xbd,
  0xc4, 0x8e, 0x92, 0xbe, 0xf6, 0xf7, 0x43, 0xbe, 0xce, 0xce, 0xd7, 0xbd,
  0xed, 0x9e, 0x33, 0x3b, 0xfb, 0x52, 0xb4, 0x3e, 0x5c, 0x0f, 0x57, 0xbe,
  0x33, 0x00, 0xb6, 0x3d, 0x1d, 0xea, 0xcc, 0x3d, 0xdb, 0x38, 0x5c, 0xbe,
  0x7c, 0xf2, 0x46, 0x3d, 0xa8, 0xcf, 0x43, 0x3d, 0x9f, 0x7c, 0x00, 0x3e,
  0xa5, 0x54, 0x21, 0x3d, 0x77, 0xe9, 0x7d, 0x3e, 0xaf, 0x7a, 0x88, 0x3d,
  0xd0, 0xe3, 0x17, 0xbe, 0x5a, 0x26, 0xf8, 0xbb, 0xfe, 0xc7, 0x2d, 0xbe,
  0x40, 0xf0, 0x0a, 0xbe, 0xfa, 0x95, 0x1f, 0x3c, 0x00, 0xb0, 0x9b, 0x3e,
  0xd5, 0x37, 0x00, 0xbf, 0x6f, 0x9c, 0x5c, 0x3e, 0x7b, 0x3f, 0xc8, 0x3e,
  0xeb, 0xc1, 0xdb, 0xbc, 0xd7, 0x5a, 0xb2, 0xbe, 0xcd, 0xe9, 0x12, 0x3d,
  0x84, 0x50, 0x96, 0x3e, 0x36, 0x23, 0x01, 0xbe, 0x39, 0x39, 0x6b, 0x3e,
  0x51, 0xf3, 0x4a, 0xbd, 0x0e, 0x6a, 0x10, 0x3e, 0xab, 0x46, 0x36, 0x3e,
  0x1f, 0x17, 0xcf, 0xbe, 0x44, 0x05, 0xa1, 0x3d, 0x71, 0xdf, 0x3d, 0xbe,
  0xb4, 0x12, 0x9e, 0x3e, 0x81, 0x5e, 0x7e, 0xbe, 0xa9, 0x7c, 0x94, 0x3e,
  0xc1, 0xb7, 0x7f, 0xbc, 0x0e, 0xd6, 0xcf, 0x3c, 0xbd, 0x0c, 0x72, 0xbe,
  0x78, 0xad, 0xc7, 0x3d, 0x94, 0xf4, 0xea, 0x3d, 0x8b, 0xb3, 0x18, 0x3d,
  0x8b, 0x45, 0xa7, 0x3e, 0xe0, 0x22, 0xb8, 0xbe, 0x86, 0x66, 0x49, 0xbe,
  0x14, 0x5c, 0x24, 0x3e, 0x64, 0x87, 0xe9, 0xbd, 0x3e, 0x21, 0xa8, 0x3c,
  0xf6, 0xd7, 0x30, 0xbe, 0x23, 0xf5, 0xdc, 0xbd, 0x98, 0x50, 0x80, 0xbe,
  0x65, 0xcb, 0x70, 0xbe, 0x57, 0x9f, 0xed, 0xbe, 0xc5, 0x52, 0x61, 0x3c,
  0x20, 0x38, 0x93, 0xbe, 0x5c, 0x85, 0xe9, 0xbe, 0x4b, 0x3e, 0x2c, 0x3d,
